#version: 0.2
没 有</w>
他 们</w>
于 是</w>
自 己</w>
将 军</w>
皇 帝</w>
二 十
朝 廷</w>
不 能</w>
所 以</w>
可 以</w>
百 姓</w>
什 么</w>
如 果</w>
皇 上</w>
军 队</w>
任 命</w>
刺 史</w>
儿 子</w>
天 下</w>
因 为</w>
请 求</w>
一 个</w>
现 在</w>
国 家</w>
这 样</w>
知 道</w>
认 为</w>
就 是</w>
命 令</w>
当 时</w>
不 是</w>
尚 书</w>
太 子</w>
因 此</w>
已 经</w>
地 方</w>
后 来</w>
得 到</w>
一 定</w>
这 是</w>
不 久</w>
我 们</w>
去 世</w>
派 遣</w>
二 年</w>
大 夫</w>
时 候</w>
使 者</w>
一 样</w>
以 后</w>
陛 下</w>
率 领</w>
节 度
节度 使</w>
听 说</w>
这 个</w>
事 情</w>
武 帝</w>
太 祖</w>
这 些</w>
祭 祀</w>
三 年</w>
官 员</w>
应 该</w>
应 当</w>
大 臣</w>
太 守</w>
一 起</w>
回 答</w>
二 月</w>
高 祖</w>
太 后</w>
虽 然</w>
诏 令</w>
出 现</w>
君 主</w>
司 马</w>
之 后</w>
开 始</w>
进 入</w>
人 们</w>
那 么</w>
作 为</w>
起 来</w>
攻 打</w>
天 子</w>
十 一
进 攻</w>
父 亲</w>
发 生</w>
怎 么</w>
能 够</w>
官 吏</w>
侍 郎</w>
讨 伐</w>
出 来</w>
全 部</w>
文 帝</w>
皇 后</w>
然 后</w>
接 受</w>
不 要</w>
有 人</w>
担 任</w>
元 年</w>
敌 人</w>
投 降</w>
亲 自</w>
不 敢</w>
设 置</w>
大 将军</w>
将 领</w>
只 有</w>
十 分</w>
的 话</w>
平 定</w>
御 史</w>
这 时</w>
情 况</w>
希 望</w>
杀 死</w>
才 能</w>
京 城</w>
不 会</w>
士 兵</w>
到 达</w>
这 种</w>
东 西</w>
告 诉</w>
这 里</w>
你 们</w>
母 亲</w>
治 理</w>
等 到</w>
一 年</w>
非 常</w>
打 败</w>
三 十
官 职</w>
准 备</w>
骑 兵</w>
回 到</w>
宰 相</w>
以 及</w>
前 往</w>
诸 侯</w>
为 什么</w>
前 来</w>
年 间</w>
四 年</w>
下 来</w>
都 督</w>
很 多</w>
赐 给</w>
赏 赐</w>
返 回</w>
丞 相</w>
多 次</w>
孔 子</w>
看 见</w>
两 个</w>
回 来</w>
如 今</w>
来 到</w>
一 天</w>
之 间</w>
国 君</w>
弟 弟</w>
经 过</w>
高 兴</w>
政 事</w>
时 间</w>
左 右</w>
别 人</w>
只 是</w>
齐 国</w>
即 位</w>
秦 国</w>
然 而</w>
五 年</w>
一 百
害 怕</w>
三 日</w>
由 于</w>
部 队</w>
妻 子</w>
过 去</w>
四 月</w>
七 日</w>
听 到</w>
粮 食</w>
五 日</w>
受 到</w>
成 为</w>
地 区</w>
那 些</w>
七 月</w>
而 且</w>
五 月</w>
太 宗</w>
人 民</w>
那 里</w>
正 月</w>
意 见</w>
黄 河</w>
曾 经</w>
当 初</w>
六 月</w>
进 行</w>
即 使</w>
还 是</w>
不 同</w>
上 书</w>
衣 服</w>
土 地</w>
但 是</w>
楚 国</w>
不 到</w>
以 前</w>
学 士</w>
中 书</w>
八 月</w>
洛 阳</w>
诏 书</w>
难 道</w>
侍 中</w>
不 可</w>
还 有</w>
匈 奴</w>
安 定</w>
报 告</w>
二 日</w>
以 为</w>
十 二月</w>
如 此</w>
九 日</w>
打 算</w>
仆 射</w>
八 日</w>
听 从</w>
镇 守</w>
礼 仪</w>
下 令</w>
十一 月</w>
称 为</w>
四 日</w>
三 月</w>
制 度</w>
反 叛</w>
看 到</w>
百 官</w>
兄 弟</w>
想 要</w>
京 师</w>
六 年</w>
六 日</w>
见 到</w>
常 常</w>
停 止</w>
喜 欢</w>
事 务</w>
上 天</w>
那 样</w>
更 加</w>
其 中</w>
侵 犯</w>
互 相</w>
一 次</w>
得 以</w>
军 事</w>
道 理</w>
任 用</w>
功 劳</w>
长 安</w>
汉 朝</w>
十 月</w>
初 年</w>
全 都</w>
爵 位</w>
议 论</w>
并 且</w>
跟 随</w>
用 来</w>
因 而</w>
民 众</w>
今 天</w>
加 以</w>
女 儿</w>
离 开</w>
一 日</w>
中 书
有 个</w>
吏 部</w>
河 南</w>
恐 怕</w>
建 立</w>
经 常</w>
这 件</w>
不 如</w>
感 到</w>
将 要</w>
司 马
忽 然</w>
九 月</w>
御 史
大 王</w>
公 主</w>
恢 复</w>
世 祖</w>
回 去</w>
以 来</w>
契 丹</w>
从 前</w>
一 千
建 议</w>
同 意</w>
第 二
将 士</w>
立 即</w>
占 据</w>
作 战</w>
处 理</w>
是 因为</w>
其 他</w>
不 过</w>
大 军</w>
初 一</w>
果 然</w>
司 徒</w>
共 同</w>
二 人</w>
答 应</w>
前 去</w>
居 住</w>
一 人</w>
征 讨</w>
指 挥</w>
群 臣</w>
君 王</w>
平 章</w>
无 法</w>
为 了</w>
率 兵</w>
办 法</w>
增 加</w>
相 同</w>
继 承</w>
原 来</w>
要 求</w>
之 中</w>
太 阳</w>
担 心</w>
七 年</w>
至 于</w>
出 兵</w>
原 因</w>
四 十
各 种</w>
不 再</w>
善 于</w>
上 表</w>
使 用</w>
从 此</w>
司 空</w>
北 魏</w>
分 别</w>
夫 人</w>
众 人</w>
兼 任</w>
总 管</w>
以 下</w>
文 章</w>
安 抚</w>
凡 是</w>
道 路</w>
必 定</w>
有 关</w>
北 面</w>
不 知</w>
三 个</w>
攻 击</w>
大 家</w>
再 次</w>
枢 密
大 败</w>
官 府</w>
归 附</w>
同 时</w>
迎 接</w>
掌 管</w>
晋 国</w>
士 卒</w>
如 同</w>
不 肯</w>
王 莽</w>
宇 文
太 尉</w>
攻 克</w>
边 境</w>
杀 掉</w>
天 地</w>
不 得</w>
父 母</w>
参 军</w>
超 过</w>
世 宗</w>
自 然</w>
实 行</w>
根 据</w>
举 行</w>
三 司</w>
尚 书
记 载</w>
君 子</w>
职 务</w>
灭 亡</w>
改 变</w>
古 代</w>
长 史</w>
此 事</w>
叛 乱</w>
五 十
商 议</w>
魏 国</w>
遇 到</w>
留 下</w>
必 须</w>
登 上</w>
本 来</w>
仍 然</w>
八 年</w>
授 予</w>
意 思</w>
宦 官</w>
侍 奉</w>
主 人</w>
宫 中</w>
失 去</w>
行 为</w>
盗 贼</w>
兵 马</w>
圣 人</w>
诛 杀</w>
以 上</w>
方 法</w>
攻 破</w>
关 系</w>
第 二年</w>
学 习</w>
考 虑</w>
弹 劾</w>
询 问</w>
叫 做</w>
一 直</w>
免 除</w>
大 事</w>
按 照</w>
东 南</w>
各 自</w>
一 些</w>
地 位</w>
推 荐</w>
变 化</w>
失 败</w>
部 下</w>
辅 佐</w>
明 帝</w>
南 面</w>
驻 扎</w>
它 们</w>
敌 军</w>
常 侍</w>
表 示</w>
就 要</w>
交 给</w>
征 召</w>
一 同</w>
所 有</w>
结 果</w>
帝 王</w>
升 任</w>
仪 同</w>
交 战</w>
财 物</w>
成 功</w>
哪 里</w>
特 别</w>
有 所</w>
决 定</w>
几 个</w>
上 面</w>
相 互</w>
缘 故</w>
主 管</w>
所 说</w>
臣 子</w>
慕 容</w>
赦 免</w>
容 易</w>
进 士</w>
一 条</w>
九 年</w>
德 行</w>
袭 击</w>
徐 州</w>
了 解</w>
突 厥</w>
向 东</w>
怀 疑</w>
县 令</w>
禁 止</w>
逃 走</w>
产 生</w>
带 领</w>
单 于</w>
怨 恨</w>
北 方</w>
罢 了</w>
渡 过</w>
观 察</w>
出 使</w>
采 纳</w>
封 为</w>
可 是</w>
允 许</w>
人 才</w>
内 外</w>
规 定</w>
实 在</w>
进 献</w>
怎 么
重 新</w>
天 下
兵 部</w>
荆 州</w>
难 以</w>
设 立</w>
另 外</w>
突 然</w>
礼 部</w>
淮 南</w>
皇 太子</w>
宾 客</w>
扬 州</w>
接 着</w>
包 围</w>
春 秋</w>
在 于</w>
改 任</w>
出 去</w>
出 发</w>
而 已</w>
第二 天</w>
对 于</w>
每 年</w>
送 给</w>
晚 上</w>
人 家</w>
一 万
教 化</w>
万 物</w>
随 从</w>
开 府</w>
死 去</w>
宣 帝</w>
身 体</w>
月 初</w>
先 生</w>
赵 国</w>
皇 太后</w>
处 死</w>
秦 王</w>
亲 近</w>
流 经</w>
违 背</w>
舍 人</w>
家 中</w>
子 孙</w>
帮 助</w>
属 于</w>
暗 中</w>
俸 禄</w>
声 音</w>
召 见</w>
门 下</w>
郎 中</w>
战 争</w>
说 话</w>
十 年</w>
每 次</w>
朝 见</w>
使 臣</w>
十 多
唐 朝</w>
四 方</w>
逃 跑</w>
必 然</w>
兵 力</w>
行 动</w>
吐 蕃</w>
反 而</w>
况 且</w>
心 中</w>
等 待</w>
率 军</w>
其 余</w>
不 用</w>
杀 害</w>
东 北</w>
西 北</w>
军 中</w>
奏 请</w>
一 般</w>
可 能</w>
进 贡</w>
法 令</w>
终 于</w>
高 宗</w>
女 子</w>
攻 下</w>
骑 常侍</w>
一 点</w>
西 边</w>
最 后</w>
许 多</w>
自 从</w>
放 在</w>
名 声</w>
谥 号</w>
有 时</w>
二 千
玄 宗</w>
陈 述</w>
太 原</w>
方 面</w>
回 家</w>
供 给</w>
二 百
赋 税</w>
曹 操</w>
明 白</w>
既 然</w>
对 待</w>
宗 庙</w>
施 行</w>
达 到</w>
留 守</w>
忧 虑</w>
事 中</w>
足 以</w>
作 乱</w>
给 事中</w>
太 平</w>
过 失</w>
吴 国</w>
一 种</w>
俘 虏</w>
注 入</w>
河 东</w>
谨 慎</w>
身 份</w>
夏 季</w>
任 职</w>
以 此</w>
炀 帝</w>
逝 世</w>
后 代</w>
何 况</w>
从 事</w>
谋 划</w>
可 汗</w>
斩 杀</w>
户 部</w>
所 谓</w>
十 三日</w>
刑 罚</w>
冬 季</w>
侯 景</w>
朝 政</w>
十 五日</w>
聚 集</w>
老 百姓</w>
逐 渐</w>
起 兵</w>
大 概</w>
称 赞</w>
根 本</w>
家 里</w>
部 落</w>
西 南</w>
南 方</w>
食 邑</w>
一 座</w>
十 七日</w>
往 东</w>
之 地</w>
地 说</w>
元 帅</w>
一 带</w>
运 行</w>
十一 日</w>
选 择</w>
获 得</w>
考 察</w>
和 尚</w>
那 个</w>
此 时</w>
愿 意</w>
名 叫</w>
最 终</w>
觉 得</w>
大 怒</w>
大 多</w>
制 定</w>
一 只</w>
哥 哥</w>
离 去</w>
鲁 国</w>
秋 季</w>
代 替</w>
检 校</w>
二十 一日</w>
春 季</w>
恐 惧</w>
国 王</w>
二十 七日</w>
校 尉</w>
主 持</w>
参 与</w>
起 初</w>
进 去</w>
自 称</w>
推 辞</w>
马 上</w>
身 边</w>
好 像</w>
不 见</w>
十 九日</w>
完 全</w>
罢 免</w>
会 儿</w>
职 位</w>
给 予</w>
修 筑</w>
奏 章</w>
下 面</w>
黄 帝</w>
追 赠</w>
正 在</w>
救 援</w>
公 子</w>
一 会儿</w>
出 任</w>
追 击</w>
守 卫</w>
领 兵</w>
幽 州</w>
中 间</w>
部 门</w>
六 十
石 头</w>
都 尉</w>
之 道</w>
小 人</w>
城 中</w>
造 成</w>
首 领</w>
斩 首</w>
二十 五日</w>
之 心</w>
每 天</w>
逮 捕</w>
管 理</w>
武 王</w>
不 断</w>
人 马</w>
地 上</w>
击 败</w>
秘 密</w>
防 备</w>
太 傅</w>
十 八日</w>
提 升</w>
高 丽</w>
做 官</w>
几 天</w>
送 到</w>
力 量</w>
西 面</w>
只 要</w>
拜 见</w>
谋 反</w>
渐 渐</w>
危 险</w>
夺 取</w>
正 是</w>
十 二日</w>
不 足</w>
做 到</w>
人 心</w>
孩 子</w>
二十 三日</w>
说 道</w>
进 军</w>
上 下</w>
路 上</w>
长 江</w>
灾 祸</w>
朋 友</w>
统 领</w>
祖 父</w>
参 加</w>
二十 四日</w>
前 面</w>
拓 跋</w>
孙 权</w>
负 责</w>
罪 过</w>
攻 陷</w>
之 前</w>
枢密 院</w>
过 来</w>
如 何</w>
强 大</w>
身 上</w>
东 面</w>
确 实</w>
加 上</w>
三 百
道 士</w>
法 律</w>
代 理</w>
推 举</w>
之 士</w>
尚书 令</w>
先 帝</w>
或 者</w>
部 众</w>
礼 节</w>
改 为</w>
后 面</w>
末 年</w>
山 东</w>
二十 二日</w>
十 六日</w>
贼 寇</w>
兖 州</w>
依 靠</w>
中 原</w>
符 合</w>
刚 刚</w>
五 百</w>
消 息</w>
死 亡</w>
万 人</w>
城 门</w>
二十 八日</w>
十 四日</w>
总 是</w>
全 国</w>
道 德</w>
持 节</w>
官 军</w>
一 下</w>
南 京</w>
到 来</w>
保 全</w>
五 千</w>
断 绝</w>
光 禄</w>
先 前</w>
掌 握</w>
名 字</w>
三 千</w>
攻 取</w>
形 成</w>
这 年</w>
表 现</w>
会 合</w>
大 将</w>
确 定</w>
陕 西</w>
二 州</w>
召 集</w>
饥 荒</w>
事 物</w>
劝 谏</w>
下 去</w>
前 进</w>
慕 容
各 位</w>
无 不</w>
南 边</w>
正 直</w>
投 奔</w>
需 要</w>
屡 次</w>
面 前</w>
讨 论</w>
发 源</w>
二十 六日</w>
上 报</w>
加 封</w>
德 宗</w>
征 伐</w>
中 丞</w>
消 灭</w>
千 里</w>
元 帝</w>
一 个
占 卜</w>
减 少</w>
七 十
修 建</w>
博 士</w>
音 乐</w>
劝 说</w>
日 食</w>
祸 患</w>
越 过</w>
心 里</w>
流 放</w>
宋 国</w>
坐 在</w>
几 十
一 位</w>
孝 文帝</w>
子 弟</w>
公 孙
东 边</w>
之 气</w>
穿 着</w>
忠 诚</w>
两 人</w>
行 军</w>
依 照</w>
调 任</w>
变 成</w>
前 后</w>
左 仆射</w>
长 久</w>
楚 王</w>
大 小</w>
样 子</w>
抵 达</w>
城 池</w>
他 人</w>
废 除</w>
叛 军</w>
僧 人</w>
责 备</w>
重 要</w>
三 次</w>
生 活</w>
用 兵</w>
公 卿</w>
逃 亡</w>
骠 骑</w>
归 顺</w>
兵 器</w>
五 百
御史 大夫</w>
提 拔</w>
各 地</w>
行 事</w>
卫 将军</w>
坚 决</w>
郡 王</w>
察 使</w>
北 边</w>
有 功</w>
举 荐</w>
齐 王</w>
国 公</w>
畏 惧</w>
民 间</w>
留 在</w>
防 守</w>
客 人</w>
这 才</w>
私 下</w>
进 犯</w>
中书 省</w>
三 天</w>
豫 州</w>
二十 九日</w>
相 信</w>
江 南</w>
年 轻</w>
完 成</w>
城 墙</w>
别 的</w>
宇 文</w>
节 度</w>
巡 抚</w>
成 帝</w>
懂 得</w>
尸 体</w>
富 贵</w>
自 杀</w>
通 过</w>
巡 视</w>
安 葬</w>
州 郡</w>
政 治</w>
遭 受</w>
文 书</w>
不 得
不 必</w>
控 制</w>
地 震</w>
俘 获</w>
首 先</w>
以 便</w>
诸 侯
不 安</w>
早 晨</w>
惩 罚</w>
位 置</w>
宪 宗</w>
车 骑</w>
打 开</w>
十 二
自 身</w>
汉 王</w>
丧 事</w>
二十 日</w>
安 排</w>
文 王</w>
当 年</w>
当 地</w>
天 命</w>
入 侵</w>
带 兵</w>
太 师</w>
建 造</w>
释 放</w>
家 人</w>
四 川</w>
发 现</w>
神 灵</w>
之 内</w>
性 情</w>
内 心</w>
之 上</w>
直 到</w>
圣 明</w>
信 任</w>
多 少</w>
之 外</w>
骑 马</w>
奖 赏</w>
大 赦
冬 天</w>
燕 国</w>
饮 酒</w>
江 陵</w>
升 为</w>
父 子</w>
河 北</w>
选 拔</w>
解 除</w>
一 旦</w>
驻 守</w>
假 如</w>
遭 到</w>
太 庙</w>
黄 金</w>
发 兵</w>
阴 阳</w>
辽 东</w>
月 亮</w>
宋 朝</w>
老 人</w>
正 好</w>
疾 病</w>
机 会</w>
战 死</w>
囚 犯</w>
时 代</w>
黄 门</w>
放 弃</w>
遇 上</w>
法 度</w>
四 个</w>
心 意</w>
大赦 天下</w>
青 州</w>
说 明</w>
房 屋</w>
长 孙</w>
士 人</w>
不 及</w>
一 半</w>
恭 敬</w>
树 木</w>
宠 爱</w>
由 此</w>
时 期</w>
领 军</w>
汉 武帝</w>
不 上</w>
竟 然</w>
说 法</w>
长 子</w>
眼 睛</w>
判 官</w>
天下 人</w>
成 都</w>
安 宁</w>
君 臣</w>
主 张</w>
谈 论</w>
极 力</w>
派 兵</w>
贿 赂</w>
形 势</w>
夜 里</w>
门 外</w>
势 力</w>
厌 恶</w>
韩 国</w>
中书 令</w>
郡 县</w>
十一 年</w>
坚 持</w>
将 帅</w>
行 省</w>
采 用</w>
步 兵</w>
还 要</w>
政 务</w>
告 诫</w>
桓 公</w>
安 置</w>
丧 服</w>
平 民</w>
兵 士</w>
上 奏</w>
入 朝</w>
聪 明</w>
文 字</w>
成 就</w>
一 里</w>
收 复</w>
水 流</w>
为 此</w>
郑 国</w>
流 入</w>
伤 害</w>
跟 着</w>
翰 林
实 际</w>
只 好</w>
防 御</w>
贤 人</w>
诸 葛
问 题</w>
河 水</w>
委 任</w>
怎 样</w>
帝 位</w>
初 五</w>
多 年</w>
吃 饭</w>
过 错</w>
境 内</w>
祖 先</w>
几 年</w>
胡 人</w>
恩 德</w>
而 是</w>
里 面</w>
发 怒</w>
风 俗</w>
初 三</w>
仁 义</w>
擒 获</w>
襄 阳</w>
一 切</w>
之 下</w>
导 致</w>
转 运</w>
联 合</w>
各 路</w>
五 个</w>
并 州</w>
志 向</w>
向 西</w>
抵 御</w>
很 少</w>
一 向</w>
挑 选</w>
制 作</w>
贼 人</w>
国 人</w>
丈 夫</w>
死 后</w>
旁 边</w>
妇 人</w>
同 平章</w>
是 从</w>
文 武</w>
清 楚</w>
汇 合</w>
晋 阳</w>
敕 令</w>
郡 守</w>
白 天</w>
晋 王</w>
形 状</w>
之 处</w>
十 万</w>
死 罪</w>
手 下</w>
田 地</w>
升 迁</w>
大 赦</w>
初 七</w>
兴 起</w>
错 误</w>
观 察使</w>
战 败</w>
得 知</w>
混 乱</w>
有 些</w>
利 益</w>
真 是</w>
宫 殿</w>
大 司马</w>
雍 州</w>
背 叛</w>
一 块</w>
部 将</w>
孙 子</w>
找 到</w>
冀 州</w>
随 即</w>
不 好</w>
家 族</w>
造 反</w>
独 自</w>
喜 好</w>
峡 谷</w>
初 二</w>
五 里</w>
严 重</w>
全 忠</w>
之 所以</w>
充 任</w>
外 面</w>
吴 王</w>
秘 书</w>
中 郎
钱 财</w>
生 长</w>
继 位</w>
江 西</w>
观 看</w>
坚 守</w>
恩 惠</w>
初 八</w>
初 九</w>
刘 备</w>
战 斗</w>
治 疗</w>
纷 纷</w>
太 保</w>
哭 泣</w>
尊 贵</w>
往 南</w>
京 都</w>
详 细</w>
献 给</w>
朝 拜</w>
都 御史</w>
权 势</w>
右 仆射</w>
征 收</w>
南 阳</w>
赈 济</w>
袁 绍</w>
抵 抗</w>
我 军</w>
完 毕</w>
制 造</w>
谋 略</w>
梦 见</w>
很 快</w>
喜 爱</w>
在 外</w>
公 孙</w>
官 位</w>
几 乎</w>
不 可
贼 兵</w>
怎 能</w>
食 物</w>
顺 从</w>
叹 息</w>
围 攻</w>
皇 子</w>
始 终</w>
御史 中丞</w>
三 百</w>
往 往</w>
颜 色</w>
尤 其</w>
办 事</w>
抓 住</w>
利 用</w>
统 率</w>
献 上</w>
安 南</w>
高 帝</w>
想 到</w>
国 内</w>
历 任</w>
益 州</w>
祝 贺</w>
射 箭</w>
这 么</w>
初 六</w>
东 方</w>
罪 行</w>
军 营</w>
免 去</w>
书 信</w>
总 兵</w>
朱 全忠</w>
春 天</w>
北 齐</w>
二 里</w>
读 书</w>
中郎 将</w>
怎么 办</w>
中 山</w>
相 继</w>
弟 子</w>
不 合</w>
长 时间</w>
长 官</w>
这 天</w>
十 二</w>
之 职</w>
计 谋</w>
擅 长</w>
不 让</w>
执 行</w>
计 策</w>
贤 能</w>
用 以</w>
拿 出</w>
三 公</w>
发 动</w>
旨 意</w>
拥 有</w>
外 郎</w>
世 人</w>
后 主</w>
学 生</w>
周 朝</w>
问 道</w>
车 驾</w>
员 外郎</w>
治 国</w>
义 军</w>
好 处</w>
取 得</w>
世 代</w>
长 期</w>
暂 时</w>
马 匹</w>
都 城</w>
近 来</w>
所 在</w>
放 纵</w>
一 千</w>
只 能</w>
先 王</w>
一 道</w>
正 月
智 慧</w>
鬼 神</w>
计 划</w>
政 令</w>
太 常</w>
初 四</w>
相 比</w>
统 治</w>
打 猎</w>
一 万</w>
凉 州</w>
赐 予</w>
发 出</w>
众 多</w>
卫 国</w>
轻 视</w>
西 域</w>
往 西</w>
回 国</w>
刘 义
归 降</w>
占 领</w>
水 灾</w>
山 上</w>
焚 烧</w>
凤 翔</w>
愤 怒</w>
往 来</w>
关 中</w>
休 息</w>
尚 未</w>
值 得</w>
泰 山</w>
功 业</w>
赵 王</w>
显 示</w>
在 位</w>
诏 命</w>
庄 宗</w>
十 二年</w>
社 稷</w>
遵 循</w>
道 义</w>
继 续</w>
秋 天</w>
予 以</w>
物 品</w>
江 州</w>
中 有</w>
不 想</w>
白 色</w>
同 知</w>
刑 部</w>
各 州</w>
人 为</w>
迅 速</w>
专 门</w>
红 色</w>
东 宫</w>
实 际
年 纪</w>
权 力</w>
撰 写</w>
功 绩</w>
柱 国</w>
枢密 使</w>
功 臣</w>
饮 食</w>
提 出</w>
欺 骗</w>
努 力</w>
出 入</w>
不 行</w>
管 仲</w>
少 年</w>
大 业</w>
逃 奔</w>
进 言</w>
起 用</w>
崇 尚</w>
之 子</w>
项 羽</w>
大 学士</w>
上 去</w>
忧 患</w>
北 周</w>
八 十
老 师</w>
相 国</w>
阴 谋</w>
急 忙</w>
南 北</w>
服 丧</w>
不 了</w>
高 欢</w>
招 募</w>
考 试</w>
抛 弃</w>
夜 晚</w>
不 能
豫 章</w>
少 卿</w>
未 能</w>
图 谋</w>
侍 从</w>
之 类</w>
转 任</w>
深 入</w>
有 罪</w>
古 人</w>
获 罪</w>
商 人</w>
侍 御史</w>
百 人</w>
实际 上</w>
二 十</w>
奏 报</w>
战 功</w>
参 知
参知 政事</w>
十 三年</w>
向 北</w>
淮 河</w>
就 让</w>
人 来</w>
奇 怪</w>
精 神</w>
时 机</w>
随 着</w>
立 刻</w>
迁 移</w>
拒 绝</w>
慰 劳</w>
城 下</w>
克 用</w>
罪 状</w>
封 国</w>
妇 女</w>
援 救</w>
以 北</w>
中 国</w>
满 足</w>
年 龄</w>
出 征</w>
学 问</w>
个 人</w>
追 赶</w>
言 论</w>
东 流</w>
险 要</w>
屯 田</w>
各 有</w>
向 南</w>
取 胜</w>
主 簿</w>
监 狱</w>
建 康</w>
加 授</w>
惭 愧</w>
三 千
装 饰</w>
各 国</w>
重 用</w>
嫁 给</w>
费 用</w>
行 走</w>
指 挥
云 南</w>
之 一</w>
一 百</w>
公 说</w>
感 动</w>
说 完</w>
祖 宗</w>
部 分</w>
贼 军</w>
汉 代</w>
城 内</w>
黑 色</w>
重 视</w>
迁 徙</w>
皇 宫</w>
百 里</w>
留 后</w>
生 命</w>
寻 找</w>
翰林 学士</w>
胜 利</w>
毁 坏</w>
梁 朝</w>
日 子</w>
担 忧</w>
上 朝</w>
山 崖</w>
奢 侈</w>
封 爵</w>
分 为</w>
认 识</w>
标 准</w>
功 勋</w>
依 附</w>
擅 自</w>
奏 疏</w>
排 列</w>
廷 尉</w>
夏 天</w>
免 职</w>
军 士</w>
魏 王</w>
约 定</w>
山 峰</w>
大 为</w>
千 人</w>
人 员</w>
那 时</w>
无 人</w>
改 名</w>
几 次</w>
文 宗</w>
执 政</w>
戍 守</w>
孝 武帝</w>
召 回</w>
名 称</w>
初 十</w>
兄 长</w>
何 必</w>
建 武</w>
耕 种</w>
当 天</w>
姓 名</w>
以 致</w>
五 十</w>
疏 远</w>
燕 王</w>
一 律</w>
礼 制</w>
存 在</w>
通 晓</w>
这 次</w>
响 应</w>
尚 且</w>
王 世
保 护</w>
赶 到</w>
诸 葛</w>
历 法</w>
祭 天</w>
之 礼</w>
不 够</w>
景 帝</w>
坟 墓</w>
性 格</w>
颁 布</w>
统 一</w>
武 器</w>
抓 获</w>
都 指挥
都指挥 使</w>
行 营</w>
决 断</w>
远 近</w>
十 天</w>
生 气</w>
党 羽</w>
溪 水</w>
征 兆</w>
车 马</w>
后 唐</w>
十 四年</w>
亲 信</w>
乘 机</w>
之 事</w>
皇 甫</w>
太 白
洪 武</w>
一 时</w>
诗 经</w>
犯 罪</w>
追 求</w>
广 陵</w>
亲 属</w>
言 辞</w>
封 地</w>
勾 结</w>
美 好</w>
才 干</w>
李 密</w>
攻 占</w>
丧 失</w>
诸葛 亮</w>
两 次</w>
退 休</w>
能 力</w>
宗 室</w>
各 军</w>
除 去</w>
阻 止</w>
忘 记</w>
节 制</w>
赶 快</w>
水 中</w>
十 五年</w>
招 讨</w>
万 历</w>
保 持</w>
乡 里</w>
靠 近</w>
祭 酒</w>
是 否</w>
服 从</w>
诬 陷</w>
直 接</w>
一 名</w>
韩 信</w>
叩 头</w>
夜 间</w>
处 置</w>
堵 塞</w>
半 里</w>
王 子</w>
报 答</w>
囚 禁</w>
隋 朝</w>
阳 县</w>
打 仗</w>
尽 力</w>
嘉 靖</w>
看 重</w>
监 察</w>
写 信</w>
儿 女</w>
贤 明</w>
怎么 样</w>
庶 子</w>
顺 应</w>
出 于</w>
三 人</w>
活 着</w>
阳 气</w>
派 出</w>
随 后</w>
结 束</w>
供 奉</w>
朱 荣</w>
埋 葬</w>
山 中</w>
围 困</w>
护 军</w>
李 德
很 大</w>
考 核</w>
想 法</w>
坐 下</w>
生 病</w>
京 兆</w>
管 辖</w>
相 见</w>
号 称</w>
依 据</w>
交 往</w>
严 厉</w>
大 同</w>
人 口</w>
有 利</w>
山 坞</w>
对 此</w>
旱 灾</w>
辞 官</w>
长 沙</w>
慢 慢</w>
广 州</w>
头 发</w>
到 处</w>
演 奏</w>
五 万</w>
杀 人</w>
忠 臣</w>
火 灾</w>
据 守</w>
困 难</w>
做 法</w>
沿 着</w>
授 任</w>
三 品</w>
祸 害</w>
知 府</w>
昭 宗</w>
文 公</w>
计 算</w>
精 兵</w>
年 老</w>
唐 玄宗</w>
邪 恶</w>
贫 穷</w>
记 录</w>
承 受</w>
屯 驻</w>
出 身</w>
事 业</w>
朝 中</w>
这 一</w>
仆 人</w>
死 者</w>
监 军</w>
死 刑</w>
不 足以</w>
治 罪</w>
凭 借</w>
万 户</w>
答 道</w>
甚 至</w>
禄 山</w>
形 体</w>
彗 星</w>
周 围</w>
蜀 地</w>
汉 军</w>
叛 逆</w>
当 作</w>
器 物</w>
后 世</w>
不 许</w>
区 别</w>
功 德</w>
灾 害</w>
奸 邪</w>
吉 祥</w>
刘 裕</w>
男 子</w>
居 民</w>
效 法</w>
等 级</w>
引 导</w>
一 件</w>
驱 逐</w>
此 后</w>
不 去</w>
王 元
来 说</w>
战 事</w>
顺 着</w>
秦 州</w>
指 责</w>
追 究</w>
数 万</w>
尊 重</w>
宫 廷</w>
中 军</w>
数 千</w>
金 军</w>
亲 戚</w>
贞 观</w>
定 州</w>
神 仙</w>
慰 问</w>
处 在</w>
其 子</w>
以 南</w>
职 责</w>
进 谏</w>
清 河</w>
日 月</w>
逃 到</w>
得 上</w>
辅 助</w>
祈 祷</w>
尚书 省</w>
今 年</w>
不 停</w>
解 释</w>
正 确</w>
惠 帝</w>
士 大夫</w>
乘 坐</w>
董 卓</w>
肯 定</w>
精 锐</w>
火 星</w>
明 堂</w>
平 时</w>
后 悔</w>
南 郊</w>
庄 稼</w>
安 禄山</w>
重 任</w>
著 作</w>
肃 宗</w>
每 当</w>
四 面</w>
二 千</w>
首 级</w>
木 儿</w>
显 贵</w>
损 害</w>
那 天</w>
皇 位</w>
河 西</w>
一 并</w>
金 星</w>
往 北</w>
喝 酒</w>
不 满</w>
真 的</w>
永 远</w>
建 安</w>
第 一</w>
原 先</w>
住 宅</w>
处 于</w>
不 曾</w>
危 害</w>
供 应</w>
孝 宗</w>
河 阳</w>
经 书</w>
汴 州</w>
我 国</w>
进 来</w>
谢 罪</w>
人 人</w>
王 府</w>
军 民</w>
家 属</w>
宣 布</w>
十 里</w>
越 来
得 不到</w>
执 掌</w>
大 都</w>
三 里</w>
远 方</w>
抢 劫</w>
准 许</w>
假 装</w>
一 片</w>
陈 国</w>
迷 惑</w>
李 克用</w>
性 命</w>
仪 式</w>
推 行</w>
批 准</w>
工 部
不 愿</w>
西 方</w>
汉 高祖</w>
她 们</w>
一 看</w>
而 后</w>
物 资</w>
梁 武帝</w>
左 边</w>
同 样</w>
原 则</w>
作 用</w>
大 雨</w>
福 建</w>
之 人</w>
相 应</w>
完 颜</w>
天 上</w>
附 近</w>
比 较</w>
出 击</w>
他 家</w>
隐 居</w>
祸 乱</w>
改 封</w>
先 后</w>
棺 材</w>
固 守</w>
周 公</w>
教 育</w>
象 征</w>
梁 太祖</w>
攻 城</w>
感 叹</w>
宠 幸</w>
制 止</w>
之 为</w>
彭 城</w>
杨 素</w>
有 病</w>
归 还</w>
平 常</w>
告 发</w>
则 天</w>
今 日</w>
这 座</w>
边 疆</w>
武 则天</w>
晋 朝</w>
并 非</w>
一 共</w>
服 饰</w>
文 武
山 谷</w>
山 西</w>
王 刘
桓 玄</w>
奴 仆</w>
不 利</w>
西 部</w>
建 成</w>
大 风</w>
行 礼</w>
对 方</w>
太白 星</w>
吐 谷
劳 役</w>
办 理</w>
都 统</w>
不 止</w>
经 历</w>
大 权</w>
动 乱</w>
老 虎</w>
结 交</w>
目 的</w>
日 夜</w>
工 作</w>
地 步</w>
接 近</w>
大 声</w>
城 邑</w>
停 留</w>
享 受</w>
吐谷 浑</w>
非 常
敬 重</w>
将 来</w>
宗 族</w>
四 人</w>
侵 扰</w>
商 量</w>
朔 方</w>
徭 役</w>
刑 法</w>
男 女</w>
撤 退</w>
距 离</w>
研 究</w>
暂 且</w>
品 德</w>
活 捉</w>
工 匠</w>
之 臣</w>
遵 守</w>
官 署</w>
汉 中</w>
三 万</w>
规 律</w>
无 所
缺 乏</w>
宇文 泰</w>
太 和</w>
得 失</w>
强 盛</w>
埋 伏</w>
一 尺</w>
承 袭</w>
容 貌</w>
自 立</w>
统 帅</w>
廉 洁</w>
夏 侯</w>
千 户</w>
赶 上</w>
消 除</w>
尊 敬</w>
元 嘉</w>
洞 口</w>
时 常</w>
不 少</w>
张 浚</w>
废 黜</w>
一 类</w>
迎 战</w>
船 只</w>
接 连</w>
二十 年</w>
当 今</w>
会 见</w>
真 正</w>
叔 父</w>
政 绩</w>
接 纳</w>
强 盗</w>
再 说</w>
言 语</w>
官 爵</w>
大 道</w>
内 容</w>
儒 生</w>
长 大</w>
符 节</w>
树 立</w>
朝 臣</w>
掠 夺</w>
所 用</w>
御史 台</w>
山 南</w>
萧 衍</w>
秦 朝</w>
礼 物</w>
正 常</w>
台 阶</w>
孟 子</w>
天 空</w>
厉 害</w>
侍 卫</w>
逼 迫</w>
东 海</w>
端 正</w>
宣 武</w>
太 常
王世 充</w>
其 实</w>
饥 饿</w>
王 室</w>
朝 贡</w>
追 封</w>
贫 困</w>
人 间</w>
边 塞</w>
废 弃</w>
王 公</w>
开 元</w>
外 出</w>
修 养</w>
二千 石</w>
一 致</w>
已 有</w>
忍 心</w>
此 以后</w>
战 胜</w>
宫 室</w>
安 国</w>
大 乱</w>
处 罚</w>
双 方</w>
勇 敢</w>
轻 易</w>
贬 为</w>
节 操</w>
王 萧
灾 难</w>
名 为</w>
出 战</w>
不得 已</w>
通 达</w>
车 子</w>
明 宗</w>
奉 命</w>
酋 长</w>
不 起</w>
三 十</w>
应 验</w>
圣 旨</w>
各 个</w>
及 其</w>
精 通</w>
国 子</w>
悲 伤</w>
地 势</w>
叛 贼</w>
为 官</w>
美 德</w>
之 徒</w>
一万 多</w>
迁 任</w>
从 而</w>
仍 旧</w>
评 论</w>
冬 至</w>
熟 悉</w>
国 事</w>
公 正</w>
一 丈</w>
广 泛</w>
位 于</w>
一 一</w>
风 气</w>
辅 国</w>
社 会</w>
教 导</w>
伯 说</w>
从 小</w>
起 身</w>
诸侯 王</w>
岭 南</w>
出 自</w>
争 夺</w>
贵 人</w>
贺 拔
本 性</w>
环 绕</w>
湖 广</w>
流 出</w>
武 宗</w>
宴 会</w>
婢 女</w>
女 人</w>
租 税</w>
人 质</w>
下 属</w>
天 天</w>
隋 文帝</w>
表 明</w>
牲 畜</w>
右 卫</w>
过 于</w>
走 出</w>
行 台</w>
神 宗</w>
天 象</w>
针 刺</w>
这 事</w>
始 皇</w>
回 京</w>
册 封</w>
丰 厚</w>
越来 越</w>
兴 盛</w>
三十 日</w>
扰 乱</w>
听 见</w>
南 唐</w>
集 中</w>
破 坏</w>
明 亮</w>
实 现</w>
品 行</w>
八 百</w>
正月 初一</w>
忠 义</w>
十 分
十 六年</w>
浙 江</w>
一个 月</w>
躲 避</w>
威 严</w>
受 命</w>
华 丽</w>
连 续</w>
昭 王</w>
后 宫</w>
致 使</w>
正 当</w>
仓 库</w>
丹 阳</w>
高 尚</w>
谏 议</w>
等 候</w>
令 人</w>
两 国</w>
王 司马</w>
政 权</w>
罪 名</w>
下 雨</w>
来 不及</w>
一千 多</w>
贪 婪</w>
溪 流</w>
此 地</w>
奇 异</w>
天 亮</w>
出 生</w>
仪 仗</w>
事 实</w>
态 度</w>
废 帝</w>
宣 宗</w>
仅 仅</w>
生 性</w>
每 人</w>
神 武</w>
这 样
流 传</w>
去 掉</w>
付 给</w>
逼 近</w>
相 对</w>
抢 掠</w>
大 水</w>
大 义</w>
人 物</w>
不 变</w>
上 皇</w>
讨 厌</w>
楚 军</w>
成 王</w>
向 上</w>
官 至</w>
前 锋</w>
魏 军</w>
十 五</w>
之 罪</w>
称 王</w>
接 待</w>
三 月初</w>
看 来</w>
不 通</w>
稍 微</w>
秦 军</w>
治 所</w>
撤 销</w>
大 国</w>
十 七年</w>
心 腹</w>
监 督</w>
活 动</w>
孝 顺</w>
大 海</w>
牵 连</w>
征 调</w>
发 展</w>
交 纳</w>
右 边</w>
诋 毁</w>
河 内</w>
宗 皇帝</w>
优 厚</w>
中 尉</w>
称 帝</w>
消 失</w>
悲 痛</w>
回 头</w>
叫 作</w>
边 防</w>
被 贬</w>
山 下</w>
射 中</w>
号 令</w>
病 人</w>
驻 军</w>
思 想</w>
艰 难</w>
粮 草</w>
空 虚</w>
居 于</w>
天 意</w>
和 睦</w>
大 肆</w>
六 十</w>
以 东</w>
适 逢</w>
策 略</w>
天 气</w>
使 人</w>
揭 发</w>
五 岁</w>
带 来</w>
城 外</w>
辞 谢</w>
诸 王</w>
约 束</w>
最 好</w>
岩 石</w>
出 门</w>
上 任</w>
部 署</w>
引 起</w>
回 朝</w>
共 有</w>
大 量</w>
齐 桓公</w>
诸侯 国</w>
案 件</w>
拜 访</w>
引 诱</w>
自 我</w>
泉 水</w>
一 边</w>
随 便</w>
郭 子
五 天</w>
金 银</w>
耻 辱</w>
正 道</w>
山 脊</w>
唯 独</w>
规 劝</w>
见 识</w>
明 确</w>
坚 固</w>
立 功</w>
整 个</w>
仁 德</w>
途 中</w>
游 说</w>
渡 河</w>
援 助</w>
南 下</w>
隶 属</w>
营 垒</w>
日 期</w>
地 下</w>
两 条</w>
拜 谢</w>
部 族</w>
布 帛</w>
尊 号</w>
一 匹</w>
表 达</w>
审 讯</w>
充 实</w>
财 产</w>
永 乐</w>
来 往</w>
总 督</w>
四 海</w>
六 个</w>
邪 气</w>
现 象</w>
太 监</w>
北 部</w>
草 木</w>
十 月初</w>
十 余
世 上</w>
礼 义</w>
陵 墓</w>
还 给</w>
责 任</w>
最 初</w>
剩 下</w>
魏 州</w>
礼 乐</w>
改 年</w>
合 适</w>
到 任</w>
为 何</w>
李德 裕</w>
同 中书</w>
期 间</w>
族 人</w>
宽 恕</w>
接 见</w>
天 道</w>
五 种</w>
一 处</w>
骄 横</w>
转 向</w>
赞 赏</w>
高 大</w>
诽 谤</w>
方 向</w>
招 降</w>
勉 励</w>
估 计</w>
诸 位</w>
建 德</w>
严 肃</w>
登 基</w>
大 功</w>
内 史</w>
亲 临</w>
除 掉</w>
名 义</w>
不 住</w>
一 方</w>
水 军</w>
梁 州</w>
所 属</w>
使 得</w>
东 平</w>
非常 高兴</w>
老 子</w>
祭 奠</w>
招 致</w>
农 民</w>
裴 度</w>
桓 温</w>
便 是</w>
会 稽</w>
直 言</w>
委 托</w>
进 兵</w>
行 密</w>
太 学</w>
不 堪</w>
趁 机</w>
表 彰</w>
百 万</w>
痛 哭</w>
文武 百官</w>
感 情</w>
守 城</w>
大 破</w>
副 将</w>
过 分</w>
李 世
收 集</w>
不 出</w>
规 模</w>
平 息</w>
永 明</w>
战 乱</w>
尊 崇</w>
冠 军</w>
不 下</w>
陇 西</w>
最 大</w>
延 寿</w>
具 有</w>
一 句</w>
这 位</w>
李 嗣
晋 武帝</w>
山 川</w>
民 族</w>
招 抚</w>
驾 崩</w>
适 宜</w>
极 为</w>
征 发</w>
只 见</w>
仔 细</w>
杨 行密</w>
更 改</w>
三 代</w>
平 原</w>
家 乡</w>
依 从</w>
谗 言</w>
稍 稍</w>
武 陵</w>
两 位</w>
黄 色</w>
看 看</w>
拥 立</w>
遥 远</w>
豪 杰</w>
仁 宗</w>
队 伍</w>
敌 寇</w>
思 念</w>
很 久</w>
奴 婢</w>
刘 秀</w>
以 西</w>
上 来</w>
护 卫</w>
王 朝</w>
推 算</w>
宫 内</w>
友 好</w>
二 万</w>
鲜 卑</w>
有 余</w>
数 量</w>
帽 子</w>
大 使</w>
医 生</w>
节 俭</w>
至 今</w>
延 伸</w>
危 急</w>
已 故</w>
安 石</w>
一 级</w>
预 示</w>
南 山</w>
光 武帝</w>
依 旧</w>
逃 往</w>
贡 献</w>
西 川</w>
臣 民</w>
寒 冷</w>
不 准</w>
谦 让</w>
降 临</w>
出 行</w>
西 京</w>
百 户</w>
暴 虐</w>
却 是</w>
冲 犯</w>
不 动</w>
败 坏</w>
病 情</w>
梁 王</w>
文 学</w>
护 送</w>
抗 拒</w>
四 十</w>
盟 约</w>
清 廉</w>
学 说</w>
人 士</w>
九 月初</w>
手 中</w>
军 粮</w>
做 事</w>
拜 谒</w>
工 程</w>
一 家</w>
石 勒</w>
大 理</w>
京 兆
恩 宠</w>
京兆 尹</w>
法 则</w>
望 见</w>
效 力</w>
利 于</w>
称 之为</w>
特 进</w>
太 皇太后</w>
下 达</w>
禁 令</w>
子 儿女</w>
妻 子儿女</w>
常 山</w>
东 晋</w>
郢 州</w>
相 遇</w>
病 重</w>
代 宗</w>
人 数</w>
送 来</w>
潼 关</w>
李 光
意 图</w>
心 怀</w>
十 日</w>
保 卫</w>
上 前</w>
三 州</w>
七 十</w>
王 建</w>
照 旧</w>
太 上皇</w>
合 乎</w>
无 忌</w>
悲 哀</w>
快 乐</w>
员 外</w>
一 等</w>
房 子</w>
平 阳</w>
江 水</w>
十 个</w>
之 位</w>
七 岁</w>
一百 多</w>
宽 厚</w>
旗 帜</w>
小 孩</w>
爱 好</w>
惧 怕</w>
忠 心</w>
僧 辩</w>
罪 犯</w>
事 奉</w>
患 病</w>
吉 凶</w>
单 独</w>
路 过</w>
蒙 受</w>
碰 上</w>
林 甫</w>
北 流</w>
二 百</w>
书 写</w>
专 权</w>
不 已</w>
边 界</w>
渡 江</w>
守 丧</w>
回 师</w>
检 查</w>
情 形</w>
州 城</w>
勇 猛</w>
以 外</w>
五 行</w>
事 先</w>
中 央</w>
面 向</w>
青 色</w>
礼 遇</w>
在 家</w>
重 大</w>
自 行</w>
而 行</w>
经 略</w>
示 众</w>
十 八年</w>
世 子</w>
晋 军</w>
文 辞</w>
战 车</w>
陷 害</w>
流 过</w>
故 意</w>
协 助</w>
依 次</w>
铠 甲</w>
训 练</w>
触 犯</w>
藩 镇</w>
答 复</w>
察 看</w>
太 康</w>
咸 阳</w>
从 此以后</w>
是 非</w>
岳 飞</w>
宋 军</w>
驾 临</w>
隶 属于</w>
早 晚</w>
发 布</w>
凤 凰</w>
充 当</w>
东 京</w>
洞 穴</w>
驸 马</w>
西 魏</w>
当 面</w>
私 自</w>
狱 中</w>
惠 王</w>
宣 抚
基 业</w>
震 动</w>
郭子 仪</w>
要 是</w>
民 心</w>
北 京</w>
之 意</w>
贤 才</w>
全 家</w>
霍 光</w>
辞 职</w>
斥 责</w>
阴 气</w>
劝 阻</w>
遭 遇</w>
知 州</w>
州 牧</w>
头 上</w>
可 见</w>
关 闭</w>
世 间</w>
不 一会儿</w>
金 国</w>
年 幼</w>
襄 王</w>
英 明</w>
杀 戮</w>
日 益</w>
王 位</w>
灵 柩</w>
恼 怒</w>
家 庭</w>
进 宫</w>
紧 急</w>
危 难</w>
违 反</w>
王 氏</w>
注 意</w>
次 序</w>
越 国</w>
穿 过</w>
影 响</w>
富 有</w>
驾 车</w>
甲 子</w>
叛 变</w>
千 万</w>
秦 桧</w>
捉 住</w>
天 帝</w>
谷 物</w>
翰 林</w>
残 暴</w>
学 校</w>
一 齐</w>
一 面</w>
督 府</w>
湖 南</w>
无 论</w>
寻 求</w>
命 运</w>
入 宫</w>
五 品</w>
书 籍</w>
乐 器</w>
济 南</w>
蛮 夷</w>
流 泪</w>
河 间</w>
国 史</w>
内 部</w>
亲 人</w>
阳 城</w>
祭 品</w>
最 高</w>
城 南</w>
礼 法</w>
流 行</w>
旧 例</w>
好 比</w>
及 至</w>
游 玩</w>
武 昌</w>
对 付</w>
军 务</w>
谏 官</w>
古 以来</w>
贵 妃</w>
小 路</w>
督 促</w>
疏 通</w>
或 许</w>
郡 公</w>
王 敦</w>
府 第</w>
在 内</w>
其 次</w>
侮 辱</w>
轻 重</w>
明 察</w>
妹 妹</w>
东 魏</w>
七 百</w>
这 话</w>
大 约</w>
中 正</w>
李 茂
多 久</w>
国 子
名 望</w>
分 出</w>
从 今
终 年</w>
华 州</w>
分 散</w>
西 山</w>
称 作</w>
离 职</w>
携 带</w>
反 对</w>
之 情</w>
诸 军</w>
抚 慰</w>
郊 外</w>
策 划</w>
正 统</w>
后 人</w>
免 官</w>
信 用</w>
铸 造</w>
吕 布</w>
催 促</w>
宣 王</w>
哀 帝</w>
一 篇</w>
独 孤</w>
敢 于</w>
执 法</w>
愿 望</w>
大 明</w>
古 今</w>
变 得</w>
运 用</w>
脸 色</w>
理 解</w>
武 帝
李 继
圣 上</w>
器 重</w>
结 盟</w>
好 好</w>
倘 若</w>
一 支</w>
穆 宗</w>
宠 信</w>
占 有</w>
八 岁</w>
部 属</w>
招 待</w>
小 吏</w>
具 备</w>
保 存</w>
越 王</w>
蒙 古</w>
刚 才</w>
门 前</w>
神 明</w>
弓 箭</w>
南 郡</w>
传 说</w>
中 宗</w>
秦 始皇</w>
疼 痛</w>
江 东</w>
时 年</w>
宣 慰</w>
大 人</w>
多 数</w>
迁 都</w>
英 宗</w>
称 臣</w>
忧 愁</w>
乞 求</w>
抚 恤</w>
岐 伯说</w>
宴 请</w>
主 帅</w>
震 惊</w>
称 号</w>
理 由</w>
洛 水</w>
收 取</w>
农 业</w>
耶 律</w>
终 究</w>
珍 宝</w>
回 纥</w>
仁 爱</w>
道 术</w>
蠕 蠕</w>
空 中</w>
相 当</w>
嘉 奖</w>
后 晋</w>
千 余</w>
十 三</w>
争 相</w>
预 先</w>
舍 弃</w>
闻 名</w>
身 为</w>
求 得</w>
收 藏</w>
才 智</w>
唐 太宗</w>
不能 不</w>
七 个</w>
诉 讼</w>
祥 瑞</w>
溃 散</w>
收 入</w>
惊 恐</w>
李 林甫</w>
整 顿</w>
心 思</w>
开 国</w>
之 物</w>
进 升</w>
手 持</w>
周 武王</w>
向 前</w>
变 故</w>
及 时</w>
不 幸</w>
八 十</w>
上 党</w>
镇 州</w>
逃 回</w>
退 兵</w>
登 位</w>
子 女</w>
北 平</w>
驿 站</w>
心 情</w>
从 不</w>
声 称</w>
僖 宗</w>
缺 少</w>
晋 升为</w>
早 就</w>
将 会</w>
吉 利</w>
关 于</w>
住 宿</w>
避 开</w>
敌 兵</w>
恭 敬
工部 尚书</w>
做 成</w>
野 兽</w>
耶 律
河 道</w>
文 宣帝</w>
以 至于</w>
潞 州</w>
殿 下</w>
李茂 贞</w>
推 崇</w>
恰 好</w>
州 府</w>
制 置</w>
犯 人</w>
正 德</w>
欲 望</w>
主 意</w>
都 督府</w>
方 便</w>
教 授</w>
定 会</w>
知 县</w>
战 马</w>
告 别</w>
县 城</w>
主 要</w>
万 岁</w>
诬 告</w>
所 得</w>
半 夜</w>
兵 众</w>
佛 教</w>
任 何</w>
积 蓄</w>
假 使</w>
行 人</w>
私 人</w>
屯 兵</w>
召 来</w>
隐 藏</w>
归 来</w>
居 正</w>
女 婿</w>
再 也</w>
骚 扰</w>
隐 瞒</w>
脉 象</w>
睡 觉</w>
王 后</w>
王 僧辩</w>
完 备</w>
以 往</w>
从 中</w>
自 古以来</w>
小 国</w>
奔 赴</w>
国 政</w>
侵 入</w>
作 罢</w>
黄 巢</w>
随 意</w>
起 草</w>
尉 迟
地 人</w>
关 内</w>
事 理</w>
警 戒</w>
淹 死</w>
冰 雹</w>
鼓 励</w>
身 穿</w>
赠 给</w>
淮 水</w>
即 将</w>
中 午</w>
两 边</w>
不 多</w>
上 游</w>
晋 州</w>
山 林</w>
对 应</w>
失 误</w>
吴 郡</w>
书 生</w>
钱 钞</w>
罪 恶</w>
白 马</w>
永 安</w>
放 下</w>
审 理</w>
四 时</w>
万 里</w>
视 察</w>
程 度</w>
忠 贤</w>
宇文 护</w>
唐 代</w>
充 足</w>
以 为
世 俗</w>
与 其</w>
不 花</w>
面 朝</w>
漕 运</w>
慕容 垂</w>
圣 王</w>
刘 仁
传 达</w>
进 城</w>
詹 事</w>
表 面</w>
站 立</w>
犯 法</w>
恩 泽</w>
回 报</w>
进 击</w>
少 时</w>
宽 容</w>
宴 饮</w>
同 党</w>
各 部</w>
再 三</w>
六 百</w>
中 兴</w>
一 步</w>
耳 朵</w>
绍 兴</w>
每 月</w>
朝 鲜</w>
不 忍心</w>
运 输</w>
证 明</w>
李 氏</w>
我 要</w>
宫 女</w>
审 问</w>
多 里</w>
器 具</w>
去 年</w>
勇 士</w>
交 付</w>
退 走</w>
赴 任</w>
相 连</w>
任 上</w>
生 产</w>
李 存
景 公</w>
明 显</w>
当 即</w>
三 岁</w>
此 处</w>
明 天</w>
左 丞</w>
多 有</w>
处 以</w>
赏 罚</w>
至 元</w>
拓 跋
天 监</w>
发 觉</w>
固 定</w>
四 季</w>
四 处</w>
反 复</w>
写 文章</w>
遗 憾</w>
罢 官</w>
圣 贤</w>
准 则</w>
元 朝</w>
烧 毁</w>
胜 任</w>
安 慰</w>
回 鹘</w>
参 预</w>
云 气</w>
遇 见</w>
赠 送</w>
石 崖</w>
朔 日</w>
数 目</w>
少 保</w>
多 月</w>
五 帝</w>
继 承
枢 密</w>
占 辞</w>
其 后</w>
六 岁</w>
毫 无</w>
取 出</w>
乘 胜</w>
验 证</w>
近 臣</w>
赏 识</w>
泰 始</w>
昼 夜</w>
思 明</w>
岁 星</w>
中 外</w>
不 知
谴 责</w>
封 赏</w>
修 撰</w>
万 余</w>
降 职</w>
府 库</w>
先 锋</w>
依 仗</w>
秀 才</w>
王 国</w>
汉 水</w>
梁 国</w>
指 着</w>
庆 贺</w>
外 戚</w>
出 动</w>
公 事</w>
亲 手</w>
陕 州</w>
以 求</w>
未 曾</w>
服 装</w>
拓跋 焘</w>
必 定会</w>
判 决</w>
写 成</w>
仙 人</w>
记 室</w>
衰 败</w>
病 死</w>
明 年</w>
损 失</w>
多 么</w>
习 俗</w>
缴 获</w>
泄 露</w>
悬 挂</w>
大 门</w>
告 知</w>
留 下来</w>
宣 扬</w>
连 年</w>
奉 天</w>
县 尉</w>
分 封</w>
显 赫</w>
太 公</w>
全 军</w>
通 直</w>
运 送</w>
赞 美</w>
少 府</w>
爱 惜</w>
没 收</w>
数 十</w>
收 获</w>
怜 悯</w>
宫 门</w>
启 奏</w>
只 不过</w>
动 摇</w>
郭 崇
贪 图</w>
荧 惑</w>
面 对</w>
造 就</w>
昭 帝</w>
意 义</w>
市 场</w>
家 产</w>
团 练</w>
后 退</w>
史 官</w>
卫 士</w>
劫 掠</w>
通 行</w>
特 殊</w>
大 梁</w>
城 里</w>
公 平</w>
逃 避</w>
财 富</w>
荐 举</w>
羌 人</w>
孝 子</w>
子 贡</w>
北 海</w>
万 多</w>
一 死</w>
赶 走</w>
统 制</w>
彼 此</w>
山 岭</w>
蜀 国</w>
武 力</w>
李世 民</w>
最 为</w>
出 产</w>
救 济</w>
捕 获</w>
平 安</w>
九 岁</w>
不 予</w>
一 会</w>
语 言</w>
措 施</w>
感 谢</w>
少 数
四 周</w>
责 问</w>
祖 庙</w>
泛 滥</w>
沈 攸
太常 卿</w>
卫 尉</w>
经 典</w>
竭 力</w>
李 怀
按 时</w>
属 下</w>
关 羽</w>
傲 慢</w>
革 除</w>
玄 宗
彭 城
差 别</w>
交 趾</w>
两 年</w>
行 宫</w>
权 贵</w>
当 中</w>
少数 民族</w>
安 乐</w>
兵 败</w>
人 能</w>
花 纹</w>
李 元
奋 力</w>
眼 泪</w>
现 今</w>
刘 氏</w>
使 节</w>
颍 川</w>
看 着</w>
王 元</w>
狐 狸</w>
渭 水</w>
檄 文</w>
张 仪</w>
列 侯</w>
三 军</w>
魏 忠贤</w>
方 圆</w>
慎 重</w>
广 西</w>
变 乱</w>
取 消</w>
从今 以后</w>
吴 兴</w>
加 官</w>
起 居</w>
继承 人</w>
懈 怠</w>
征 西</w>
太 宰</w>
纣 王</w>
夏 国</w>
两 军</w>
三 尺</w>
一个 多月</w>
一 月</w>
献 帝</w>
普 通</w>
拿 来</w>
弊 端</w>
官 兵</w>
回 事</w>
八 个</w>
疲 惫</w>
四 百</w>
种 植</w>
王 琳</w>
王 安石</w>
爱 护</w>
取 代</w>
内 地</w>
偷 偷</w>
佥 事</w>
进 见</w>
说 出</w>
淮 西</w>
流 亡</w>
思 考</w>
忍 受</w>
开 通</w>
威 胁</w>
失 利</w>
八 千</w>
丢 失</w>
邀 请</w>
退 回</w>
辞 去</w>
第 二</w>
皇 室</w>
感 激</w>
地 理</w>
典 籍</w>
三十 里</w>
罢 除</w>
抵 挡</w>
天 文</w>
决 口</w>
冤 枉</w>
露 出</w>
甲 午</w>
欧 阳</w>
朝 服</w>
太 史
发 给</w>
五 谷</w>
不 顾</w>
看 不见</w>
称 病</w>
左 丞相</w>
威 势</w>
加 重</w>
击 破</w>
传 到</w>
为 主</w>
不 当</w>
长 寿</w>
辛 巳</w>
往 北
常 规</w>
四 岁</w>
南 流</w>
像 是</w>
伏 兵</w>
仰 慕</w>
高 低</w>
顺 帝</w>
蔡 州</w>
经 脉</w>
亲 王</w>
经 营</w>
痊 愈</w>
广 东</w>
丙 子</w>
封 禅</w>
回 归</w>
全 是</w>
乙 亥</w>
不 管</w>
永 平</w>
招 来</w>
德 政</w>
太 平
劳 苦</w>
侦 察</w>
供 养</w>
一 首</w>
邯 郸</w>
学 者</w>
听 信</w>
南 诏</w>
十 九年</w>
不 宜</w>
民 百姓</w>
征 战</w>
书 法</w>
身 子</w>
未 必</w>
晋 升</w>
右 丞相</w>
傍 晚</w>
风 雨</w>
鞭 打</w>
矛 盾</w>
每 个</w>
政 策</w>
封 号</w>
太 仆</w>
国 土</w>
周 文王</w>
勉 强</w>
伯 颜</w>
胜 过</w>
罪 人</w>
相 貌</w>
灵 帝</w>
江 淮</w>
此 人</w>
新 城</w>
巡 行</w>
富 裕</w>
实 施</w>
夏 侯
名 号</w>
仿 效</w>
令 狐</w>
从 来</w>
严 嵩</w>
东 阳</w>
不 仅</w>
渤 海</w>
史 书</w>
动 物</w>
光 明</w>
依 赖</w>
侄 子</w>
襄 公</w>
袁 术</w>
汉 宣帝</w>
李 全</w>
智 谋</w>
提 举</w>
崇 祯</w>
季 节</w>
回 宫</w>
听 取</w>
云 中</w>
九 个</w>
两 种</w>
七 千</w>
归 于</w>
南 部</w>
二十 万</w>
一 是</w>
贞 元</w>
西 行</w>
生 存</w>
河 流</w>
旧 制</w>
待 遇</w>
密 谋</w>
奏 乐</w>
大 笑</w>
向 来</w>
从 容</w>
举 动</w>
脑 袋</w>
石 虎</w>
击 鼓</w>
免 于</w>
九 卿</w>
见 面</w>
相 合</w>
曲 折</w>
我 家</w>
守 备</w>
奸 臣</w>
善 良</w>
光 武</w>
任 中书</w>
中 说</w>
钱 币</w>
真 定</w>
无 罪</w>
整 治</w>
到 底</w>
兵 权</w>
五 星</w>
事 宜</w>
为 政</w>
采 取</w>
灾 异</w>
流 民</w>
比 不上</w>
押 送</w>
打 死</w>
寿 命</w>
安 重</w>
商 汤</w>
升 官</w>
信 给</w>
阳 人</w>
甘 露</w>
敏 捷</w>
授 官</w>
对 外</w>
兵 卒</w>
二 心</w>
降 服</w>
进 而</w>
称 职</w>
差 不多</w>
宣 德</w>
兼 管</w>
两 只</w>
贤 良</w>
痛 苦</w>
条 件</w>
妃 子</w>
远 处</w>
诚 心</w>
献 出</w>
回 乡</w>
写 信给</w>
入 京</w>
进 发</w>
五 脏</w>
赏 给</w>
成 化</w>
其 父</w>
似 的</w>
三 种</w>
避 免</w>
相 通</w>
流 星</w>
传 给</w>
举 止</w>
参 政</w>
称 道</w>
每 每</w>
末 帝</w>
改 正</w>
床 上</w>
好 事</w>
分 给</w>
为 帝</w>
丰 收</w>
万 民</w>
高 贵</w>
饥 民</w>
读 书
萧 何</w>
禀 告</w>
湘 州</w>
汉 人</w>
损 伤</w>
大 喜</w>
可 惜</w>
公 文</w>
请 教</w>
自 成</w>
法 术</w>
接 替</w>
少 帝</w>
各 郡</w>
制 服</w>
问 候</w>
游 击</w>
武 功</w>
役 使</w>
好 学</w>
一 头</w>
甲 寅</w>
数 十
审 查</w>
大 旱</w>
同 州</w>
严 格</w>
郊 祀</w>
蛮 族</w>
荆 南</w>
生 出</w>
汝 南</w>
李 晟</w>
承 担</w>
姐 姐</w>
地 面</w>
和 谐</w>
几 百
之 时</w>
不 应</w>
贵 州</w>
耗 费</w>
老 头</w>
积 累</w>
拘 捕</w>
开 封</w>
壬 辰</w>
主 宾</w>
赫 连
请 示</w>
论 述</w>
规 矩</w>
猜 疑</w>
小 事</w>
寿 春</w>
大 举</w>
千 多</w>
乘 着</w>
之 计</w>
之 功</w>
正 义</w>
欢 乐</w>
张 良</w>
平 坦</w>
兴 元</w>
一 生</w>
陈 列</w>
读书 人</w>
掳 掠</w>
恳 切</w>
各 道</w>
召 他</w>
世 忠</w>
陇 右</w>
适 合</w>
一 概</w>
逃 脱</w>
筑 城</w>
清 明</w>
有 位</w>
器 械</w>
下 狱</w>
上 柱国</w>
足 够</w>
贵 族</w>
而 今</w>
甲 申</w>
狭 窄</w>
火 烧</w>
深 厚</w>
本 意</w>
德 威</w>
山 坡</w>
声 望</w>
壬 申</w>
儒 家</w>
事 迹</w>
三十 年</w>
超 越</w>
成 熟</w>
太 史</w>
制 成</w>
储 备</w>
佩 服</w>
门 口</w>
辛 亥</w>
罪 责</w>
晓 谕</w>
庄 公</w>
减 轻</w>
军 马</w>
企 图</w>
鼓 吹</w>
谈 话</w>
营 寨</w>
恰 当</w>
天 性</w>
转 移</w>
荥 阳</w>
粮 饷</w>
相 待</w>
溃 败</w>
汉 文帝</w>
山 阳</w>
家 奴</w>
地 形</w>
否 则</w>
典 礼</w>
世 袭</w>
七 天</w>
荣 耀</w>
疑 惑</w>
梁 军</w>
尊 奉</w>
将 近</w>
逃 散</w>
退 却</w>
兵 法</w>
郭崇 韬</w>
遣 使</w>
这样 的话</w>
恭敬 地</w>
弘 治</w>
大 地</w>
内 侍</w>
以 至</w>
人 情</w>
进 逼</w>
盛 大</w>
猜 忌</w>
极 其</w>
吞 并</w>
十 六</w>
下 边</w>
王 导</w>
文 采</w>
抚 军</w>
异 常</w>
威 望</w>
壮 士</w>
倭 寇</w>
丙 午</w>
下 堂</w>
集 贤</w>
送 回</w>
远 离</w>
覆 盖</w>
离 间</w>
游 览</w>
极 点</w>
李怀 光</w>
无 道</w>
墨 子</w>
公 开</w>
不 吃</w>
郎 官</w>
纠 正</w>
沧 州</w>
扩 大</w>
惊 异</w>
壬 寅</w>
原 本</w>
刘 表</w>
今 后</w>
东 部</w>
不 明</w>
高 山</w>
车 上</w>
赞 同</w>
设 宴</w>
窦 建德</w>
率 众</w>
广 平</w>
寺 庙</w>
安 帝</w>
周 公
北 伐</w>
功 名</w>
侥 幸</w>
辨 别</w>
赎 罪</w>
竭 尽</w>
由 此
淹 没</w>
批 评</w>
冯 道</w>
依 然</w>
甲 辰</w>
杭 州</w>
旧 时</w>
戊 子</w>
戊 午</w>
四 州</w>
历 代</w>
刘 宋</w>
骄 傲</w>
韩 世忠</w>
跪 拜</w>
禅 让</w>
授 职</w>
奸 诈</w>
在 此
听 任</w>
赤 色</w>
结 为</w>
淮 阳</w>
思 虑</w>
忌 恨</w>
当 然</w>
富 足</w>
堂 弟</w>
险 阻</w>
田 租</w>
提 议</w>
平 城</w>
大 官</w>
众 将</w>
代 表</w>
人 事</w>
之 际</w>
三 位</w>
雁 门</w>
祸 福</w>
把 守</w>
度 数</w>
史 思明</w>
拯 救</w>
庚 寅</w>
壬 子</w>
四 千</w>
十 几
丰 富</w>
连 接</w>
起 义</w>
玄 龄</w>
官 司</w>
好 象</w>
哪 能</w>
丙 辰</w>
甲 戌</w>
所 部</w>
惊 讶</w>
亡 国</w>
丁 丑</w>
谋 求</w>
犹 如</w>
桓 帝</w>
戊 寅</w>
华 山</w>
五 经</w>
二十 一年</w>
临 安</w>
立 下</w>
折 断</w>
戊 辰</w>
愚 蠢</w>
孙 策</w>
历 史</w>
之 才</w>
淳 于</w>
旌 旗</w>
侯 国</w>
住 处</w>
颁 发</w>
穷 困</w>
禽 兽</w>
癸 卯</w>
录 用</w>
大 规模</w>
侯 莫
争 辩</w>
两 座</w>
丢 弃</w>
降 下</w>
无 为</w>
愚 昧</w>
士 气</w>
余 里</w>
人 体</w>
举 兵</w>
来 看</w>
更 何况</w>
安 全</w>
城 县</w>
合 并</w>
侯莫 陈</w>
似 乎</w>
下 山</w>
齐 军</w>
皮 肤</w>
更 换</w>
日 本</w>
径 直</w>
实 录</w>
孝 庄</w>
丧 礼</w>
远 远</w>
美 丽</w>
神 色</w>
登 记</w>
易 经</w>
惊 奇</w>
平 素</w>
城 堡</w>
几 千人</w>
全 力</w>
乙 卯</w>
不 平</w>
这 条</w>
封 邑</w>
不 胜</w>
蝗 灾</w>
拥 戴</w>
奉 承</w>
不 论</w>
相 似</w>
参 将</w>
贤 士</w>
紫 光</w>
素 来</w>
李 靖</w>
扶 风</w>
征 虏</w>
庙 号</w>
干 什么</w>
在 一起</w>
唐 庄宗</w>
到 之处</w>
写 道</w>
追 逐</w>
辞 让</w>
浙 西</w>
有 座</w>
无 故</w>
归 属</w>
大 德</w>
吃 惊</w>
减 去</w>
辜 负</w>
范 围</w>
结 成</w>
突 出</w>
气 势</w>
正 式</w>
抚 养</w>
大 理
哪 个</w>
驾 驭</w>
辛 丑</w>
资 财</w>
调 查</w>
衰 弱</w>
积 聚</w>
癸 亥</w>
正 值</w>
很 难</w>
将 相</w>
好 几
同 乡</w>
加 强</w>
交 谈</w>
王 道</w>
来 得
昨 天</w>
数 百人</w>
少 傅</w>
司马 光</w>
长 乐</w>
选 用</w>
座 位</w>
奖 励</w>
大 统</w>
告 辞</w>
各 县</w>
前 秦</w>
册 立</w>
九 州</w>
珍 珠</w>
李光 弼</w>
李 泌</w>
服 役</w>
劝 告</w>
五 人</w>
高 阳</w>
音 律</w>
进 退</w>
辛 卯</w>
终 身</w>
睿 宗</w>
灭 掉</w>
晋 文公</w>
显 得</w>
因 功</w>
北 岸</w>
除 了</w>
长 者</w>
迎 击</w>
过 度</w>
庭 院</w>
尽 管</w>
实 情</w>
传 授</w>
不 成</w>
一 寸</w>
苏 州</w>
第 五</w>
大理 寺</w>
魏 博</w>
陵 王</w>
进 京</w>
真 宗</w>
深 深</w>
显 达</w>
宝 物</w>
墙 壁</w>
却 说</w>
十分 高兴</w>
借 口</w>
保 定</w>
伊 尹</w>
上 路</w>
货 物</w>
荒 废</w>
统 军</w>
相 处</w>
盐 铁</w>
王 宗
庚 子</w>
地 里</w>
分 之一</w>
具 体</w>
辛 未</w>
诚 意</w>
的 是</w>
救 助</w>
投 靠</w>
所 到之处</w>
总 领</w>
怀 有</w>
宣 读</w>
外 地</w>
金 紫光</w>
船 上</w>
胁 迫</w>
穆 公</w>
礼 记</w>
王 武
永 昌</w>
昭 公</w>
拜 礼</w>
打 听</w>
发 作</w>
会 同</w>
人 用</w>
临 幸</w>
丙 戌</w>
竟 陵</w>
报 仇</w>
托 付给</w>
土 山</w>
中 郎</w>
两 天</w>
癸 巳</w>
宅 第</w>
任 务</w>
仁 慈</w>
辎 重</w>
牺 牲</w>
战 船</w>
张 居正</w>
不 该</w>
驱 赶</w>
饿 死</w>
门 客</w>
遣 送</w>
朝 贺</w>
憎 恶</w>
心 愿</w>
尽 忠</w>
回 避</w>
十 八</w>
决 心</w>
争 斗</w>
东 郡</w>
贺拔 岳</w>
桂 阳</w>
授 给</w>
户 口</w>
巨 大</w>
外 表</w>
壬 戌</w>
做 出</w>
享 年</w>
丙 申</w>
一 颗</w>
认 真</w>
知 识</w>
木 头</w>
教 诲</w>
得 罪</w>
当 地人</w>
年 少时</w>
墓 地</w>
命 名</w>
信 义</w>
五 色</w>
乘 车</w>
乐 曲</w>
虞 舜</w>
流 水</w>
来得 及</w>
晚 年</w>
整 齐</w>
地 方
唐 宣宗</w>
儒 学</w>
丧 期</w>
长 城</w>
机 密</w>
忌 讳</w>
味 道</w>
列 举</w>
乙 酉</w>
不 决</w>
称 呼</w>
看 法</w>
广 大</w>
少 师</w>
宝 剑</w>
削 弱</w>
划 分</w>
减 免</w>
进 封</w>
诛 灭</w>
屈 服</w>
二十 里</w>
二十 三年</w>
不 怕</w>
丁 卯</w>
确 立</w>
沙 漠</w>
李 广</w>
故 乡</w>
庚 辰</w>
巡 按</w>
奉 行</w>
剥 夺</w>
世 隆</w>
而 立</w>
真 实</w>
深 远</w>
无 事</w>
希 烈</w>
前 代</w>
刘 守
修 缮</w>
临 朝</w>
骨 肉</w>
风 度</w>
限 制</w>
镇 南</w>
那 人</w>
老 城</w>
痛 恨</w>
王 彦
户 所</w>
小 心</w>
千 户所</w>
乃 是</w>
临 时</w>
东 道</w>
贤 德</w>
美 女</w>
相 传</w>
斋 戒</w>
捕 捉</w>
弱 小</w>
建 筑</w>
己 亥</w>
对 策</w>
始 兴</w>
二 个</w>
整 天</w>
国子 监</w>
刘 向</w>
下 葬</w>
集 合</w>
车 辆</w>
谄 媚</w>
庚 戌</w>
庐 陵</w>
地 域</w>
分 开</w>
光 大</w>
补 充</w>
王 承
浮 桥</w>
法 制</w>
江 都</w>
数 以
力 气</w>
其 它</w>
黄 道</w>
陈 平</w>
称 颂</w>
相 距</w>
岂 能</w>
屏 风</w>
境 界</w>
古 时</w>
受 伤</w>
南 海</w>
东 川</w>
万 年</w>
丁 巳</w>
襄 州</w>
的 确</w>
本 州</w>
明 智</w>
捉 拿</w>
抑 制</w>
战 士</w>
封 侯</w>
一 番</w>
马 希
鄱 阳</w>
郓 州</w>
调 动</w>
西 门</w>
沈攸 之</w>
李 纲</w>
无 辜</w>
天 神</w>
堂 上</w>
国 忠</w>
利 害</w>
侍 候</w>
令 史</w>
一 根</w>
隗 嚣</w>
陈 朝</w>
里 人</w>
贫 民</w>
营 建</w>
祈 求</w>
皇 家</w>
承 旨</w>
开 皇</w>
南 岸</w>
力 于</w>
优 待</w>
高 明</w>
违 犯</w>
迁 居</w>
贵 贱</w>
正 要</w>
山 顶</w>
守 军</w>
子 产</w>
嫉 妒</w>
周 代</w>
交 州</w>
遵 从</w>
起 事</w>
步 军</w>
最 近</w>
同 僚</w>
吊 唁</w>
习 惯</w>
麒 麟</w>
阿 里</w>
阳 王</w>
追 随</w>
赐 爵</w>
良 玉</w>
声 誉</w>
入 关</w>
人 敢</w>
龙 骧</w>
算 是</w>
离 散</w>
海 内</w>
无 常</w>
投 入</w>
成 年</w>
宿 卫</w>
困 苦</w>
及 第</w>
兼 并</w>
防 止</w>
衙 门</w>
相 等</w>
显 著</w>
无 知</w>
安 危</w>
奔 驰</w>
大 致</w>
壬 午</w>
参 议</w>
北 上</w>
元 军</w>
乘 船</w>
不 定</w>
高 位</w>
金 子</w>
酒 宴</w>
期 望</w>
当 官</w>
岩 洞</w>
孙 皓</w>
烧 掉</w>
海 上</w>
水 上</w>
意 志</w>
录 事</w>
失 守</w>
哀 悼</w>
可 怜</w>
关 押</w>
乙 丑</w>
豪 强</w>
有 所
有 如</w>
接 到</w>
招 集</w>
戊 申</w>
山 冈</w>
太 阴</w>
各 处</w>
临 川</w>
王 浚</w>
条 例</w>
己 丑</w>
就 任</w>
四 万</w>
可 用</w>
卑 贱</w>
价 值</w>
丁 未</w>
调 遣</w>
脸 上</w>
百 年</w>
孝 廉</w>
失 掉</w>
天 时</w>
天 平</w>
大 唐</w>
十 人</w>
兴 兵</w>
两 地</w>
世 代
集 市</w>
醒 悟</w>
西 夏</w>
聚 会</w>
本 人</w>
时 节</w>
守 臣</w>
司 农</w>
万 一</w>
用 心</w>
武 后</w>
核 实</w>
惊 慌</w>
媳 妇</w>
乙 未</w>
不 清</w>
部 位</w>
援 兵</w>
司 隶
原 有</w>
分 割</w>
倚 仗</w>
那 种</w>
邢 州</w>
索 取</w>
相 如</w>
泾 州</w>
朱 滔</w>
放 置</w>
庄 宗
宣 府</w>
大 行</w>
发 起</w>
刘 邦</w>
代 王</w>
丁 亥</w>
随 时</w>
这 时候</w>
请 罪</w>
瘟 疫</w>
用 于</w>
牛 马</w>
没 能</w>
攻 入</w>
庚 申</w>
年 少</w>
坏 事</w>
司隶 校</w>
刘 光
低 下</w>
九 江</w>
之 曲</w>
一 心</w>
诚 信</w>
看 望</w>
癸 未</w>
早 上</w>
姑 且</w>
化 及</w>
辛 酉</w>
房 舍</w>
工 部</w>
屏 障</w>
屋 里</w>
唐 僖宗</w>
呼 喊</w>
严 明</w>
两 旁</w>
一 来</w>
调 和</w>
虞 候</w>
耕 作</w>
百 多</w>
生 死</w>
建 元</w>
天 宝</w>
城 北</w>
南 征</w>
判 断</w>
元 康</w>
偷 袭</w>
举 起</w>
频 繁</w>
观 望</w>
歌 舞</w>
树 上</w>
放 到</w>
担 当</w>
怀 念</w>
开 辟</w>
分 野</w>
冒 犯</w>
买 卖</w>
一 把</w>
陵 县</w>
气 候</w>
敬 宗</w>
房 玄龄</w>
恰 逢</w>
宁 朔</w>
去 向</w>
衣 食</w>
脖 子</w>
统 辖</w>
前 行</w>
军 官</w>
二十 岁</w>
不 来</w>
骁 勇</w>
精 气</w>
玄 感</w>
木 材</w>
天下 太平</w>
先 祖</w>
僚 属</w>
保 留</w>
丙 寅</w>
下 马</w>
癸 丑</w>
求 取</w>
村 庄</w>
本 国</w>
曾 孙</w>
截 断</w>
惶 恐</w>
变 为</w>
保 佑</w>
下 韶
暴 露</w>
昏 暗</w>
挖 掘</w>
张 说</w>
己 卯</w>
周 世宗</w>
刺 杀</w>
分 成</w>
击 退</w>
写 作</w>
赞 叹</w>
让 给</w>
言 行</w>
羽 毛</w>
称 霸</w>
疑 虑</w>
接 应</w>
才 华</w>
庚 午</w>
庐 江</w>
广 汉</w>
平 地</w>
干 旱</w>
右 侍郎</w>
便 利</w>
规 范</w>
而 来</w>
祭 礼</w>
礼 服</w>
洪 水</w>
永 嘉</w>
残 害</w>
期 限</w>
敦 煌</w>
所 致</w>
印 信</w>
十 一</w>
使 命</w>
五百 户</w>
不 然</w>
一 部</w>
一 再</w>
边 关</w>
解 决</w>
西 流</w>
衰 落</w>
舆 论</w>
致 力于</w>
臣 服</w>
王 肃</w>
滑 州</w>
敌 国</w>
报 复</w>
就 是
同 一</w>
古 时候</w>
军 功</w>
典 章</w>
便 会</w>
二 位</w>
之 术</w>
三 国</w>
有 事</w>
改 换</w>
废 掉</w>
增 援</w>
南 康</w>
内 阁</w>
依 法</w>
交 情</w>
为 国</w>
谒 见</w>
说 来</w>
王 俭</w>
水 路</w>
本 是</w>
延 年</w>
师 傅</w>
奔 走</w>
以 示</w>
不可 不</w>
金 人</w>
通 判</w>
送 往</w>
运 粮</w>
武 安</w>
向 下</w>
义 理</w>
驱 使</w>
迎 合</w>
统 管</w>
纲 纪</w>
等 州</w>
疾 苦</w>
江 夏</w>
攀 登</w>
战 场</w>
庶 人</w>
姚 兴</w>
夏 州</w>
五十 里</w>
也 许</w>
陷 落</w>
那 儿</w>
败 亡</w>
苛 刻</w>
耳 目</w>
田 野</w>
后 汉</w>
分 析</w>
配 合</w>
聚 众</w>
有 名</w>
惯 例</w>
平 王</w>
太 妃</w>
伟 大</w>
二 尺</w>
魏 收</w>
直 至</w>
无 礼</w>
手 指</w>
我 方</w>
常 人</w>
大 战</w>
只 得</w>
一百 多
门 户</w>
远 远
朱 熹</w>
扎 营</w>
开 阔</w>
大 礼</w>
因 病</w>
养 育</w>
靠 着</w>
背 弃</w>
知 晓</w>
真 卿</w>
漂 亮</w>
果 真</w>
朱 友
手 里</w>
品 级</w>
乙 巳</w>
金 钱</w>
资 助</w>
衰 微</w>
相 会</w>
栅 栏</w>
本 朝</w>
总 共</w>
延 光</w>
山 涧</w>
官 阶</w>
安 逸</w>
外 边</w>
唯 有</w>
别 驾</w>
军 人</w>
先 人</w>
任 为</w>
下 人</w>
隆 庆</w>
陷 入</w>
陈 说</w>
金 朝</w>
适 当</w>
走 到</w>
而 出</w>
神 策
用 人</w>
生 擒</w>
特 地</w>
晋 封</w>
晋 安</w>
司马 懿</w>
丁 酉</w>
走 路</w>
论 处</w>
巩 固</w>
哀 伤</w>
十 四</w>
偷 偷
为 妻</w>
中 等</w>
至 此</w>
更 始</w>
攻 伐</w>
戒 备</w>
戊 戌</w>
寿 阳</w>
镇 西</w>
街 市</w>
移 动</w>
碰 到</w>
疲 劳</w>
灵 王</w>
灵 州</w>
德 军</w>
寺 院</w>
安 县</w>
子 路</w>
唐 明宗</w>
出 众</w>
关 键</w>
人 选</w>
不 远</w>
三 条</w>
野 外</w>
邻 居</w>
谈 到</w>
神策 军</w>
游 戏</w>
杖 刑</w>
指 出</w>
怪 异</w>
威 武</w>
周 易</w>
分 辨</w>
出 城</w>
几 百人</w>
人 生</w>
之 名</w>
重 耳</w>
著 名</w>
火 把</w>
满 意</w>
欺 诈</w>
憎 恨</w>
左 卫将军</w>
山 峡</w>
奉 献</w>
侍 臣</w>
京 房</w>
二十 二年</w>
金 城</w>
进 呈</w>
背 着</w>
绶 带</w>
治 病</w>
沛 公</w>
本 身</w>
替 代</w>
昏 侯</w>
昌 盛</w>
山 坳</w>
宇文 宪</w>
周 礼</w>
南 平</w>
偷偷 地</w>
一 套</w>
阿 那</w>
选 取</w>
识 别</w>
被 俘</w>
行 进</w>
烈 帝</w>
温 和</w>
江 夏
感 化</w>
庆 之</w>
岸 边</w>
屠 杀</w>
安 西</w>
凭 着</w>
闰 月</w>
节 省</w>
职 守</w>
疆 土</w>
浅 薄</w>
检 阅</w>
方 式</w>
意 愿</w>
在此 之前</w>
军 政</w>
一 天天</w>
购 买</w>
说 得
监 司</w>
玉 石</w>
武 定</w>
武 士</w>
昭 义</w>
旧 城</w>
援 军</w>
战 役</w>
任 尚书</w>
他 杀</w>
事 后</w>
上 述</w>
阿 史</w>
邻 国</w>
褒 奖</w>
老 鼠</w>
王 侯</w>
比 得上</w>
承 嗣</w>
奏 书</w>
司 州</w>
出 外</w>
骁 骑</w>
阳 侯</w>
道 歉</w>
苏 秦</w>
眼 前</w>
生 于</w>
旧 有</w>
收 回</w>
发 热</w>
仲 舒</w>
东 门</w>
谢 晦</w>
知 祥</w>
源 头</w>
欣 赏</w>
技 艺</w>
微 垣</w>
当 月</w>
弘 扬</w>
尉迟 迥</w>
大 路</w>
吕 后</w>
严 密</w>
不 久
一 说</w>
重 臣</w>
追 捕</w>
讨 平</w>
残 酷</w>
武 皇帝</w>
封 信</w>
分 明</w>
镇 江</w>
锦 衣
遗 诏</w>
议 定</w>
率 部</w>
法 规</w>
步 行</w>
木 星</w>
朋 党</w>
敬 畏</w>
怀 王</w>
十多 年</w>
事 件</w>
问 罪</w>
赶 赴</w>
背 后</w>
癸 酉</w>
没 什么</w>
求 和</w>
武 军</w>
恭 谨</w>
平 原
常 有</w>
布 置</w>
尽 头</w>
天 光</w>
地 盘</w>
可 行</w>
发 誓</w>
偶 然</w>
作 出</w>
任 官</w>
不 同
请 问</w>
范 阳</w>
绳 子</w>
狩 猎</w>
教 训</w>
手 段</w>
师 道</w>
安 庆</w>
回 军</w>
剑 南</w>
侯 爵</w>
中 途</w>
中 常</w>
配 享</w>
越 发</w>
衡 山</w>
王 景
王 妃</w>
牛 羊</w>
求 救</w>
款 待</w>
意 旨</w>
康 王</w>
国 库</w>
十多 万</w>
前 任</w>
刑 狱</w>
讥 讽</w>
繁 多</w>
皇 族</w>
时 刻</w>
拾 遗</w>
成 祖</w>
成 人</w>
弊 病</w>
作 品</w>
人 力</w>
交 错</w>
连 同</w>
行 至</w>
散 骑</w>
操 行</w>
开 门</w>
干 犯</w>
布 政
宽 大</w>
南 齐</w>
做 好</w>
保 住</w>
为 臣</w>
万 计</w>
钟 会</w>
那 年</w>
西 河</w>
类 似</w>
甘 泉</w>
激 励</w>
山 麓</w>
守 护</w>
委 派</w>
坚 定</w>
唐 昭宗</w>
刚 强</w>
侯 景
京 畿</w>
上 位</w>
雨 水</w>
转 为</w>
财 货</w>
自 然
秃 发</w>
福 州</w>
排 斥</w>
抗 击</w>
巡 察</w>
小 儿子</w>
大 名</w>
大 司农</w>
发 配</w>
之 神</w>
黄 昏</w>
过 后</w>
潭 州</w>
施 舍</w>
幸 免</w>
差 役</w>
后 周</w>
叔 孙
协 调</w>
于 世</w>
一 贯</w>
一 张</w>
马 燧</w>
降 雨</w>
章 制度</w>
百 余
整 理</w>
数 年</w>
支 持</w>
守 住</w>
大 凡</w>
圣 德</w>
后 裔</w>
刘 知
鄂 州</w>
辞 别</w>
羽 林
维 持</w>
歌 唱</w>
挽 留</w>
惟 独</w>
安 城</w>
守 贞</w>
奏 事</w>
凭 藉</w>
会 师</w>
专 心</w>
锦衣 卫</w>
连 夜</w>
王武 俊</w>
永 宁</w>
来 自</w>
有 司</w>
打 击</w>
开 支</w>
就 算</w>
孟 知祥</w>
四 肢</w>
唐 尧</w>
哪 有</w>
勤 勉</w>
任 意</w>
五 次</w>
项 王</w>
韶 令</w>
长 短</w>
郑 州</w>
竹 子</w>
民 户</w>
星 辰</w>
新 安</w>
接 过</w>
感 觉</w>
快 要</w>
吴 军</w>
听 政</w>
剩 余</w>
出 京</w>
位 居</w>
会 稽
代 州</w>
二十 四年</w>
黎 阳</w>
魏 文帝</w>
随 之</w>
编 修</w>
王 思
气 节</w>
朝 觐</w>
庄 烈帝</w>
宣抚 使</w>
城 西</w>
告 急</w>
兴 建</w>
光 禄
交 结</w>
之 声</w>
之 乱</w>
不 服</w>
隆 重</w>
表 章</w>
竞 相</w>
树 枝</w>
期 满</w>
强 迫</w>
奸 佞</w>
声 名</w>
同 情</w>
先 例</w>
三 万人</w>
一 代</w>
重 荣</w>
都 虞候</w>
辅 政</w>
等 于</w>
注 重</w>
死 时</w>
可 知</w>
凶 恶</w>
营 造</w>
水 边</w>
死 于</w>
寻 阳</w>
劫 持</w>
之 命</w>
走 上</w>
许 州</w>
肌 肉</w>
生 日</w>
王 者</w>
梁 冀</w>
普 通
晋 爵</w>
授 为</w>
庄 子</w>
幼 年</w>
宇文 述</w>
三 王</w>
一 下
龟 兹</w>
郑 玄</w>
退 出</w>
赶 来</w>
言 官</w>
茂 盛</w>
私 利</w>
真 人</w>
玩 笑</w>
段 时间</w>
武 威</w>
桓 公说</w>
文 子</w>
收 敛</w>
城 郭</w>
刘 瑾</w>
刘 毅</w>
切 断</w>
京 口</w>
贫 贱</w>
贤 王</w>
责 怪</w>
诉 说</w>
第 三</w>
禁 军</w>
石 山</w>
献 公</w>
涉 及</w>
文 德</w>
放 出</w>
如 故</w>
增 多</w>
副 手</w>
以 内</w>
上 方</w>
非 议</w>
酒 爵</w>
谷 关</w>
解 救</w>
苏 威</w>
自 称为</w>
检 举</w>
普 遍</w>
得 病</w>
奏 表</w>
坠 落</w>
咨 询</w>
同 族</w>
合 力</w>
十多 天</w>
优 秀</w>
五 六
齐 州</w>
责 罚</w>
获 取</w>
章 帝</w>
楚 州</w>
时 而</w>
放 牧</w>
户 籍</w>
庐 州</w>
对 峙</w>
大 计</w>
取 得
发 挥</w>
公孙 述</w>
乌 桓</w>
阵 势</w>
走 过</w>
相 接</w>
永 元</w>
显 现</w>
忠 厚</w>
北 征</w>
创 作</w>
出 嫁</w>
党 项</w>
佛 像</w>
主 将</w>
不得 不</w>
一 度</w>
一 夜</w>
魏 朝</w>
隋 炀帝</w>
陈 设</w>
酒 杯</w>
通 报</w>
逃 出</w>
退 守</w>
筹 划</w>
祭 坛</w>
田 悦</w>
浙 东</w>
惋 惜</w>
寄 托</w>
容 纳</w>
九 百</w>
高 丽
见 解</w>
联 系</w>
罢 黜</w>
灌 溉</w>
方 正</w>
己 未</w>
太 极</w>
大 略</w>
在 座</w>
同 年</w>
劳 累</w>
几十 个</w>
农 夫</w>
井 宿</w>
一千 户</w>
贬 谪</w>
而 成</w>
柱 子</w>
律 令</w>
应 对</w>
己 巳</w>
崔 浩</w>
基 础</w>
国 有</w>
哀 痛</w>
函 谷关</w>
乐 于</w>
贪 污</w>
设 法</w>
虚 实</w>
特 产</w>
果 断</w>
杨 国忠</w>
文 集</w>
唐 高宗</w>
唐 军</w>
听 后</w>
八 人</w>
佛 寺</w>
降 低</w>
金 陵</w>
质 朴</w>
要 害</w>
裁 决</w>
花 费</w>
考 查</w>
砍 伐</w>
王 玄
泗 水</w>
无 力</w>
宇文 化及</w>
太 仆
天 生</w>
四 品</w>
囚 徒</w>
周 勃</w>
千 金</w>
务 必</w>
分 兵</w>
诵 读</w>
指 使</w>
当 权</w>
建 都</w>
应 付</w>
平 民百姓</w>
山 脉</w>
宰 臣</w>
享 有</w>
争 论</w>
不 算</w>
陈 留</w>
阴 间</w>
长 得</w>
辽 国</w>
肚 子</w>
昔 日</w>
推 官</w>
坏 人</w>
各 人</w>
北 山</w>
黄 龙</w>
门 人</w>
银 子</w>
脱 脱</w>
犒 劳</w>
浪 费</w>
朝 堂</w>
所 能</w>
孟 尝
外 国</w>
和 亲</w>
九 品</w>
道 成</w>
祭 告</w>
正 赶上</w>
更 为</w>
敕 命</w>
征 求</w>
何 处</w>
互 相
镇 抚</w>
蝗 虫</w>
虎 贲</w>
穷 尽</w>
王 司马
服 用</w>
放 逐</w>
挽 救</w>
审 察</w>
天 门</w>
天 王</w>
力 士</w>
充 满</w>
假 若</w>
侄 儿</w>
二十 多
主 事</w>
不 但</w>
长 处</w>
获 胜</w>
穿 戴</w>
真 诚</w>
盟 誓</w>
数 百
我 能</w>
彭城 王</w>
大 雪</w>
南 越</w>
南 安</w>
元 忠</w>
以 免</w>
仁 杰</w>
二十 五年</w>
之 势</w>
一 举</w>
顺 序</w>
阻 挡</w>
郡 国</w>
讲 究</w>
翰林 院</w>
继 嗣</w>
粮 仓</w>
申 诉</w>
淫 乱</w>
局 面</w>
孟尝 君</w>
四 次</w>
喝 醉</w>
县 里</w>
出 卖</w>
出 仕</w>
侵 占</w>
上 帝</w>
阻 隔</w>
阻 塞</w>
走 进</w>
知 制</w>
犹 豫
急 速</w>
封 为
宗 正</w>
孝 王</w>
唱 歌</w>
卫 青</w>
贺 若
讲 解</w>
西 道</w>
藩 王</w>
神 位</w>
狡 猾</w>
淮 安</w>
指 示</w>
度 量</w>
年 长</w>
巫 师</w>
寡 人</w>
定 罪</w>
安 心</w>
妨 碍</w>
太 府</w>
发 病</w>
印 绶</w>
十 七</w>
兴 国</w>
元 勰</w>
东 下</w>
金 兵</w>
衣 裳</w>
节 气</w>
白 银</w>
正 中</w>
晁 错</w>
张 敬
延 续</w>
己 酉</w>
一下 子</w>
高 平</w>
蒙 蔽</w>
正 殿</w>
太 过</w>
外 甥</w>
南 门</w>
军 府</w>
儒 者</w>
九 十</w>
之 于</w>
为 民</w>
中书 监</w>
七 万</w>
辛 苦</w>
趁 着</w>
相 反</w>
生 下</w>
清 静</w>
河 中</w>
武 德</w>
撤 除</w>
心 志</w>
待 制</w>
差 错</w>
存 亡</w>
奴 隶</w>
奇 特</w>
叙 述</w>
发 放</w>
不 忍</w>
下 省</w>
集 结</w>
班 超</w>
水 往</w>
日 蚀</w>
所 为</w>
张 汤</w>
尾 巴</w>
学 业</w>
同 行</w>
冤 屈</w>
全 义</w>
先 行</w>
一 群</w>
马 援</w>
贺拔 胜</w>
表 示
疑 心</w>
流 通</w>
果 实</w>
掌 权</w>
忠 贞</w>
应 有</w>
封 给</w>
对 答</w>
天 保</w>
佩 带</w>
高 处</w>
追 上</w>
边 远</w>
起 床</w>
赶 紧</w>
赞 扬</w>
美 名</w>
立 为</w>
用 尽</w>
永 兴</w>
气 愤</w>
每 日</w>
条 文</w>
旧 臣</w>
无 处</w>
师 古</w>
大 定</w>
哈 密</w>
刚 直</w>
保 证</w>
五 尺</w>
之 战</w>
轮 流</w>
贬 官</w>
行 了</w>
翻 越</w>
石 头
清 宫</w>
武 皇</w>
有 条</w>
就 行了</w>
卫 军</w>
十 五
再 拜</w>
六 人</w>
任 检校</w>
不 问</w>
三十 万</w>
三 思</w>
诚 实</w>
西 征</w>
而 入</w>
老 太
石 门</w>
灵 公</w>
法 师</w>
机 要</w>
明 朝</w>
文 明</w>
戒 严</w>
张 士
平 和</w>
巡 幸</w>
哀 公</w>
刘守 光</w>
公孙 瓒</w>
二 郡</w>
之 祸</w>
访 问</w>
计 议</w>
能 干</w>
时 令</w>
建 国</w>
城 东</w>
人 大</w>
五 寸</w>
书 上</w>
一 到</w>
盗 窃</w>
手 下人</w>
广 博</w>
屋 子</w>
小 溪</w>
寻 常</w>
多 余</w>
堆 积</w>
城 市</w>
唐 中宗</w>
军 事
八 尺</w>
亲 军</w>
面 临</w>
羞 愧</w>
王 守
此 外</w>
杀 敌</w>
有 过</w>
有 才干</w>
拱 手</w>
懿 宗</w>
惩 治</w>
尽 心</w>
国 运</w>
口 中</w>
仇 敌</w>
神 人</w>
登 堂</w>
温 泉</w>
清 晨</w>
求 见</w>
杨 玄感</w>
怀 州</w>
孝 经</w>
双 亲</w>
危 亡</w>
北 门</w>
两 岸</w>
不 着</w>
一千 五百</w>
一 路</w>
镇 军</w>
钟 离</w>
衡 量</w>
萧 子
舅 舅</w>
济 水</w>
汉 书</w>
汇 报</w>
武 成帝</w>
拷 打</w>
惟 有</w>
庄 重</w>
威 名</w>
右 手</w>
南 行</w>
伤 心</w>
东 方
不 加</w>
馈 赠</w>
配 给</w>
赐 死</w>
著 称</w>
篡 位</w>
看 作</w>
横 行</w>
无 功</w>
居 丧</w>
奉 养</w>
大 山</w>
喜 悦</w>
协 力</w>
勤 劳</w>
前 边</w>
刘仁 恭</w>
假 托</w>
仇 人</w>
二千 人</w>
乐 业</w>
下 诏
肥 沃</w>
第二 个</w>
稳 定</w>
汝 州</w>
李 孝
改 革</w>
度 支</w>
幕 僚</w>
女 真</w>
城 镇</w>
名 分</w>
光 辉</w>
作 乐</w>
何 不</w>
似 道</w>
二 世</w>
中 行</w>
东 山</w>
赞 许</w>
设 在</w>
聘 问</w>
生 前</w>
父 兄</w>
清 除</w>
曾 子</w>
方 略</w>
成 败</w>
宴 席</w>
宣 城</w>
增 设</w>
元 载</w>
症 状</w>
用 意</w>
王 敬
焚 毁</w>
柔 然</w>
吴 起</w>
削 夺</w>
修 国史</w>
伯 父</w>
人 到</w>
一 行</w>
祖 母</w>
所 在
引 用</w>
宅 院</w>
好 坏</w>
半 天</w>
先 主</w>
二十 五</w>
两 浙</w>
不 觉</w>
鼻 子</w>
远远 地</w>
贡 品</w>
紫 色</w>
次 子</w>
平 生</w>
在 世</w>
削 减</w>
主 上</w>
丝 毫</w>
三 辅</w>
道 行</w>
近 侍</w>
贾 似道</w>
法 纪</w>
没 有
沈 约</w>
桑 树</w>
怎么 回事</w>
怀 恩</w>
庄 王</w>
安 居</w>
头 巾</w>
其 不
八 方</w>
东 昏侯</w>
下 士</w>
随 行</w>
阳 平</w>
门 下省</w>
车 轮</w>
范 延光</w>
背 上</w>
羽 林</w>
石 桥</w>
灵 武</w>
抬 头</w>
扣 留</w>
念 头</w>
宁 州</w>
厚 待</w>
北 院</w>
倾 覆</w>
交 替</w>
东方 朔</w>
一 棵</w>
通 道</w>
萧 道成</w>
胜 负</w>
江 中</w>
榜 样</w>
有 利于</w>
拖 欠</w>
弯 曲</w>
山 陵</w>
尊 卑</w>
奏 议</w>
匹 马</w>
其 他人</w>
侍 读</w>
三百 户</w>
道 行军</w>
进 取</w>
轩 辕</w>
论 语</w>
董 仲舒</w>
臣 僚</w>
看 守</w>
登 城</w>
疏 浚</w>
献 忠</w>
李 文
排 挤</w>
才 学</w>
开 凿</w>
字 子</w>
好 人</w>
声 威</w>
城 楼</w>
合 兵</w>
全 身</w>
二十 六年</w>
观 赏</w>
纵 横</w>
李 彪</w>
恩 情</w>
怠 慢</w>
天 启</w>
处 事</w>
传 播</w>
韦 皋</w>
闵 帝</w>
近 代</w>
言 说</w>
裁 减</w>
舞 蹈</w>
背 离</w>
简 文帝</w>
禀 报</w>
班 师</w>
海 陵</w>
明 彻</w>
年 轻
山 王</w>
对 抗</w>
十一 岁</w>
六 千</w>
人 君</w>
交 换</w>
赤 道</w>
许 国</w>
统 一
王 僧</w>
杀 伤</w>
月 份</w>
曹 爽</w>
散 发</w>
支 援</w>
承 蒙</w>
干 净</w>
屡 屡</w>
小 船</w>
实 力</w>
大 哭</w>
分 派</w>
军 饷</w>
随 同</w>
转 而</w>
牵 制</w>
武 将</w>
武 卫将军</w>
桥 梁</w>
更 是</w>
政 府</w>
改 称</w>
彻 底</w>
常 州</w>
奔 逃</w>
夸 耀</w>
夫 妻</w>
土 星</w>
召 入</w>
兵 车</w>
人 有</w>
之 众</w>
世代 代</w>
世 世代代</w>
辩 论</w>
至 德</w>
自 动</w>
耿 直</w>
礼 官</w>
看 不到</w>
甘 肃</w>
王 说</w>
渡 口</w>
沿 袭</w>
歌 颂</w>
有 幸</w>
明 君</w>
方 位</w>
天 水</w>
发 大水</w>
加 倍</w>
兼 领</w>
二 岁</w>
金 吾
邓 艾</w>
照 耀</w>
水 势</w>
材 料</w>
李 景</w>
朔 州</w>
显 祖</w>
挑 战</w>
崖 壁</w>
尚书 郎</w>
宣 州</w>
学 识</w>
天 黑</w>
传 令</w>
下 游</w>
颜 真卿</w>
董 璋</w>
苦 于</w>
石头 城</w>
泽 州</w>
敌 方</w>
徐 温</w>
建 平</w>
安 居
善 辩</w>
价 格</w>
代 郡</w>
举 人</w>
上 边</w>
一 段时间</w>
违 抗</w>
败 露</w>
精 锐
祷 告</w>
犹 豫</w>
灭 族</w>
殿 堂</w>
李 宗
有 点</w>
新 罗</w>
拼 死</w>
惩 处</w>
幼 小</w>
小 余</w>
安居 乐业</w>
原 职</w>
历 阳</w>
元 颢</w>
义 熙</w>
钱 粮</w>
遵 照</w>
衡 州</w>
水 面</w>
有 意</w>
控 告</w>
彭 越</w>
平 公</w>
布 衣</w>
左 光禄</w>
孝 武</w>
四十 里</w>
周 武帝</w>
号 哭</w>
千 年</w>
以 待</w>
两 淮</w>
不 受</w>
遮 蔽</w>
谋 取</w>
调 出</w>
羡 慕</w>
清 水</w>
敬 瑭</w>
形 象</w>
开 垦</w>
干 预</w>
属 吏</w>
同 心
刘 子
公 家</w>
乐 安</w>
驾 到</w>
还 会</w>
湖 北</w>
泉 州</w>
建 宁</w>
带 上</w>
堤 岸</w>
其 间</w>
之 君</w>
万 两</w>
高 澄</w>
讥 笑</w>
聪 慧</w>
私 通</w>
石 壁</w>
李 渊</w>
李 希烈</w>
李 冲</w>
有 力</w>
收 拾</w>
振 兴</w>
想 起</w>
大 禹</w>
夏 桀</w>
十 六
不可 胜
上 谷</w>
院 子</w>
阳 明</w>
邓 州</w>
身 高</w>
财 力</w>
言 谈</w>
申 明</w>
珍 贵</w>
特 意</w>
机 构</w>
本 月</w>
张 氏</w>
城 上</w>
刘 璋</w>
入 狱</w>
二 是</w>
难 于</w>
闻 知</w>
议 事</w>
耕 田</w>
眺 望</w>
照 顾</w>
每 逢</w>
怎 能
当 于</w>
开 玩笑</w>
图 案</w>
几 千</w>
农 田</w>
传 来</w>
之 兵</w>
食 用</w>
陆 逊</w>
陆 路</w>
门 郎</w>
般 的</w>
胡 须</w>
父 老</w>
提 供</w>
捆 绑</w>
徘 徊</w>
引 荐</w>
安 静</w>
姜 维</w>
姓 氏</w>
大 夏</w>
声 势</w>
后 嗣</w>
从 未</w>
云 州</w>
不 义</w>
高 高
辛 劳</w>
身 居</w>
贤 者</w>
襄 子</w>
索 要</w>
祠 庙</w>
碑 文</w>
男 孩</w>
湖 州</w>
沿 江</w>
数 额</w>
数 次</w>
我 朝</w>
情 理</w>
张 俊</w>
左 丞
安 平</w>
子 胥</w>
太 元</w>
国 都</w>
几 万人</w>
中 庶子</w>
下 午</w>
践 踏</w>
襄 城</w>
被 迫</w>
美 人</w>
种 田</w>
盼 望</w>
相 州</w>
沈 庆之</w>
朱 异</w>
暗 地里</w>
拖 延</w>
愤 恨</w>
不 免</w>
隐 士</w>
通 州</w>
蔡 京</w>
营 地</w>
菩 萨</w>
羞 耻</w>
泗 州</w>
水 源</w>
欢 喜</w>
根 源</w>
杜 绝</w>
操 守</w>
惊 骇</w>
归 服</w>
庾 亮</w>
巴 陵</w>
如 能</w>
北 郊</w>
刘光 世</w>
出 宫</w>
再 度</w>
公孙 弘</w>
公 布</w>
元 徽</w>
修 整</w>
人 之
二十 八年</w>
辩 解</w>
许 昌</w>
裴 矩</w>
益 处</w>
男 人</w>
江夏 王</w>
景 泰</w>
方 才</w>
承 认</w>
成 绩</w>
安 陆</w>
动 静</w>
前 朝</w>
先 朝</w>
黄 初</w>
韩 愈</w>
阅 读</w>
酒 泉</w>
越 州</w>
言 词</w>
蒙 逊</w>
糊 涂</w>
流 涕</w>
收 养</w>
所 作
所作 所为</w>
开 导</w>
庇 护</w>
小 子</w>
察 觉</w>
头 颅</w>
司 农
全 面</w>
体 恤</w>
二 万人</w>
中 山王</w>
不 绝</w>
镜 子</w>
送 行</w>
追 尊</w>
进 驻</w>
这样 一来</w>
赋 诗</w>
贬 斥</w>
相 当于</w>
王 延
滞 留</w>
棺 木</w>
效 果</w>
改 元</w>
府 君</w>
夫 妇</w>
回 复</w>
回 信</w>
反 省</w>
博 学</w>
六 品</w>
亲 密</w>
事 变</w>
严 加</w>
预 测</w>
险 峻</w>
谢 恩</w>
诸 道</w>
殷 仲
朝 野</w>
成 仙</w>
戍 边</w>
必 有</w>
广 宁</w>
平 庸</w>
左 手</w>
尼 姑</w>
判 处</w>
作 恶</w>
仙 芝</w>
不 疑</w>
一 事</w>
顺 利</w>
赶 不上</w>
赵 汝
贵 重</w>
讲 述</w>
萧 宝</w>
狂 妄</w>
放 火</w>
张 彦
安 西
吊 丧</w>
创 立</w>
会 盟</w>
二十 四</w>
为 名</w>
进 一步</w>
议 和</w>
良 马</w>
缝 隙</w>
经 史</w>
精锐 部队</w>
状 况</w>
燕 军</w>
水 陆</w>
李嗣 源</w>
孝 道</w>
四 种</w>
向 导</w>
合 于</w>
偷 盗</w>
不 死</w>
不 正</w>
黄 门郎</w>
韦 氏</w>
长 安城</w>
许 久</w>
药 物</w>
秉 承</w>
神 主</w>
直 奔</w>
狡 诈</w>
江 山</w>
朱 瑾</w>
是 不是</w>
或 是</w>
慕容 宝</w>
张 掖</w>
开 创</w>
并 列</w>
工部 侍郎</w>
宜 阳</w>
安 州</w>
即 便</w>
刘 歆</w>
刘 休
凶 暴</w>
不 一会</w>
三 分</w>
铲 除</w>
退 朝</w>
走 向</w>
赤 眉</w>
膳 食</w>
绢 帛</w>
练 习</w>
私 情</w>
深 感</w>
检 验</w>
支 流</w>
慈 爱</w>
怎 敢</w>
弹 琴</w>
如 意</w>
周 到</w>
同 姓</w>
刘义 康</w>
光 芒</w>
件 事</w>
中 兵</w>
不 道</w>
不 轨</w>
万 匹</w>
麻 烦</w>
陷 于</w>
附 于</w>
轻 率</w>
苏 轼</w>
相 持</w>
渊 博</w>
擢 升</w>
拦 截</w>
家 里人</w>
宣 徽</w>
十 五岁</w>
勇 武</w>
先 到</w>
丢 掉</w>
近 处</w>
而 能</w>
经 由</w>
砍 断</w>
杰 出</w>
星 宿</w>
早 已</w>
懦 弱</w>
大 象</w>
大 河</w>
后 边</w>
同 类</w>
功 效</w>
出 塞</w>
养 子</w>
修 治</w>
产 业</w>
五 代</w>
事 例</w>
之 初</w>
不 为</w>
一 声</w>
长 度</w>
酉 日</w>
轻 装</w>
考 中</w>
汴 京</w>
杨 氏</w>
李 贤</w>
施 展</w>
探 望</w>
急 迫</w>
强 壮</w>
帝 业</w>
史 臣</w>
南 朝</w>
千 名</w>
勃 然
不 时</w>
万 世</w>
颉 利</w>
霸 先</w>
那 位</w>
迁 往</w>
跪 下</w>
订 立</w>
而 言</w>
究 竟</w>
称 得上</w>
武 侯</w>
杜 预</w>
朝 代</w>
文 才</w>
情 绪</w>
怪 物</w>
强 行</w>
平 江</w>
平 凉</w>
崩 塌</w>
属 国</w>
客 星</w>
失 陷</w>
地方 官</w>
叩 拜</w>
先 君</w>
侵 略</w>
雕 刻</w>
陈 州</w>
野 鸡</w>
调 发</w>
用 处</w>
王 衍</w>
沙 陀</w>
李 斯</w>
时 分</w>
支 脉</w>
感 应</w>
平 静</w>
寿 州</w>
宣抚 司</w>
大 体</w>
士 民</w>
四 百
后 方</w>
卫 兵</w>
军 攻</w>
内 应</w>
典 章制度</w>
仆 固</w>
义 阳</w>
不 至于</w>
一 部分</w>
醒 来</w>
班 固</w>
毛 病</w>
村 落</w>
手 执</w>
忠 孝</w>
征 北</w>
张 华</w>
固 然</w>
之 官</w>
一 口</w>
鸟 兽</w>
魏 徵</w>
隐 帝</w>
陈 留
间 谍</w>
西 平</w>
表 率</w>
翅 膀</w>
石 敬瑭</w>
损 坏</w>
承 接</w>
手 足</w>
感 慨</w>
定 为</w>
太 中</w>
厅 堂</w>
升 降</w>
出 帝</w>
为 害</w>
陈 友
迁 到</w>
贪 赃</w>
讨 好</w>
老 臣</w>
毫 不</w>
武 都</w>
明 宗
情 感</w>
平 西</w>
崔 光</w>
升 天</w>
勃然 大怒</w>
党 徒</w>
乘 以</w>
齐 备</w>
麦 子</w>
这 儿</w>
路 旁</w>
解 围</w>
羌 族</w>
权 柄</w>
曹 公</w>
收 到</w>
拥 护</w>
巡 检</w>
崇 高</w>
善 恶</w>
后 赵</w>
南 宫</w>
六 种</w>
值 班</w>
九 千</w>
东 征</w>
一 卷</w>
要 说</w>
童 子</w>
玉 玺</w>
灵 太后</w>
法 官</w>
毕 宿</w>
毁 谤</w>
晋 代</w>
故 事</w>
招 呼</w>
想 着</w>
徐 达</w>
年 人</w>
坏 话</w>
传 送</w>
两 家</w>
黄 钟</w>
高 峻</w>
顾 虑</w>
贸 易</w>
谦 恭</w>
自 古</w>
纳 言</w>
祠 堂</w>
盛 世</w>
求 援</w>
残 忍</w>
数 十万</w>
收 成</w>
展 开</w>
对 内</w>
宁 远</w>
大 逆
大 树</w>
大 典</w>
刘 劭</w>
出 名</w>
余 党</w>
争 着</w>
东 吴</w>
长 出</w>
道 济</w>
送 信</w>
范 晔</w>
第二 次</w>
督 察</w>
瓦 解</w>
此 前</w>
树 林</w>
房 宿</w>
就是 说</w>
字 子
大 惊</w>
哀 怜</w>
吕 蒙</w>
合 纵</w>
史 馆</w>
决 战</w>
再 有</w>
光 远</w>
停 泊</w>
修 饰</w>
亲 征</w>
除 名</w>
防 卫</w>
逆 贼</w>
贾 充</w>
贺 兰</w>
臧 质</w>
聪 明
服 侍</w>
无 能</w>
文 育</w>
掩 盖</w>
将 校</w>
射 死</w>
家 门</w>
婚 姻</w>
十 岁</w>
十 八
六 州</w>
久 远</w>
上 马</w>
三 是</w>
齐 朝</w>
追 到</w>
要 职</w>
行 赏</w>
自 有</w>
看 待</w>
生 母</w>
王 晏</w>
炫 耀</w>
气 血</w>
某 人</w>
文 侯</w>
意 外</w>
幕 府</w>
官 服</w>
士 开</w>
吴 汉</w>
刘 曜</w>
农 事</w>
其 弟</w>
信 服</w>
住 所</w>
以 礼
人 世</w>
降 为</w>
违 法</w>
辽 西</w>
负 担</w>
贝 州</w>
调 集</w>
虎 符</w>
结 婚</w>
王 峻</w>
放 肆</w>
年 岁</w>
吴 明彻</w>
几十 人</w>
借 此</w>
人 称</w>
七 里</w>
钱 物</w>
谦 虚</w>
秩 序</w>
石 碑</w>
用 手</w>
测 量</w>
无 数</w>
悄 悄</w>
建 业</w>
层 层</w>
婴 儿</w>
好 久</w>
夏 言</w>
夏 至</w>
后 秦</w>
农 耕</w>
公 在</w>
享 用</w>
三 寸</w>
七 尺</w>
高 官</w>
超 出</w>
赵 氏</w>
证 据</w>
规 划</w>
葬 礼</w>
苟 且</w>
白 昼</w>
流 动</w>
武 三思</w>
杨 师</w>
杨 坚</w>
曹 参军</w>
旺 盛</w>
扬 言</w>
托 付</w>
急 于</w>
加 任</w>
出 游</w>
低 贱</w>
下 里</w>
黑 闼</w>
陈 霸先</w>
远 大</w>
还 乡</w>
身 旁</w>
贤 臣</w>
访 求</w>
英 殿</w>
绛 州</w>
竭 尽
死 伤</w>
武 宁</w>
欧 阳
所 生</w>
彦 博</w>
弘 农</w>
小 便</w>
国 号</w>
十 九</w>
区 分</w>
仪 表</w>
五 等</w>
丧 葬</w>
丧 主</w>
两 面</w>
不 相
一 战</w>
一 份</w>
闲 暇</w>
诚 恳</w>
警 告</w>
落 到</w>
萧 颖
腹 部</w>
绳 索</w>
督 率</w>
犹豫 不决</w>
每 到</w>
毁 掉</w>
武 平</w>
得 当</w>
幸 运</w>
岐 州</w>
就 象</w>
宁 夏</w>
堂 兄</w>
培 养</w>
名 士</w>
合 肥</w>
冲 击</w>
作 法</w>
五百 里</w>
之 二</w>
不 说</w>
颇 为</w>
葛 荣</w>
突 起</w>
百 济</w>
灵 验</w>
江 北</w>
民 力</w>
忘 掉</w>
开 封
廷 臣</w>
平 州</w>
少 阳</w>
宿 州</w>
安 成</w>
孤 儿</w>
卿 大夫</w>
削 去</w>
初 次</w>
再 用</w>
仁 寿</w>
上 官</w>
龙 门</w>
高 允</w>
难 以
锋 利</w>
败 退</w>
谢 安</w>
蔡 邕</w>
狄 仁杰</w>
欺 凌</w>
早 年</w>
效 忠</w>
报 效</w>
感 到
总 计</w>
左 军</w>
山 海
寇 准</w>
容 忍</w>
天 明</w>
和 帝</w>
合 理</w>
分 离</w>
修 造</w>
骏 马</w>
食 品</w>
项 梁</w>
陈 伯
通 常</w>
逃 窜</w>
赞 成</w>
记 述</w>
舒 翰</w>
瀛 州</w>
深 渊</w>
来 时</w>
战 于</w>
当 成</w>
府 城</w>
崔 胤</w>
山 水</w>
孝 敬</w>
奚 斤</w>
呼 叫</w>
告 谕</w>
吕 氏</w>
南 豫州</w>
劝 勉</w>
修 好</w>
侯 王</w>
人 臣</w>
下 车</w>
一 十</w>
高 耸</w>
辅 臣</w>
解 开</w>
羞 辱</w>
秦 穆公</w>
皇 天</w>
汾 州</w>
服 丧期</w>
往 返</w>
就 此</w>
小 时候</w>
奔 跑</w>
大 兴</w>
大 丈夫</w>
前 方</w>
刑 部
决 堤</w>
做 过</w>
会 集</w>
亲 族</w>
交 易</w>
乐 舞</w>
不 称职</w>
三十 六</w>
高 车</w>
骨 头</w>
领 着</w>
退 去</w>
王 叔
比 喻</w>
无 比</w>
征 集</w>
建 昌</w>
定 陶</w>
孝 宽</w>
大 宛</w>
善 行</w>
列 阵</w>
分 配</w>
齐 景公</w>
齐 国人</w>
顾 忌</w>
阿 鲁
重 兵</w>
郑 注</w>
辗 转</w>
要 死</w>
第 三
琉 球</w>
歼 灭</w>
杨 嗣
提 高</w>
并 用</w>
并 入</w>
左 传</w>
富 人</w>
官 民</w>
奸 人</w>
塞 外</w>
埋 怨</w>
国 派</w>
县 长</w>
县 官</w>
十 余</w>
出 京
业 绩</w>
一 遍</w>
一 斗</w>
长 远</w>
迁 升</w>
英 雄</w>
突 围</w>
用 水</w>
武 子</w>
暗 地</w>
斟 酒</w>
待 人</w>
后 稷</w>
受 贿</w>
半 年</w>
匡 正</w>
前 殿</w>
内 乱</w>
两 路</w>
骆 驼</w>
频 频</w>
都 司</w>
途 径</w>
简 子</w>
田 令
江 边</w>
李 罕</w>
李 师道</w>
朱 元
有 用</w>
曹 参</w>
恐 慌</w>
废 止</w>
嫡 子</w>
妻 儿</w>
境 地</w>
堡 垒</w>
后 患</w>
刘 黑闼</w>
军 法</w>
丢 下</w>
不 尽</w>
上 策</w>
七十 岁</w>
连 绵</w>
败 仗</w>
记 得</w>
私 心</w>
盔 甲</w>
疲 倦</w>
王 师</w>
爵 禄</w>
洛 州</w>
汉 阳</w>
残 余</w>
召 唤</w>
勇 气</w>
决 策</w>
俊 臣</w>
零 陵</w>
隔 绝</w>
轻 慢</w>
若 干</w>
至 正</w>
细 小</w>
签 书</w>
石 显</w>
画 像</w>
生 成</w>
朱 兆</w>
月 食</w>
张 文
差 异</w>
小 臣</w>
小 小
家 住</w>
官 衔</w>
威 信</w>
哪 儿</w>
和 平</w>
吝 惜</w>
叫 声</w>
加 冠</w>
关 东</w>
伏 法</w>
么 样</w>
东 路</w>
饭 食</w>
青 龙</w>
肃 宗
耸 立</w>
缴 纳</w>
神 武帝</w>
皇 太
游 乐</w>
河 间
没 法</w>
沐 浴</w>
案 子</w>
扼 守</w>
叶 子</w>
友 爱</w>
刑部 侍郎</w>
偿 还</w>
五 原</w>
五 分</w>
二十 九年</w>
不 相同</w>
财 宝</w>
西 阶</w>
衣 冠</w>
篡 夺</w>
科 举</w>
私 下里</w>
温 暖</w>
河间 王</w>
毒 药</w>
时 有</w>
敦 厚</w>
操 练</w>
推 让</w>
广 阔</w>
宣 子</w>
孙 坚</w>
大 批</w>
地 道</w>
困 乏</w>
乐 工</w>
一 职</w>
魏 帝</w>
阿 谀
镇 北</w>
酒 食</w>
身 亡</w>
说 服</w>
立 于</w>
登 山</w>
王彦 章</w>
李 景
末 日</w>
星 色</w>
撤 回</w>
援 引</w>
捷 报</w>
张 全义</w>
幽 深</w>
工 具</w>
宏 大</w>
妻 妾</w>
处 决</w>
代 行</w>
二 寸</w>
之 机</w>
不 孝</w>
不 失</w>
马 超</w>
颁 下</w>
赵 高</w>
计 较</w>
维 翰</w>
相 约</w>
率 先</w>
沉 默</w>
时 事</w>
收 捕</w>
挟 持</w>
拉 着</w>
恒 州</w>
平 南</w>
宋 文帝</w>
宋 州</w>
奉 迎</w>
大 历</w>
呼 应</w>
十分 之一</w>
三 丈</w>
追 问</w>
讲 学</w>
老太 太</w>
牙 齿</w>
来 临</w>
暗 示</w>
急 躁</w>
忌 惮</w>
徽 宗</w>
崔 慧
威 力</w>
分 支</w>
俭 朴</w>
什 么样</w>
五 州</w>
之 策</w>
颜 回</w>
记 住</w>
苍 梧</w>
自 得</w>
职 权</w>
空 缺</w>
渠 蒙逊</w>
河 朔</w>
枉 法</w>
昏 庸</w>
文 昌</w>
开 拓</w>
平 县</w>
嵩 山</w>
小小 的</w>
天 顺</w>
君 位</w>
卢 循</w>
免 罪</w>
做 人</w>
从 命令</w>
人 头</w>
亳 州</w>
高 雅</w>
阴 县</w>
逃 入</w>
适 应</w>
老 翁</w>
淮 阴</w>
润 州</w>
江 流</w>
残 杀</w>
来 俊臣</w>
方 士</w>
文 献</w>
摧 毁</w>
张 衡</w>
建 兴</w>
宋 兵</w>
佥 都御史</w>
中 流</w>
上 京</w>
馆 舍</w>
静 帝</w>
陶 侃</w>
闲 居</w>
金 帛</w>
重 重</w>
里 边</w>
遗 漏</w>
行 列</w>
福 王</w>
王 为</w>
江 浙</w>
武 卫</w>
文 官</w>
救 兵</w>
成 公</w>
恰 巧</w>
布政 使</w>
完 后</w>
太常 寺</w>
充 国</w>
修 改</w>
体 现</w>
之 风</w>
临 江</w>
顺 服</w>
聚 敛</w>
石 峰</w>
看 出</w>
状 态</w>
濮 阳</w>
混 杂</w>
深 深
樊 哙</w>
李 承
昌 县</w>
时 政</w>
敌 阵</w>
广 德</w>
官 拜</w>
宗 派</w>
子 孙
嘱 咐</w>
出 谋
侵 害</w>
仁 厚</w>
主 动</w>
陆 贽</w>
轻 骑</w>
贫 寒</w>
规 格</w>
美 酒</w>
王 母</w>
李嗣 昭</w>
快 速</w>
必 将</w>
很 小</w>
往北 走</w>
庙 里</w>
左 卫</w>
宣 告</w>
安 于</w>
孤 独</w>
大 会</w>
堤 防</w>
割 让</w>
几 万</w>
光 州</w>
修 复</w>
伍 子胥</w>
二十 七年</w>
东 王</w>
上 级</w>
万 俟</w>
难 得</w>
被 害</w>
细 微</w>
燕 京</w>
泥 土</w>
池 塘</w>
朱元 璋</w>
时 时</w>
文 告</w>
心 想</w>
心 宿</w>
府 尹</w>
失 火</w>
变 更</w>
发 扬</w>
十余 万</w>
动 身</w>
动 用</w>
务 农</w>
兰 陵</w>
伯 玉</w>
伯 夷</w>
交 游</w>
亚 夫</w>
二百 里</w>
七 品</w>
黑 夜</w>
静 闻</w>
陈 叔
避 难</w>
通 知</w>
这 块</w>
边 上</w>
联 络</w>
绸 缎</w>
盛 产</w>
王 孙</w>
深 刻</w>
淮 东</w>
沉 重</w>
无 穷</w>
搜 刮</w>
抢 夺</w>
抚 司</w>
应 允</w>
家 财</w>
大 力</w>
多 病</w>
处 境</w>
命 人</w>
名 誉</w>
司 户</w>
取 名</w>
华 夏</w>
光 彩</w>
僧 孺</w>
价 钱</w>
下 流</w>
三百 里</w>
黄 州</w>
饯 行</w>
霸 业</w>
郭 威</w>
跟 前</w>
资 格</w>
荆 棘</w>
统一 天下</w>
短 处</w>
毫 无
杨 勇</w>
太史 公</w>
大 圣</w>
地 带</w>
十多 岁</w>
功 夫</w>
其 数</w>
修 行</w>
伪 造</w>
乌 鸦</w>
预 料</w>
附 和</w>
阵 亡</w>
论 说</w>
答 拜</w>
石 块</w>
煽 动</w>
灭 绝</w>
桑 维翰</w>
术 士</w>
忠 良</w>
微 小</w>
征 税</w>
年轻 人</w>
山 洞</w>
娱 乐</w>
土 木</w>
受 灾</w>
军 心</w>
关 进</w>
停 下</w>
借 助</w>
修 身</w>
以礼 相待</w>
送 葬</w>
赵 州</w>
警 卫</w>
萧 宝
王 宫</w>
渔 阳</w>
比 照</w>
昭 仪</w>
拜 授</w>
拘 禁</w>
把 握</w>
扶 持</w>
很 长</w>
州 长</w>
就 会</w>
安 世</w>
宁 可</w>
受 封</w>
卯 日</w>
包 括</w>
交 好</w>
主 宰</w>
临 海</w>
东 汉</w>
阴 星</w>
辽 阳</w>
贩 济</w>
诗 文</w>
论 是</w>
讲 求</w>
要 塞</w>
脚 下</w>
而 用</w>
经 学</w>
王 凤</w>
海 州</w>
李 存</w>
显 露</w>
支 使</w>
怀 着</w>
底 下</w>
大 溪</w>
器 皿</w>
十二 个</w>
判 罪</w>
刘 文
出 力</w>
军 需</w>
两 侧</w>
一 惊</w>
魏 元忠</w>
领 土</w>
起 立</w>
说得 对</w>
该 地</w>
衰 老</w>
行 李</w>
虚 弱</w>
胸 怀</w>
王 行</w>
流 下</w>
死 人</w>
武 官</w>
桂 萼</w>
文 华</w>
惠 公</w>
寇 贼</w>
夏 朝</w>
复 活</w>
处 士</w>
土 官</w>
吴 地</w>
取得 胜利</w>
升 起</w>
之 国</w>
两 样</w>
鲜 于</w>
魏 武帝</w>
陡 峭</w>
陈 王</w>
那 裹</w>
覆 没</w>
虽 说</w>
蒲 州</w>
直 径</w>
生 育</w>
淤 塞</w>
正 气</w>
数 百</w>
指 望</w>
房 中</w>
少 阴</w>
官 印</w>
宋 人</w>
头 领</w>
大 祸</w>
和 顺</w>
后 妃</w>
十多 个</w>
前 人</w>
初 期</w>
停 下来</w>
假 称</w>
借 鉴</w>
五 官</w>
乱 世</w>
为 止</w>
长 吏</w>
解 说</w>
见 方</w>
腰 带</w>
肉 酱</w>
目 标</w>
疆 域</w>
没 想到</w>
武 臣</w>
文 人</w>
数 日</w>
庄 帝</w>
夹 击</w>
太 阴星</w>
只 管</w>
信 奉</w>
佛 法</w>
京 官</w>
之 言</w>
三 分之一</w>
一 段</w>
一 封</w>
一 分</w>
面 色</w>
镇 东</w>
通 畅</w>
近 年
过 问</w>
赵汝 愚</w>
蔡 国</w>
自 保</w>
缺 点</w>
禅 师</w>
知 名</w>
目 前</w>
李 绅</w>
施 政</w>
敬 德</w>
所在 地</w>
张士 诚</w>
宽 广</w>
定 下</w>
大 鸿</w>
因 罪</w>
出 其不
克 制</w>
以 备</w>
驻 兵</w>
青 光</w>
相 差</w>
相 公</w>
海 军</w>
母 子</w>
桓 公
按 察使</w>
慰 司</w>
怨 言</w>
张 承
引 兵</w>
巢 穴</w>
宣 慰司</w>
失 色</w>
土 产</w>
周 王</w>
君 长</w>
同 心</w>
各 项</w>
变 动</w>
加 入</w>
创 造</w>
凤 阳</w>
准 确</w>
修 成</w>
京 西</w>
二 王</w>
之 水</w>
之 恩</w>
不 像</w>
下 臣</w>
下 垂</w>
一 体</w>
随 军</w>
连 累</w>
调 度</w>
虚 名</w>
虚 伪</w>
草 拟</w>
窃 取</w>
牌 位</w>
清 白</w>
海 牙</w>
汾 水</w>
有 德</w>
打 退</w>
往 日</w>
并 未</w>
尉 迟</w>
嫔 妃</w>
头 目</w>
卫 所</w>
出 逃</w>
写 下</w>
不 易</w>
三千 多</w>
黎 明</w>
魏 郡</w>
酒 肉</w>
酒 席</w>
配 有</w>
衡 阳</w>
考 官</w>
精 心</w>
第 四</w>
窥 视</w>
牢 固</w>
洞 中</w>
村 子</w>
昭 明</w>
日 常</w>
无 用</w>
整 肃</w>
数以 万计</w>
摆 设</w>
打 雷</w>
恩 典</w>
必 要</w>
开 启</w>
广 阳</w>
小 心
完 整</w>
大 江</w>
咽 喉</w>
咸 宁</w>
后 土</w>
吉 甫</w>
制 胜</w>
光 亮</w>
便 于</w>
世 道</w>
一 倍</w>
运 到</w>
贾 谊</w>
藩 国</w>
置 于</w>
桑 哥</w>
枯 竭</w>
李 彦
崔慧 景</w>
尸 骨</w>
官 任</w>
安 稳</w>
天 色</w>
大 大</w>
和 议</w>
参 拜</w>
卓 著</w>
刘 聪</w>
优 劣</w>
乌 孙</w>
之 手</w>
之 南</w>
主 管
万 国</w>
魏 明帝</w>
马 步军</w>
预 兆</w>
长 矛</w>
警 惕</w>
范 仲
自 尽</w>
白 水</w>
理 论</w>
王 业</w>
清 理</w>
活 人</w>
机 敏</w>
更 好</w>
敕 书</w>
收 兵</w>
天 地
厕 所</w>
厉 王</w>
勤 于</w>
公 爵</w>
光禄 勋</w>
侵 夺</w>
顾 及</w>
胡 乱</w>
端 庄</w>
盱 眙</w>
殷仲 堪</w>
本 领</w>
时 势</w>
文 殿</w>
撤 军</w>
恶 人</w>
很 久
张 璁</w>
幽 王</w>
居 易</w>
寄 居</w>
善 战</w>
即 可</w>
南 蛮</w>
劳 动</w>
刘 琨</w>
出 师</w>
几 位</w>
公 私</w>
信 州</w>
书 记</w>
下 坠</w>
一 连</w>
一 辆</w>
驰 马</w>
马 军</w>
饭 菜</w>
金 玉</w>
金 属</w>
绿 色</w>
病 变</w>
疑 问</w>
用 度</w>
深 受</w>
果 说</w>
李 逢
晏 子</w>
振 武</w>
带 到</w>
如 果说</w>
君 集</w>
厚 礼</w>
十多 人</w>
列 传</w>
出其不 意</w>
其 罪</w>
其 时</w>
其 所</w>
元 叉</w>
儒 士</w>
人 类</w>
之 用</w>
不 便</w>
韩 建</w>
隐 蔽</w>
门 生</w>
邓 禹</w>
进 食</w>
诗 歌</w>
西 岸</w>
罢 职</w>
稳 固</w>
磕 头</w>
相 交</w>
用 不着</w>
珍 奇</w>
数 月</w>
招 引</w>
愚 笨</w>
德 州</w>
应 天</w>
害 死</w>
宫 城</w>
安 丰</w>
大 治</w>
唐 文宗</w>
和 解</w>
后 燕</w>
千 秋</w>
前 走</w>
划 策</w>
允 从</w>
儿 童</w>
人 去</w>
之 弟</w>
之 师</w>
主 妇</w>
专 一</w>
陈 奏</w>
阳 明
重 复</w>
通 往</w>
认 罪</w>
西 阳</w>
补 阙</w>
自 此</w>
秦 宗
相 符</w>
王 廷</w>
王 仲
泰 州</w>
构 成</w>
散 布</w>
招 纳</w>
帷 帐</w>
崔 氏</w>
安 王</w>
太 多</w>
四 位</w>
周 密</w>
友 善</w>
原 野</w>
十 几个</w>
入 朝
佛 经</w>
三 座</w>
追 查</w>
藏 匿</w>
葛 从</w>
萧 纶</w>
范仲 淹</w>
苦 苦</w>
种 子</w>
畅 通</w>
点 燃</w>
檀 道济</w>
李逢 吉</w>
望 之</w>
提 倡</w>
崩 溃</w>
奇 兵</w>
大逆 不道</w>
名 气</w>
只 用</w>
又 行</w>
刘义 恭</w>
其 位</w>
优 美</w>
不 理</w>
不 乐</w>
一 味</w>
陈 氏</w>
锦 衣</w>
连 连</w>
车 师</w>
讲 话</w>
观 点</w>
茅 草</w>
欢 心</w>
李 思
日 后</w>
摩 诃</w>
所 杀</w>
成 德</w>
想 得到</w>
常 理</w>
左 侍郎</w>
安 然</w>
坚 硬</w>
圆 形</w>
四 尺</w>
发 生
势 必</w>
几 里</w>
关 隘</w>
假 借</w>
之 义</w>
不 肖</w>
下 棋</w>
饮 宴</w>
飞 翔</w>
风 范</w>
顺 天</w>
鞭 子</w>
鞋 子</w>
遍 及</w>
赵 鼎</w>
西 路</w>
编 成</w>
神 情</w>
游 历</w>
活 命</w>
次 日</w>
月 氏</w>
易 传</w>
早 先</w>
提 督</w>
报 应</w>
承 天</w>
想 念</w>
急 切</w>
忠 信</w>
建 威</w>
左 长史</w>
少 监</w>
宋 代</w>
外 人</w>
地 处</w>
国 军</w>
国 主
哭 声</w>
史 记</w>
出谋 划策</w>
修 道</w>
佩 戴</w>
以 礼</w>
仇 恨</w>
中 散</w>
不 进</w>
上 行</w>
七 人</w>
高 季
重 赏</w>
遇 害</w>
谣 言</w>
西 南
褚 渊</w>
荒 芜</w>
统 兵</w>
穆 王</w>
汪 直</w>
朝 南</w>
常 少卿</w>
左 卫
完 善</w>
处 处</w>
十 倍</w>
刘 豫</w>
关 心</w>
允 文</w>
做 饭</w>
依 托</w>
之 学</w>
严 酷</w>
不 以</w>
一 石</w>
鼓 声</w>
陈友 谅</w>
迷 失</w>
进 奉</w>
这 项</w>
这 人</w>
货 币</w>
谷 水</w>
缅 甸</w>
组 织</w>
纠 察</w>
简 单</w>
相 互
王 爵</w>
河 口</w>
河 中
汉 时</w>
水 池</w>
杨 骏</w>
有 理</w>
放 在
手 臂</w>
弘 正</w>
尽 心
室 内</w>
姻 亲</w>
商 纣</w>
合 葬</w>
发 丧</w>
卜 筮</w>
元 景</w>
侍 女</w>
一 层</w>
训 导</w>
种 种</w>
王 高
水 草</w>
正 逢</w>
果 敢</w>
晋 见</w>
方 术</w>
打 发</w>
戴 着</w>
慷 慨</w>
志 气</w>
张彦 泽</w>
局 势</w>
太平 公主</w>
夏 禹</w>
四 面
和 士开</w>
卢 杞</w>
制 书</w>
假 节</w>
修 理</w>
作 揖</w>
从 军</w>
二千 户</w>
世 家</w>
一 间</w>
雷 电</w>
迟 缓</w>
补 任</w>
萧 望之</w>
良 好</w>
纳 贡</w>
王玄 谟</w>
深深 地</w>
梁 元帝</w>
李宗 闵</w>
时 任</w>
战 阵</w>
怀 孕</w>
开封 府</w>
幼 时</w>
巡 逻</w>
密 切</w>
守 孝</w>
女 孩</w>
太 远</w>
嘲 笑</w>
呼 吸</w>
例 子</w>
高 高</w>
重 病</w>
醒 过来</w>
这 首</w>
西 安</w>
背 靠</w>
肆 意</w>
老 弱</w>
终 日</w>
直 达</w>
监 国</w>
由此 看来</w>
王 猛</w>
洪 州</w>
曹 州</w>
文 馆</w>
故 旧</w>
平原 君</w>
山 里</w>
导 引</w>
害 人</w>
婆 婆</w>
周 瑜</w>
听 命</w>
县 丞</w>
原 谅</w>
动 手</w>
剖 开</w>
利 州</w>
元 稹</w>
传 递</w>
高丽 国</w>
韩 王</w>
道 人</w>
贯 通</w>
请 托</w>
自 首</w>
脱 身</w>
第 一个</w>
王 旦</w>
武 装</w>
来 朝</w>
李 自成</w>
数 字</w>
指 向</w>
感 受</w>
影 子</w>
当 做</w>
当 代</w>
山 势</w>
尧 舜</w>
封 王</w>
守 法</w>
妄 动</w>
国 宝</w>
唐 懿宗</w>
卫 州</w>
十 五里</w>
化 为</w>
刘 晏</w>
保 守</w>
作 威
余 数</w>
他 任</w>
仇 池</w>
中 伤</w>
一 品</w>
饲 养</w>
阻 拦</w>
阎 王</w>
重 威</w>
送 还</w>
起 居
谋 害</w>
说 起</w>
皇 甫
白 起</w>
狭 小</w>
物 产</w>
灾 荒</w>
李 膺</w>
拿 给</w>
形 式</w>
外 部</w>
声 响</w>
善 终</w>
各 一人</w>
匮 乏</w>
北 庭</w>
兼 程</w>
免 于
借 给</w>
低 头</w>
不 错</w>
上 升</w>
三 路</w>
颖 川</w>
霍 去
霍去 病</w>
阴 山</w>
门 内</w>
退 职</w>
贡 物</w>
落 下</w>
腹 中</w>
背 诵</w>
耗 尽</w>
美 玉</w>
立 太子</w>
番 话</w>
流 而
泾 原</w>
沿 途</w>
武 艺</w>
拔 出</w>
怜 惜</w>
强 悍</w>
弃 城</w>
寡 妇</w>
天下 大乱</w>
大 火</w>
复 兴</w>
命 妇</w>
含 义</w>
临 近</w>
临 洮</w>
不 杀</w>
下 方</w>
陷 阵</w>
限 度</w>
郎 君</w>
道 家</w>
这 句</w>
裂 开</w>
蜡 烛</w>
税 收</w>
直 言
深 沉</w>
涌 出</w>
济 州</w>
武 成</w>
枝 叶</w>
李 从
持 久</w>
悔 恨</w>
恭 顺</w>
怕 死</w>
忠 于</w>
微 弱</w>
征 南
安 民</w>
季 孙</w>
太 微垣</w>
原 文</w>
刘 安</w>
其 事</w>
八十 岁</w>
偏 将</w>
代 为</w>
亲 友</w>
不 息</w>
防 范</w>
镇 压</w>
起 先</w>
诸 子</w>
荀 勖</w>
田 承嗣</w>
松 树</w>
无 私</w>
新 近</w>
敬 奉</w>
征 服</w>
弹 奏</w>
庙 宇</w>
家 臣</w>
头 戴</w>
大 加</w>
地 图</w>
四 散</w>
卢 龙</w>
勤 奋</w>
凶 险</w>
凭 证</w>
决 不</w>
仰 望</w>
为 的是</w>
三 老</w>
颗 星</w>
陈 蕃</w>
赞 誉</w>
资 政</w>
表 演</w>
虚 假</w>
蓟 州</w>
落 入</w>
荒 谬</w>
职 衔</w>
经 义</w>
留 心</w>
有 害</w>
施 加</w>
推 重</w>
捕 鱼</w>
征 东</w>
已 到</w>
始 祖</w>
图 书</w>
别 国</w>
几十 万</w>
公 元</w>
使 司</w>
何 进</w>
亲 眼
交 付给</w>
临 淮</w>
丰 盛</w>
运 动</w>
讯 问</w>
虞 允文</w>
等 物</w>
积 水</w>
租 赋</w>
流 血</w>
求 情</w>
楼 阁</w>
推 测</w>
往 西
廷 弼</w>
左 侧</w>
委 屈</w>
多 半</w>
士 奇</w>
国 外</w>
周 成王</w>
吴 越</w>
农 时</w>
元 兵</w>
交 通</w>
二十 八</w>
乐 意</w>
两 京</w>
世 界</w>
不 计
一万 余</w>
顺 行</w>
阳 光</w>
邢 峦</w>
遭 逢</w>
解 脱</w>
自 负</w>
继 而</w>
穴 位</w>
石 阶</w>
石 柱</w>
着 泪</w>
白 虎</w>
痛 惜</w>
生 息</w>
消 耗</w>
沿 海</w>
永 久</w>
水 道</w>
梁 山</w>
曾 祖</w>
智 伯</w>
文 升</w>
敲 击</w>
拜 为</w>
强 敌</w>
应 龙</w>
宣 抚</w>
安西 将军</w>
大 殿</w>
大 吃
处 死刑</w>
四 海
召 募</w>
口 袋</w>
受 宠</w>
原 位</w>
前 后
六 军</w>
公 务</w>
元 济</w>
偏 僻</w>
作 福</w>
仪 容</w>
上 官
遇 事</w>
路 途</w>
许 诺</w>
解 散</w>
要 领</w>
自 幼</w>
耽 误</w>
结 党</w>
组 成</w>
益 都</w>
犯 有</w>
此 城</w>
次 年</w>
桂 州</w>
树 下</w>
望 去</w>
斟 酌</w>
接 受
承 继</w>
怒 气</w>
征南 将军</w>
射 杀</w>
寻 访</w>
天 区</w>
兵 变</w>
任 城</w>
骑 常</w>
遮 掩</w>
逗 留</w>
贺若 弼</w>
请 假</w>
虞 世
节 约</w>
胡 太后</w>
织 品</w>
科 举
王 钦
猛 兽</w>
瀑 布</w>
激 怒</w>
流 着泪</w>
杜 重威</w>
李 陵</w>
未 来</w>
有 道</w>
往 年</w>
宽 宥</w>
孤 立</w>
威 王</w>
商 讨</w>
吴 王
吩 咐</w>
同 伙</w>
华 美</w>
动 作</w>
分 布</w>
一 点
齐 人</w>
高 声</w>
顾 仆</w>
除 以</w>
长 于</w>
过 河</w>
行 刑</w>
行 使</w>
职 业</w>
神 奇</w>
礼 拜</w>
白 白
甲 士</w>
火 光</w>
法 司</w>
沛 县</w>
死 战</w>
樊 城</w>
权 威</w>
改 葬</w>
把 持</w>
悼 公</w>
徐 知</w>
延 长</w>
延 绥</w>
干 燥</w>
干 涸</w>
巨 石</w>
尽 快</w>
孝 悌</w>
喧 哗</w>
名 将</w>
合 谋</w>
变 异</w>
军事 行动</w>
之 民</w>
三 万
骚 动</w>
驾 于</w>
饶 州</w>
轻 薄</w>
软 弱</w>
装 备</w>
而 生</w>
绍 宗</w>
禀 奏</w>
白 居易</w>
痛 心</w>
牛 僧孺</w>
洗 马</w>
武 宗
楚 庄王</w>
标 志</w>
朱 友</w>
施 以</w>
摇 动</w>
恩 赐</w>
张 九
帐 幕</w>
外 界</w>
占 城</w>
养 蚕</w>
兴 旺</w>
元 旦</w>
侵 袭</w>
依 附于</w>
上 万</w>
骑 射</w>
骑 士</w>
顶 上</w>
陵 园</w>
远 望</w>
赵 充国</w>
讲 授</w>
萧 遥
良 臣</w>
统 计</w>
绘 画</w>
纵 然</w>
祝 寿</w>
用 具</w>
炎 热</w>
晋 侯</w>
易 州</w>
撤 兵</w>
扬 雄</w>
怯 懦</w>
怎能 不</w>
幸 福</w>
声 色</w>
堤 坝</w>
各 不相同</w>
司马 迁</w>
厥 阴</w>
区 域</w>
六 部</w>
你 家</w>
估 量</w>
之 主</w>
两 处</w>
上 山</w>
马 鞍</w>
迹 象</w>
述 说</w>
迫 使</w>
贵 戚</w>
自 如</w>
脱 离</w>
监 视</w>
皇 城</w>
珠 宝</w>
李 训</w>
朴 素</w>
成 皋</w>
张敬 儿</w>
安 东</w>
宇 宙</w>
学 术</w>
大 宗</w>
壁 垒</w>
吴 元济</w>
凶 狠</w>
元 气</w>
僖 公</w>
享 乐</w>
之 多</w>
为 首</w>
不可胜 数</w>
上 古</w>
魏 人</w>
驰 骋</w>
飞 来</w>
隋 军</w>
阵 地</w>
野 心</w>
追 杀</w>
远 地区</w>
责 难</w>
谦 逊</w>
窘 迫</w>
神 策</w>
白 白</w>
用 作</w>
甚 为</w>
江 河</w>
李 成</w>
有 的是</w>
暴 雨</w>
推 进</w>
打 下</w>
定 居</w>
夷 人</w>
太 建</w>
天 府</w>
多 次
台 州</w>
可 取</w>
反 过来</w>
历 数</w>
南 院</w>
借 着</w>
丝 绸</w>
不 测</w>
下 降</w>
选 举</w>
踪 迹</w>
苏 逢</w>
缘 无故</w>
礼 品</w>
真 情</w>
相 位</w>
痕 迹</w>
海 边</w>
殿 前</w>
此 山</w>
模 仿</w>
杨 谅</w>
曾 任</w>
无 缘无故</w>
新 野</w>
徐 阶</w>
张 巡</w>
张 孝
并 进</w>
平 日</w>
女 郎</w>
大 船</w>
六十 里</w>
公 侯</w>
他 俩</w>
二十 七</w>
乘 胜
两 拜</w>
不同 于</w>
上 告</w>
三 家</w>
万 代</w>
鲁 番</w>
韦 孝宽</w>
责 力</w>
街 上</w>
秦宗 权</w>
独 立</w>
灾 变</w>
殷 商</w>
正 如</w>
木 板</w>
晋 陵</w>
时 日</w>
日 夜
探 视</w>
拆 毁</w>
恭 帝</w>
征 用</w>
密 封</w>
四 条</w>
哲 宗</w>
周 迪</w>
司马 颖</w>
原 州</w>
十 万人</w>
刑 具</w>
冯 异</w>
关 西</w>
作威 作福</w>
仪 礼</w>
二 品</w>
不计 其数</w>
一百 二十</w>
进 爵</w>
赐 姓</w>
详 尽</w>
莲 花</w>
绕 过</w>
简 公</w>
第 一次</w>
立 志</w>
穆 之</w>
珠 玉</w>
爱 戴</w>
气 度</w>
比 作</w>
殿 学士</w>
查 看</w>
极 大</w>
昭 示</w>
明 殿学士</w>
很 深</w>
张 易
平 帝</w>
娘 子</w>
威 风</w>
处 理
困 境</w>
嘉 定</w>
厉 公</w>
刚 好</w>
刘 基</w>
分 裂</w>
六 尺</w>
全 胜</w>
修 炼</w>
传 言</w>
义 士</w>
世 杰</w>
丁 谓</w>
一 动</w>
高 洋</w>
门 第</w>
身 处</w>
荆 轲</w>
胆 敢</w>
经 商</w>
繁 杂</w>
窥 伺</w>
皇 孙</w>
甘 州</w>
琵 琶</w>
深 州</w>
正 始</w>
桥 下</w>
李 仁
时 说</w>
无 益</w>
播 州</w>
张易 之</w>
开 平</w>
应 变</w>
宝 应</w>
天 祥</w>
天 旱</w>
在 职</w>
取 道</w>
别 处</w>
其 一</w>
侍 讲</w>
仿 佛</w>
云 雾</w>
中 使</w>
上 林
上 司</w>
魏 徵
马 车</w>
首 示众</w>
阻 挠</w>
越 级</w>
豪 华</w>
补 为</w>
萧 鸾</w>
营 州</w>
苏 峻</w>
苍 天</w>
良 弼</w>
美 味</w>
神 龙</w>
玉 带</w>
淮 北</w>
流 来</w>
注 释</w>
永 州</w>
明 月</w>
时 辰</w>
时 行</w>
无 路</w>
搁 置</w>
提 到</w>
掩 埋</w>
接 触</w>
挫 败</w>
成 效</w>
当 夜</w>
张 耳</w>
平 缓</w>
布 满</w>
家 业</w>
定 襄</w>
定 国</w>
奇 才</w>
多 达</w>
在 心</w>
司 寇</w>
卫 气</w>
北 汉</w>
刚 毅</w>
冯 翊</w>
三 面</w>
一 场</w>
驾 御</w>
陈伯 之</w>
长 生</w>
金 刚</w>
起居 注</w>
西 周</w>
衣 物</w>
萧子 良</w>
羲 之</w>
秦 地</w>
王 羲之</w>
王 处</w>
犒 赏</w>
殆 尽</w>
正 巧</w>
株 连</w>
李 晟
明 达</w>
斥 退</w>
效 命</w>
我 会</w>
形 貌</w>
强 弱</w>
将 官</w>
士 良</w>
唯 恐</w>
呼 唤</w>
呵 斥</w>
周 文育</w>
压 制</w>
分 界</w>
充 军</w>
作 者</w>
任 期</w>
之 德</w>
之 家</w>
上 堂</w>
高 邮</w>
骄 纵</w>
颜 渊</w>
资 历</w>
诸 生</w>
视 为</w>
罢 兵</w>
科举 考试</w>
真 君</w>
留 任</w>
王钦 若</w>
激 烈</w>
本 分</w>
有 没有</w>
敌 情</w>
收 纳</w>
恣 意</w>
当 兵</w>
开 来</w>
年 代</w>
巧 妙</w>
小 儿</w>
安 北</w>
妒 忌</w>
奉 事</w>
天 赐</w>
大 意</w>
处 分</w>
国 主</w>
唐 武宗</w>
周 天子</w>
同 事</w>
南 斗</w>
倒 塌</w>
仕 途</w>
亲 率</w>
乡 侯</w>
鸣 叫</w>
韩 胄</w>
长 着</w>
金 州</w>
金 吾</w>
近 郊</w>
谷 子</w>
西 戎</w>
相 配</w>
疆 界</w>
王 庭</w>
猛 烈</w>
濮 州</w>
漳 水</w>
沈 文
李德 林</w>
景 宗</w>
昏 乱</w>
新 任</w>
拥 兵</w>
巳 日</w>
岐 伯</w>
好 友</w>
太 武帝</w>
大 罪</w>
大 半</w>
壕 沟</w>
咸 通</w>
司 天</w>
创 业</w>
冲 锋
冠 礼</w>
写 诗</w>
乱 兵</w>
东 岸</w>
东 南方</w>
鬼 怪</w>
阿 谀</w>
阿 合
闸 门</w>
血 气</w>
答 谢</w>
礼 貌</w>
相 望</w>
白 衣</w>
王 命</w>
灵 运</w>
深 重</w>
歌 谣</w>
松 懈</w>
朝 会</w>
无 从</w>
旅 店</w>
支 撑</w>
布 阵</w>
山 神</w>
完 美</w>
奉 上</w>
奈 何</w>
大 族</w>
困 顿</w>
后 任</w>
史 弘
叔 叔</w>
十 六岁</w>
劳 作</w>
刚 到</w>
刘义 隆</w>
减 省</w>
兼 有</w>
光 宗</w>
亲 兵</w>
交 相</w>
二十 六</w>
乡 试</w>
不 解</w>
三千 户</w>
饥 寒</w>
预 言</w>
陈 胜</w>
金 银
请 来</w>
西 进</w>
表 奏</w>
羊 侃</w>
素 服</w>
直 入</w>
瘦 弱</w>
物 价</w>
气 味</w>
柳 元景</w>
查 问</w>
李 生</w>
李 吉甫</w>
拜 官</w>
承 宗</w>
战 舰</w>
征 南</w>
幽 禁</w>
孙 儒</w>
嫡 长子</w>
天 福</w>
外 族</w>
兄 弟
从 这
人 世间</w>
为 难</w>
临 清</w>
中 心</w>
东 西
一 封信</w>
铜 钱</w>
赵 延寿</w>
贩 卖</w>
财 用</w>
诏 告</w>
诈 称</w>
营 私</w>
王承 宗</w>
王 公
湖 水</w>
河 边</w>
普通 人</w>
新 兴</w>
掩 饰</w>
打 扮</w>
快 步</w>
徒 步</w>
彰 明</w>
师 范</w>
展 示</w>
寒 暑</w>
孝 明帝</w>
孔 光</w>
好 似</w>
地 界</w>
名 位</w>
司马 越</w>
司马 昭</w>
叔 向</w>
南 王</w>
南 城</w>
北 宫</w>
其 职</w>
任 吏部</w>
仆 散</w>
一 国</w>
香 气</w>
顿 时</w>
阿合 马</w>
金 石</w>
过 程</w>
跋 扈</w>
赵 军</w>
谘 议</w>
设 宴
翻 译</w>
纯 正</w>
痛 哭
王 李
武 周</w>
楼 上</w>
搏 斗</w>
引 见</w>
弓 弩</w>
岑 彭</w>
字 仲
墙 上</w>
史弘 肇</w>
史 朝
内 室</w>
六十 岁</w>
入 海</w>
人 死</w>
两 头</w>
顿 饭</w>
阻 碍</w>
鄙 视</w>
遂 良</w>
赡 养</w>
象 牙</w>
许 可</w>
蔚 州</w>
舅 父</w>
珍 惜</w>
潮 湿</w>
根 基</w>
柴 草</w>
曲 子</w>
无 可
当 政</w>
崔 暹</w>
奔 丧</w>
地 向</w>
困 窘</w>
四 起</w>
四 分</w>
向 着</w>
叔 业</w>
办 公</w>
几 百</w>
二 县</w>
隶 书</w>
锦 绣</w>
钱 塘</w>
道 子</w>
逆 行</w>
路 边</w>
赶 往</w>
观 测</w>
袁 尚</w>
舟 船</w>
田 猎</w>
环 境</w>
本 官</w>
敬 酒</w>
政 殿</w>
所 知</w>
愈 加</w>
弘 农
延 安</w>
岸 上</w>
居 家</w>
安 放</w>
安 抚司</w>
季 氏</w>
子 日</w>
奏 明</w>
大吃 一惊</w>
团 结</w>
向 往</w>
各 级</w>
只 怕</w>
十 三岁</w>
出 家</w>
内 府</w>
内 宫</w>
偏 偏</w>
信 中</w>
二十 多年</w>
乳 母</w>
不 语</w>
下 行</w>
一 顿</w>
一 块
黑 暗</w>
高 行</w>
马 步</w>
饥 馑</w>
论 罪</w>
规 则</w>
被 捕</w>
致 谢</w>
络 脉</w>
窦 太后</w>
用 之</w>
树 叶</w>
杯 酒</w>
曹 军</w>
无 法
披 甲</w>
岳 州</w>
宛 城</w>
大 腿</w>
嘉 禾</w>
唐 高祖</w>
吕 用之</w>
吉 士</w>
吉 兆</w>
县 公</w>
卧 室</w>
十 卷</w>
决 于</w>
冲 入</w>
傅 亮</w>
之 流</w>
之 世</w>
一 枚</w>
高 洁</w>
高 悬</w>
高 台</w>
高 力士</w>
金 山</w>
连 坐</w>
袁 谭</w>
第 三个</w>
秀 实</w>
着 手</w>
相 邻</w>
留 住</w>
王 重荣</w>
狄 人</w>
烽 火</w>
深 夜</w>
涧 水</w>
沟 通</w>
杨 炎</w>
杂 乱</w>
有 失</w>
有 大
星 象</w>
时 运</w>
日 影</w>
挡 住</w>
按 察
拟 定</w>
得 志</w>
寿 春
妃 嫔</w>
奋 勇</w>
处 所</w>
城 阳</w>
四 是</w>
商 朝</w>
台 谏</w>
可 谓</w>
只 会</w>
北 军</w>
刺 客</w>
养 活</w>
元 英</w>
余 年</w>
体 察</w>
两 名</w>
飞 鸟</w>
逐 步</w>
退 保</w>
路 程</w>
赵 德
贫 苦</w>
褒 扬</w>
胜 仗</w>
羡 之</w>
羊 祜</w>
维 护</w>
王 继
王 家</w>
溢 出</w>
泄 漏</w>
求 婚</w>
楼 船</w>
李 石</w>
旧 县</w>
推 究</w>
房 间</w>
悬 崖</w>
心 上</w>
得 胜</w>
徐 羡之</w>
当 世</w>
左 散</w>
对 手</w>
孝 文</w>
嫌 疑</w>
夺 去</w>
太 行
大 宁</w>
备 办</w>
城 河</w>
告 示</w>
右 侧</w>
升 平</w>
十多 里</w>
刻 薄</w>
刑 律</w>
六 万</w>
充 分</w>
停 息</w>
人 伦</w>
二百 户</w>
乘 势</w>
乐 平</w>
为 人
不 足
魏 征</w>
驿 马</w>
阿谀 奉承</w>
闭 门</w>
遍 布</w>
迫 近</w>
返 归</w>
输 送</w>
跳 舞</w>
财 利</w>
结 合</w>
登 州</w>
狱 吏</w>
物 体</w>
流 离</w>
显 扬</w>
按 察</w>
心 理</w>
律 光</w>
庞 勋</w>
山 县</w>
宫 里</w>
宜 都</w>
守 御</w>
太行 山</w>
处 斩</w>
右 司</w>
卖 掉</w>
十 七岁</w>
动 辄</w>
动 不动</w>
力 争</w>
临 淄</w>
与 否</w>
一百 万</w>
阴 险</w>
那 条</w>
违 逆</w>
身 死</w>
董 贤</w>
绝 不</w>
禾 苗</w>
狮 子</w>
焉 耆</w>
殴 打</w>
李 辅国</w>
李 崇</w>
李 从</w>
朱 天光</w>
曹 丕</w>
斩 首示众</w>
放 松</w>
婚 礼</w>
娶 妻</w>
太 清</w>
地 点</w>
吏 卒</w>
同 月</w>
史朝 义</w>
助 教</w>
刘 显</w>
凡 有</w>
军 国
冒 顿</w>
八 万</w>
位 次</w>
任 光禄</w>
义 兴</w>
不 战</w>
不 容</w>
三 处</w>
一千 余</w>
一 清</w>
骑 着</w>
陈 汤</w>
阐 明</w>
边 远地区</w>
转 告</w>
设 有</w>
舌 头</w>
自 恃</w>
老 婆</w>
练 兵</w>
第 一名</w>
移 居</w>
神 庙</w>
石 亨</w>
留 意</w>
男 女
淳 于
注 定</w>
河 桥</w>
池 州</w>
求 雨</w>
招 安</w>
志 宁</w>
形 态</w>
当 前</w>
张承 业</w>
开 道</w>
州 里</w>
射 击</w>
宠 臣</w>
太仆 卿</w>
因 事</w>
可 悲</w>
加 罪</w>
刘义 宣</w>
冲锋 陷阵</w>
俯 瞰</w>
亲 身</w>
亲 疏</w>
之 三</w>
两 州</w>
东 莱</w>
龙 图
长 官司</w>
重 庆</w>
进 号</w>
腐 烂</w>
老 朋友</w>
清 高</w>
沦 陷</w>
江 左</w>
永 和</w>
李 崧</w>
更 大</w>
日 月
张 温</w>
应 声</w>
广 为</w>
平 等</w>
已 久</w>
屯 守</w>
尉迟 敬德</w>
完 颜
妨 害</w>
夫 子</w>
周 亚夫</w>
呕 吐</w>
吴 人</w>
司农 卿</w>
召 为</w>
北 斗</w>
党 人</w>
伤 人</w>
任 约</w>
乐 队</w>
乌 孙
不 向</w>
下 级</w>
阻 击</w>
邻 近</w>
评 定</w>
蔡 确</w>
营 帐</w>
莫 不</w>
英 雄
聪 敏</w>
精 力</w>
筑 起</w>
田令 孜</w>
用 刑</w>
燕 子</w>
沿 边</w>
汇 集</w>
殷 朝</w>
武 城</w>
杨 广</w>
杨 光远</w>
李 建成</w>
本 部</w>
景 王</w>
折 合</w>
手 脚</w>
情 势</w>
录 取</w>
小心 谨慎</w>
小 时</w>
宣 公</w>
宋 王</w>
太 仓</w>
大 恩</w>
增 兵</w>
哪 裹</w>
吃 掉</w>
削 除</w>
写 出</w>
六 腑</w>
全 城</w>
俗 称</w>
以 供</w>
仗 恃</w>
人 心
五十 万</w>
之 北</w>
龙图 阁</w>
颛 顼</w>
颁 行</w>
隐 匿</w>
金吾 卫</w>
重 新
遇 春</w>
转 动</w>
赠 送给</w>
贵 国</w>
蔬 菜</w>
胀 满</w>
群 书</w>
绕 着</w>
等 等</w>
等 国</w>
禹 锡</w>
福 禄</w>
皇 弟</w>
白 石</w>
王 陵</w>
犯 了
没 过
没 到</w>
沟 渠</w>
沙 州</w>
李 严</w>
斗 宿</w>
恐 不安</w>
忠 言</w>
延 州</w>
并 不
干 扰</w>
巴 西</w>
山 北</w>
孝 公</w>
字 伯
四 匹</w>
嘴 里</w>
喜 怒</w>
名 臣</w>
变 化
取 用</w>
厚 重</w>
南 昌</w>
医 术</w>
军 主</w>
关 口</w>
仁 政</w>
事 官</w>
中 原
不得 志</w>
不 难</w>
下 发</w>
七十 二</w>
驿 车</w>
陪 同</w>
铸 钱</w>
进 门</w>
轻 微</w>
贾 逵</w>
谢 灵运</w>
话 语</w>
西 州</w>
融 洽</w>
蜀 中</w>
薛 安</w>
粟 米</w>
简 直</w>
第 六</w>
穷 人</w>
着 想</w>
申 时行</w>
用 力</w>
洁 净</w>
治 书</w>
朝 夕</w>
无 疑</w>
放 入</w>
收 缴</w>
搜 捕</w>
挖 开</w>
总 理</w>
得 意</w>
张 昌
引 进</w>
岁 月</w>
富 弼</w>
孔 融</w>
听 听</w>
吝 啬</w>
取 决于</w>
历 经</w>
卑 微</w>
勇 力</w>
制 订</w>
减 刑</w>
凌 犯</w>
八 里</w>
侯 安</w>
仓 促</w>
交 出</w>
二十 三</w>
之 法</w>
中原 地区</w>
不 祥</w>
高 氏</w>
陇 州</w>
通 告</w>
追 回</w>
西 南方</w>
英 布</w>
聚 合</w>
耕 牛</w>
窦 融</w>
盘 踞</w>
盘 绕</w>
百 姓
疏 勒</w>
王叔 文</w>
牢 狱</w>
然 如此</w>
涉 猎</w>
无 厌</w>
攻 战</w>
改 用</w>
授 与</w>
席 子</w>
州 县</w>
威 仪</w>
城 王</w>
国 境</w>
嗜 好</w>
呐 喊</w>
后 果</w>
台 城</w>
句 丽</w>
南 渡</w>
军国 大事</w>
共 计</w>
先 师</w>
主管 部门</w>
主 治</w>
不 法</w>
不 改</w>
马 头</w>
领 地</w>
顾 念</w>
陈 后主</w>
铭 文</w>
遵 奉</w>
道 德
逢 迎</w>
退 还</w>
辞 行</w>
车 盖</w>
西 北方</w>
衣 袖</w>
行 程</w>
胸 中</w>
童 谣</w>
灌 婴</w>
灌 夫</w>
海 陵王</w>
污 秽</w>
比 如</w>
樊 子</w>
李 固</w>
曾 祖父</w>
晋 人</w>
显 宗</w>
教 给</w>
按 兵
情 愿</w>
张 开</w>
平 均</w>
常 遇春</w>
岂 敢</w>
就 职</w>
小 民</w>
安 阳</w>
失 望</w>
增 添</w>
围 绕</w>
喊 道</w>
可 怕</w>
华 阳</w>
刘知 俊</w>
五 岳</w>
争 取</w>
之 理</w>
之 力</w>
两 省</w>
齐 地</w>
高 昌</w>
险 恶</w>
锐 气</w>
送 交</w>
辖 区</w>
身 着</w>
身 后</w>
谏 阻</w>
营 田</w>
营 救</w>
至 亲</w>
而 不
结 下</w>
精 于</w>
福 气</w>
祭 器</w>
王 戎</w>
沿 用</w>
未 央
未央 宫</w>
朝 恩</w>
日 渐</w>
改 授</w>
技 术</w>
所 向
延 陀</w>
平 陵</w>
寒 气</w>
大 通</w>
大 猷</w>
大 叫</w>
吉 日</w>
古 文</w>
口 粮</w>
发 汗</w>
反 贼</w>
刘仁 轨</w>
出 走</w>
借 贷</w>
信 赖</w>
供 职</w>
二十 卷</w>
乘胜 追击</w>
中 护军</w>
严 整</w>
丘 俭</w>
隆 起</w>
重 叠</w>
避 讳</w>
追 加</w>
赵 襄子</w>
赌 博</w>
赋 役</w>
质 问</w>
谢 绝</w>
诱 惑</w>
评 议</w>
覆 灭</w>
被 立</w>
衣 襟</w>
虞 卿</w>
胆 怯</w>
禁 忌</w>
百 家</w>
班 师
满 面</w>
滑 台</w>
深 得</w>
海 水</w>
求 学</w>
武 元
曹 国</w>
施 恩</w>
文 彦博</w>
按兵 不动</w>
愉 快</w>
惊 惧</w>
开 花</w>
开 口</w>
山 以东</w>
少 有</w>
害 处</w>
大 兵</w>
吏 民</w>
受 害</w>
制 约</w>
出京 任</w>
全 军
世 事</w>
上 部</w>
一万 五千</w>
马 邑</w>
钦 宗</w>
钟 繇</w>
罗 汉</w>
经 术</w>
竟 敢</w>
略 阳</w>
献 城</w>
流 传
止 息</w>
次 于</w>
李 匡
朝 后</w>
无 敌</w>
敌 贼</w>
据 说</w>
我 来</w>
弥 补</w>
张九 龄</w>
庶 民</w>
巡 游</w>
姑 娘</w>
奸 恶</w>
太 过分</w>
大 匠</w>
召 到</w>
卫 亲军</w>
华 阴</w>
仇 怨</w>
云 阳</w>
争 执</w>
中 部</w>
不 在
上 士</w>
难 当</w>
门 上</w>
长 辈</w>
重 重
遮 住</w>
这 方面</w>
责 令</w>
豪 门</w>
记 下</w>
蓝 田</w>
自 若</w>
自 新</w>
立 国</w>
百 余</w>
白白 地</w>
痛哭 流涕</w>
治 乱</w>
格 外</w>
极 尽</w>
权 臣</w>
木 华
木华 黎</w>
星 星</w>
播 种</w>
拐 杖</w>
成 群</w>
成 全</w>
徐 陵</w>
延 之</w>
山 间</w>
居 士</w>
尽 情</w>
审 定</w>
定 远</w>
完 工</w>
姚 崇</w>
夷 族</w>
堵 住</w>
周 军</w>
十二 岁</w>
刘 浚</w>
分 路</w>
六 国</w>
先 是</w>
令 狐
仆 射
二百 多</w>
中 官</w>
严 禁</w>
不 倦</w>
万 安</w>
遣 散</w>
送 上</w>
被 子</w>
行 善</w>
缰 绳</w>
立 碑</w>
立 在</w>
相 近</w>
盛 德</w>
申 辩</w>
燃 烧</w>
清 兵</w>
深 邃</w>
正 面</w>
杨 忠</w>
来 回</w>
无 度</w>
拒 守</w>
我 愿</w>
德 性</w>
彩 色</w>
彦 卿</w>
峰 顶</w>
屈 原</w>
宝 玉</w>
定 公</w>
孙 恩</w>
妖 怪</w>
大 师</w>
外 形</w>
处 世</w>
增 减</w>
基 本</w>
圣 主</w>
四 寸</w>
各 族</w>
司马 相如</w>
右 军</w>
刚 烈</w>
冯 翊
免 征</w>
传 统</w>
之 辈</w>
中 为</w>
丝 织品</w>
不 善</w>
一块 儿</w>
面 目</w>
雷 霆</w>
阿 术</w>
辰 星</w>
贡 举</w>
豆 卢
蛟 龙</w>
自 知</w>
空 闲</w>
看 不起</w>
病 逝</w>
留 给</w>
王 时</w>
王 允</w>
灾 民</w>
滁 州</w>
深 山</w>
林 园</w>
李存 孝</w>
李 绍
服 药</w>
昭 雪</w>
放 荡</w>
提 点</w>
推 广</w>
接 壤</w>
挨 饿</w>
招 揽</w>
情 景</w>
小 官</w>
宗 说</w>
姚 苌</w>
太史 令</w>
后 事</w>
台 山</w>
刻 石</w>
分 流</w>
克 宁</w>
元 显</w>
事 端</w>
丑 陋</w>
驻 地</w>
采 集</w>
醉 酒</w>
通 奸</w>
这 类</w>
轻 浮</w>
观 文殿</w>
西 到</w>
著 述</w>
自 大</w>
翻 过</w>
简 约</w>
秦 昭王</w>
礼 数</w>
田 亩</w>
犯了 罪</w>
烦 劳</w>
温 州</w>
清 正</w>
永 初</w>
本 书</w>
曹 仁</w>
曲 直</w>
暗 暗</w>
景 仁</w>
春 秋
接 济</w>
护 城河</w>
恨 在心</w>
怪 罪</w>
常 情</w>
属 官</w>
好 几个</w>
因 有</w>
商 州</w>
听 凭</w>
原 名</w>
印 章</w>
卑 下</w>
千 里
十 八岁</w>
制 命</w>
击 杀</w>
共 事</w>
体 仁</w>
伤 亡</w>
五 彩</w>
为 辅</w>
中书 郎</w>
中 京</w>
三 郡</w>
鲁 肃</w>
韩 非</w>
长 幼</w>
野 王</w>
速 度</w>
贬 职</w>
设 计</w>
议 郎</w>
行 装</w>
荣 誉</w>
艰 险</w>
耻 笑</w>
终 止</w>
立 业</w>
省 事</w>
相 争</w>
直 担</w>
洛 阳城</w>
杀 头</w>
技 巧</w>
我 用</w>
惊 扰</w>
师 铎</w>
岭 上</w>
对 面</w>
宣 称</w>
宁 国</w>
孙 女</w>
地 去</w>
嘱 托</w>
同心 协力</w>
博 陵</w>
南 到</w>
出 血</w>
农 具</w>
元 振</w>
二 者</w>
乐 师</w>
之 业</w>
东 周</w>
一百 里</w>
一 股</w>
齐 侯</w>
郑 译</w>
邦 彦</w>
讽 刺</w>
禁 锢</w>
礼 教</w>
相 称</w>
汴 梁</w>
欺 侮</w>
楚 灵王</w>
核 查</w>
新 建</w>
政 教</w>
惊 动</w>
忠 武</w>
廉 颇</w>
廉 访</w>
庆 元</w>
年 终</w>
平 卢</w>
差 遣</w>
察 院</w>
女 色</w>
天 德</w>
处 治</w>
土 司</w>
四海 之内</w>
厨 房</w>
刘 稹</w>
击 溃</w>
出 巡</w>
凯 旋</w>
公孙 渊</w>
传 位</w>
代 地</w>
主 父</w>
一 身</w>
一 大</w>
黎 民百姓</w>
高 下</w>
骚 乱</w>
降 落</w>
长 平</w>
道 教</w>
运 转</w>
身 体
议 论
秋 冬</w>
祭 庙</w>
祭 于</w>
皇 恩</w>
病 症</w>
沟 壑</w>
沉 溺
汝 水</w>
水 星</w>
楚 怀王</w>
柔 弱</w>
朴 实</w>
曹 植</w>
新 亭</w>
斩 获</w>
斗 志</w>
抱 怨</w>
成 灾</w>
悬 赏</w>
州 人</w>
岔 路</w>
山 阴</w>
山 路</w>
多 后</w>
四面 八方</w>
名 山</w>
发 髻</w>
友 德</w>
及 早</w>
功 行赏</w>
前 军</w>
兔 子</w>
传 闻</w>
五 条</w>
下 层</w>
万 贯</w>
一 见</w>
一 副</w>
鲁 哀公</w>
陆 地</w>
钟 鼓</w>
金 刚
配 祀</w>
退 下</w>
调 兵</w>
西 城</w>
西 南面</w>
良 田</w>
美 的</w>
署 理</w>
缘 由</w>
精 美</w>
申 屠</w>
王 敬</w>
牛 车</w>
溃 决</w>
深 处</w>
济 阳</w>
水 深</w>
正 卿</w>
枷 锁</w>
李 穆</w>
悄 悄
德 殿</w>
年 老
已 死</w>
婺 州</w>
奉 祀</w>
大 泽</w>
增 长</w>
告 状</w>
启 程</w>
发 射</w>
又 称</w>
军 旅</w>
军 司</w>
倡 导</w>
余 万</w>
传 旨</w>
仿 照</w>
人 多</w>
二十 天</w>
之 分</w>
中 人</w>
上 岸</w>
一 员</w>
高 度</w>
高 句丽</w>
跳 跃</w>
言 事</w>
西 汉</w>
裴 寂</w>
苏 武</w>
致 死</w>
至 诚</w>
胳 膊</w>
继 母</w>
相 隔</w>
盛 衰</w>
熙 宁</w>
深 切</w>
河 州</w>
沮 丧</w>
歉 收</w>
有 何</w>
晋 平公</w>
文 士</w>
故 道</w>
收 买</w>
战 鼓</w>
懒 惰</w>
幸 亏</w>
宰 辅</w>
国 珍</w>
四十 万</w>
司 隶</w>
右 光禄</w>
反 映</w>
县 人</w>
到 极点</w>
创 建</w>
军 用
冒 昧</w>
六 经</w>
公 为</w>
借 用</w>
他 来</w>
人 氏</w>
二 丈</w>
上 衣</w>
黑 水</w>
韩 邪</w>
雷 声</w>
陈 俊
进 人</w>
表 里</w>
莱 州</w>
脾 气</w>
脉 气</w>
老 母</w>
穆 帝</w>
祸 难</w>
白 金</w>
王 都</w>
献 子</w>
狂 风</w>
牵 引</w>
激 战</w>
治 中</w>
没 多久</w>
朝 时</w>
有 序</w>
显 要</w>
早 日</w>
新 蔡</w>
数 千里</w>
持 续</w>
惟 恐</w>
怀 恨</w>
忧 伤</w>
带 回</w>
寡 君</w>
守 门</w>
好 转</w>
士 子</w>
围 城</w>
善 事</w>
唐 睿宗</w>
吃 光</w>
友 人</w>
卓 越</w>
仲 文</w>
代 国</w>
亲 善</w>
亭 子</w>
二百 人</w>
二千 多</w>
事 来</w>
乘 马</w>
丧 乱</w>
不 惜</w>
不 害</w>
三 省</w>
长 生
躲 藏</w>
足 下</w>
贵 在</w>
让 位</w>
视 听</w>
紫 衣</w>
简 陋</w>
秘 阁</w>
盾 牌</w>
疏 导</w>
片 刻</w>
满 朝</w>
河 东郡</w>
沉 没</w>
民 俗</w>
李元 吉</w>
朗 州</w>
昌 邑</w>
方 从
提 前</w>
所 作</w>
戎 人</w>
悄悄 地</w>
忠 顺</w>
巴 结</w>
履 行</w>
射 猎</w>
天 灾</w>
大 胜</w>
大 惊
呼 韩邪</w>
周 全</w>
听 候</w>
各 镇</w>
反 复
助 长</w>
刘 昶</w>
列 为</w>
军 容</w>
共 王</w>
光 照</w>
亲 生</w>
交 会</w>
乘 夜</w>
主 客</w>
丝 帛</w>
马 殷</w>
领 取</w>
郑 畋</w>
选 派</w>
这 番话</w>
辱 骂</w>
觉 悟</w>
茂 密</w>
英雄 豪杰</w>
艺 人</w>
胡 子</w>
精 妙</w>
看 成</w>
病 危</w>
王 褒</w>
献 贡</w>
清 澈</w>
海 外</w>
毁 灭</w>
武 县</w>
正 月初</w>
欧阳 修</w>
梦 中</w>
桂 林</w>
栖 息</w>
杨 荣</w>
李 光</w>
晋 惠帝</w>
方 进</w>
料 理</w>
撤 走</w>
搜 集</w>
抄 写</w>
忧 惧</w>
当 上</w>
庙 社稷</w>
州 治</w>
尤 为</w>
富 饶</w>
宗 庙社稷</w>
子孙 后代</w>
妥 当</w>
多 人</w>
向 东流</w>
司 天
发 难</w>
参 谋</w>
十 几天</w>
判 定</w>
农 桑</w>
军用 物资</w>
军 威</w>
八十 里</w>
倾 斜</w>
传 记</w>
井 陉</w>
五十 岁</w>
五 丈</w>
二 级</w>
二 字</w>
之 丧</w>
为 生</w>
中 止</w>
专 横</w>
专 擅</w>
不 忠</w>
不 利于</w>
不 仅仅</w>
三 十一年</w>
韶 书</w>
隔 阂</w>
镇 星</w>
酬 谢</w>
赵 普</w>
诅 咒</w>
蜀 王</w>
虔 诚</w>
色 彩</w>
航 行</w>
禁 中</w>
盟 会</w>
甲 胄</w>
润 泽</w>
查 考</w>
李文 忠</w>
李 子</w>
晋 公</w>
旧 日</w>
方从 哲</w>
拿 到</w>
拘 留</w>
担 负</w>
执 事</w>
手 杖</w>
往 前走</w>
开 放</w>
应 召</w>
山 崩</w>
宗 亲</w>
嫌 隙</w>
好 话</w>
太 岁</w>
大 骂</w>
国 书</w>
君 上</w>
后 梁</w>
各 方</w>
召 请</w>
北 角</w>
办 成</w>
刘 武周</w>
傅 友德</w>
佩 刀</w>
余 下</w>
二十 二</w>
两 者</w>
上 交</w>
万 分</w>
一百 天</w>
高 后</w>
金 军攻</w>
轻 车</w>
起 于</w>
赦 令</w>
脸 面</w>
编 制</w>
精 微</w>
稳 重</w>
破 败</w>
疲 惫
疲惫 不堪</w>
王 圭</w>
流 到</w>
沮 渠</w>
水 里</w>
敬 献</w>
效 劳</w>
截 击</w>
庄 严</w>
左 氏
尽 量</w>
尧 帝</w>
宗 周</w>
壮 年</w>
吕 光</w>
另 有</w>
反 应</w>
卫 尉
军 兵</w>
其 名</w>
从这 以后</w>
五 味</w>
九 人</w>
之 围</w>
三 等</w>
万 五千</w>
顺 便</w>
静 室</w>
陆 机</w>
附 会</w>
阁 下</w>
错 乱</w>
言 路</w>
见 过</w>
见 于</w>
裴 行
董 昌</w>
终 结</w>
繁 重</w>
箭 射</w>
砍 柴</w>
石 城</w>
知 觉</w>
盛 夏</w>
理 应</w>
理 宗</w>
王 太后</w>
物 质</w>
清 平</w>
淳 厚</w>
涉 过</w>
沂 州</w>
水 塘</w>
朱 雀</w>
朝 官</w>
景 象</w>
晋 安帝</w>
明 公</w>
损 耗</w>
扫 除</w>
我 以</w>
恭 为</w>
忽 视</w>
必 胜</w>
延 龄</w>
延 广</w>
小 孩子</w>
封 官</w>
审 判</w>
太 初</w>
大 安</w>
嘉 许</w>
后 梁太祖</w>
名 册</w>
卿 士</w>
养 生息</w>
其 地</w>
传 话</w>
休 养生息</w>
任 凭</w>
从 来
事 事</w>
个 个</w>
飞 龙</w>
闭 塞</w>
金 主</w>
配 备</w>
邑 王</w>
远 征</w>
败 走</w>
范 雎</w>
相 府</w>
田 间</w>
王 章</w>
淑 妃</w>
殿 后</w>
殷 勤</w>
武 公</w>
指 点</w>
抗 衡</w>
张 敞</w>
小 小</w>
对 象</w>
奏 闻</w>
夭 折</w>
大 营</w>
大 多数</w>
多 个</w>
四 里</w>
司 法</w>
叛 离</w>
压 抑</w>
出 没</w>
军 令</w>
借 以</w>
人 会</w>
乐 声</w>
义 气</w>
万 寿
一 旁</w>
一 军</w>
郑 氏</w>
谋 不轨</w>
诸 部</w>
诚 服</w>
老 妇人</w>
络 绎
络绎 不绝</w>
石 洞</w>
珠 子</w>
玉 帛</w>
溃 逃</w>
水 火</w>
气 质</w>
朱 氏</w>
未 到</w>
无 穷
效 仿</w>
扔 掉</w>
想 想</w>
弥 漫</w>
张 献忠</w>
异 议</w>
异 姓</w>
工 夫</w>
屋 顶</w>
将 吏</w>
宫 阙</w>
宣 谕</w>
宗 翰</w>
宗 为</w>
孝 心</w>
孙 氏</w>
奏 告</w>
大 政</w>
图 谋不轨</w>
各 有
匡 衡</w>
勤 王</w>
凶 猛</w>
几 案</w>
兵 少</w>
全军 覆没</w>
元 澄</w>
交 锋</w>
五 位</w>
之 辞</w>
临 终</w>
七十 里</w>
一 箭</w>
驻 屯</w>
颠 覆</w>
选 任</w>
转 达</w>
获 全胜</w>
舜 帝</w>
自 责</w>
置 办</w>
纠 集</w>
精 明</w>
符 命</w>
窦 宪</w>
盟 主</w>
王 融</w>
法 典</w>
河 套</w>
永 康</w>
李 重</w>
李 远</w>
李 绛</w>
朝 向</w>
换 取</w>
想 不到</w>
悔 改</w>
开 战</w>
崇 文</w>
居 中</w>
好 恶</w>
头 顶</w>
头 来</w>
大 获全胜</w>
国 中</w>
唐 德宗</w>
右 佥都御史</w>
变 革</w>
卫尉 卿</w>
卫 指挥</w>
医 药</w>
冲 出</w>
兼 备</w>
允 准</w>
何 以</w>
代 人</w>
仙 客</w>
从 官</w>
二 分</w>
上 涨</w>
一 阵</w>
青 衣</w>
退 让</w>
走 入</w>
贮 藏</w>
袖 子</w>
萧 嶷</w>
草 书</w>
节 义</w>
穿 越</w>
示 意</w>
相 面</w>
盘 江</w>
用 品</w>
现 出</w>
湘 东王</w>
渠 道</w>
浮 华</w>
流 离
洁 白</w>
民 情</w>
正 言</w>
松 江</w>
杨嗣 昌</w>
晋 太康</w>
恳 求</w>
微 薄</w>
张 邦
张 弘
师 旷</w>
崇 焕</w>
客 居</w>
孟 昶</w>
妖 异</w>
失 所</w>
太 山</w>
多 得</w>
声 援</w>
地 问</w>
固 执</w>
四十 年</w>
叛 逃</w>
取 舍</w>
双 手</w>
厚 道</w>
卦 象</w>
包 裹</w>
刀 剑</w>
几十 里</w>
偶 尔</w>
借 机</w>
休 假</w>
从来 不</w>
二十 多</w>
为 重</w>
为 公</w>
为 业</w>
不 敬</w>
上 门</w>
一千 匹</w>
颂 扬</w>
除 授</w>
阁 鸾</w>
银 两</w>
采 石</w>
都 察院</w>
道 衡</w>
身 材</w>
财 政</w>
谋 杀</w>
评 价</w>
论 功行赏</w>
虚 妄</w>
英 俊</w>
胡 虏</w>
老 幼</w>
绵 延</w>
申 生</w>
理 睬</w>
玷 污</w>
沈 一贯</w>
残 破</w>
武 关</w>
朱 珍</w>
暴 乱</w>
昆 仑
文 思</w>
据 此</w>
换 上</w>
成 子</w>
很 受</w>
彦 威</w>
庆 州</w>
常 在</w>
布 匹</w>
巾 军</w>
左 臂</w>
尘 土</w>
宫 人</w>
奏 称</w>
奉 旨</w>
夜 半</w>
名 单</w>
受 刑</w>
千 匹</w>
利 害
凤 阁鸾</w>
冻 死</w>
养 老</w>
其 母</w>
兵 员</w>
保 养</w>
使 君</w>
介 绍</w>
之 苦</w>
义 兵</w>
专 行</w>
上 下
一 升</w>
魏 文侯</w>
高 仙芝</w>
限 定</w>
长 庆</w>
金刚 经</w>
遗 留</w>
连 不断</w>
进 屋</w>
路 总管</w>
诡 诈</w>
诗 句</w>
议论 纷纷</w>
西 羌</w>
褚 遂良</w>
裴 叔业</w>
表 情</w>
萧 渊
胡 宗
耕 地</w>
群 盗</w>
精 良</w>
稽 首</w>
直 抵</w>
甘 心</w>
玩 弄</w>
王 弘</w>
汉 光武帝</w>
正 光</w>
有 大</w>
月 光</w>
时 用</w>
支 出</w>
接 连不断</w>
捕 杀</w>
戎 狄</w>
慕容 超</w>
情 义</w>
心 地</w>
徒 刑</w>
录 下来</w>
巨 源</w>
宗 弼</w>
天 津</w>
大 蛇</w>
大 作</w>
受 降</w>
十 五万</w>
包 围
加 之</w>
刘 穆之</w>
凤 阁</w>
几 尺</w>
先 皇</w>
先 代</w>
侍 者</w>
以 防</w>
亿 万</w>
亲 笔</w>
交 加</w>
五 是</w>
严 峻</w>
不知 不觉</w>
不 屈</w>
三 级</w>
万 事</w>
一 顿饭</w>
一 朝</w>
一 年
一 州</w>
高 士
骊 山</w>
颠 倒</w>
领 会</w>
雷 雨</w>
集 会</w>
铁 木儿</w>
迎 候</w>
过 桥</w>
说 是</w>
莫 非</w>
莒 国</w>
腹 泻</w>
胡 僧</w>
而 治</w>
编 撰</w>
纵 容</w>
礼 敬</w>
相 聚</w>
王 济</w>
滋 润</w>
没过 多久</w>
比 拟</w>
松 弛</w>
李 峤</w>
文 雅</w>
敬 翔</w>
所 过</w>
怀 恨在心</w>
微 贱</w>
征 兵</w>
张 骞</w>
张 畅</w>
宽 免</w>
安 无事</w>
孙 休</w>
大 志</w>
多 长</w>
北 地</w>
前 线</w>
到 晚</w>
刘 芳</w>
凤 州</w>
凡 人</w>
军 校</w>
余 庆</w>
佐 食</w>
佐 郎</w>
以 死</w>
久 留</w>
中 断</w>
中 士</w>
东 莞</w>
三 件</w>
一 所</w>
鼓 动</w>
高 望
长 驱
近年 来</w>
辈 子</w>
起 舞</w>
赵 彦
赈 救</w>
贯 穿</w>
贤 良
表 扬</w>
能 否</w>
老 少</w>
纯 仁</w>
算 计</w>
第 四
突 袭</w>
督 领</w>
眼 看</w>
王 信</w>
湖 泊</w>
温 峤</w>
深 奥</w>
死 地</w>
扩 廓</w>
成 行</w>
想 来</w>
恐 后</w>
彭 祖</w>
张 融</w>
小 节</w>
安 车</w>
孝 静帝</w>
太 尉
参 见</w>
印 玺</w>
力 战</w>
刮 起</w>
俺 答</w>
五 更</w>
不久 任</w>
不 顺</w>
不 适</w>
金 带</w>
赵 元
衰 亡</w>
蚂 蚁</w>
茅 屋</w>
艳 丽</w>
良 将</w>
自 由</w>
脱 下</w>
紧 迫</w>
紊 乱</w>
称 誉</w>
睡 着</w>
百 代</w>
瓜 州</w>
王 伯
牛 弘</w>
深 思</w>
流 着</w>
沉溺 于</w>
汉 成帝</w>
模 样</w>
李 抱</w>
李 勉</w>
有所 作为</w>
无 子</w>
整 饬</w>
放在 心上</w>
搜 索</w>
拔 起</w>
形 制</w>
张 永</w>
干 肉</w>
巴 蜀</w>
守 信</w>
威 震</w>
妄 为</w>
启 发</w>
勉 力</w>
制 裁</w>
关 键
修 订</w>
依 恃</w>
何 胤</w>
会 昌</w>
乘 虚</w>
不 贤</w>
不 料</w>
下 手</w>
三 道</w>
雷 公</w>
连 到</w>
进 至</w>
近 亲</w>
轻 举
起 义军</w>
赫连 昌</w>
赣 州</w>
诸 国</w>
装 满</w>
行 于</w>
血 脉</w>
荀 彧</w>
苟 且
经 传</w>
纷 乱</w>
立 身</w>
生 灵</w>
王 铎</w>
玄 孙</w>
流离 失所</w>
洗 澡</w>
殿 内</w>
植 物</w>
林 子</w>
有 无</w>
暗 自</w>
显 出</w>
旧 事</w>
无 论是</w>
文 钦</w>
放 宽</w>
接受 命令</w>
振 奋</w>
报 国</w>
抚 州</w>
成 军</w>
憔 悴</w>
想 立</w>
恢 复
忌 妒</w>
得 宠</w>
徐 勉</w>
强 暴</w>
张邦 昌</w>
引 来</w>
建 树</w>
应 用</w>
广 川</w>
年 成</w>
帝 下</w>
已 成</w>
宽 赦</w>
宋 濂</w>
孝 建</w>
天 竺</w>
天 然</w>
大 便</w>
国 学</w>
周 年</w>
周 历</w>
可 说是</w>
古 书</w>
厚 葬</w>
升 明</w>
动 荡</w>
办 到</w>
军 吏</w>
冀 二州</w>
其 侯</w>
兴 隆</w>
体 内</w>
乐 毅</w>
为 非
东 城</w>
丛 生</w>
不 凡</w>
三十 卷</w>
三 城</w>
一 方面</w>
鹦 鹉</w>
鱼 朝恩</w>
驻 防</w>
韩 琦</w>
陵 寝</w>
陡 峻</w>
采 邑</w>
遗 弃</w>
通 向</w>
逃 离</w>
迟 疑</w>
进 出</w>
轻举 妄动</w>
身 心</w>
足 迹</w>
走 近</w>
讨 贼</w>
行 贿</w>
虚 心</w>
荒 淫</w>
苟且 偷
缓 慢</w>
符 合
看 相</w>
直 率</w>
直 捣</w>
百 岁</w>
王 恭</w>
玉 器</w>
爱 民</w>
流 言</w>
波 斯</w>
水 旱</w>
来 犯</w>
有 时候</w>
方 形</w>
斗 星</w>
敬 业</w>
操 劳</w>
投 诚</w>
怀 中</w>
忠 直</w>
张 鲁</w>
宣 示</w>
如 有</w>
大 宴</w>
多次 派</w>
外 物</w>
嗣 位</w>
即 刻</w>
劳 力</w>
助 于</w>
刘 禹锡</w>
凶 残</w>
军 费</w>
军 用</w>
再 生</w>
八 品</w>
储 存</w>
侵 掠</w>
作 歹</w>
五 千
为非 作歹</w>
不 须</w>
上 将</w>
鲜 血</w>
门 徒</w>
钓 鱼</w>
郑 覃</w>
连 忙</w>
过 自新</w>
赵 盾</w>
谒 者</w>
诱 导</w>
自 此以后</w>
绝 对</w>
福 分</w>
禁 绝</w>
祠 部</w>
疑 难</w>
王守 仁</w>
源 于</w>
沔 水</w>
池 水</w>
汉 兵</w>
极 了</w>
李 继</w>
服 劳役</w>
有 识
施 令</w>
料 到</w>
拼 命</w>
悦 诚服</w>
志 在</w>
废 为</w>
州 时</w>
少 游</w>
宗 时</w>
守 仁</w>
孝 服</w>
场 所</w>
吴 曦</w>
同 一个</w>
反 驳</w>
又 名</w>
历 来</w>
南 梁</w>
升 至</w>
勒 令</w>
刘 虞</w>
军 使</w>
八 寸</w>
先 恐后</w>
元 殿</w>
人 少</w>
争 先恐后</w>
之 数</w>
三百 多</w>
三 镇</w>
三 府</w>
三 县</w>
一 书</w>
风 吹</w>
钟 山</w>
邙 山</w>
起 家</w>
走 投
走投 无路</w>
赎 回</w>
资 产</w>
衣 带</w>
荒 野</w>
自 家</w>
精 巧</w>
箱 子</w>
章 句</w>
磁 州</w>
白 玉</w>
留 恋</w>
界 限</w>
犍 为</w>
溢 号</w>
渡 海</w>
汉 室</w>
比 干</w>
正 旦</w>
检 讨</w>
景 延广</w>
显 明</w>
昆 仑</w>
无 赖</w>
教 令</w>
提 起</w>
所 见</w>
怨 愤</w>
心 脏</w>
德 秀</w>
开 成</w>
山 涛</w>
小 城</w>
宫 外</w>
宗 望</w>
安 重荣</w>
宁 县</w>
奢 华</w>
多 万</w>
国 法</w>
围 墙</w>
响 声</w>
同 宗</w>
合 流</w>
各 家</w>
变 通</w>
劝 导</w>
凡 事</w>
其 为</w>
传 授给</w>
仰 仗</w>
令 尹</w>
二 府</w>
之 音</w>
之 色</w>
之 交</w>
义 成</w>
上林 苑</w>
魏 其侯</w>
魏 两国</w>
高 远</w>
高 超</w>
高 密</w>
颜 延之</w>
面 容</w>
长 叹</w>
镇 恶</w>
重 量</w>
重 罪</w>
重 申</w>
郁 久</w>
转 身</w>
赞 普</w>
蛮 军</w>
虫 子</w>
葬 于</w>
萧颖 胄</w>
考 功</w>
纺 织</w>
索 求</w>
禀 性</w>
神 像</w>
班师 回朝</w>
然 的话</w>
淳 朴</w>
沸 腾</w>
汉 献帝</w>
横 跨</w>
林 中</w>
李 惟
曹 景宗</w>
星 座</w>
昆仑 山</w>
投 进</w>
往 事</w>
彭 宠</w>
异 族</w>
建 起</w>
左 贤王</w>
居 然</w>
将 佐</w>
宏 伟</w>
宋 太祖</w>
孙 亮</w>
威 逼</w>
姿 态</w>
如 实</w>
夺 得</w>
太 重</w>
大 有</w>
堂 屋</w>
坚 实</w>
地 志</w>
围 住</w>
商 鞅</w>
反 击</w>
厉 声</w>
单 衣</w>
副 职</w>
刘 辟</w>
刘 玄
出 关</w>
全 州</w>
作 物</w>
亏 损</w>
书 中</w>
丧 父</w>
丝 带</w>
不 禁</w>
不 然的话</w>
上 殿</w>
一 眼</w>
骑 着
骑着 马</w>
风 格</w>
阶 下</w>
鄙 陋</w>
郴 州</w>
身 长</w>
起 火</w>
诸 州</w>
蔓 延</w>
节 奏</w>
自 守</w>
私 欲</w>
祭 献</w>
相 随</w>
王 晏
献 王</w>
熟 习</w>
湘 东</w>
深 谷</w>
淘 汰</w>
江 湖</w>
永 不</w>
民 田</w>
民 夫</w>
武帝 时</w>
梯 子</w>
望 风</w>
昌 平</w>
早 点</w>
日 久</w>
文 炳</w>
政 院</w>
拜 任</w>
打 通</w>
恳 请</w>
当 着</w>
弥 远</w>
建 功
廉 耻</w>
帷 幕</w>
峡 口</w>
尊 严</w>
宝 臣</w>
孟 珙</w>
天地 间</w>
外 城</w>
夏 口</w>
园 林</w>
吟 咏</w>
吏 员</w>
同 等</w>
司马 道子</w>
去 取</w>
功 能</w>
剿 灭</w>
刘 景
出 售</w>
写 字</w>
修 明</w>
佐 史</w>
传 布</w>
为 侯</w>
不 快</w>
龙 虎</w>
鲁 王</w>
魏 孝文帝</w>
难 免</w>
陈俊 卿</w>
闭 门
钻 研</w>
辆 车</w>
身 先
身先 士卒</w>
赵 匡
芦 苇</w>
职 事</w>
粗 疏</w>
管 事</w>
筷 子</w>
等 同</w>
睢 阳</w>
相 助</w>
白 曜</w>
海 郡</w>
沙 钵
毒 死</w>
歌 咏</w>
楼 台</w>
杨 伯
李 为</w>
机 关</w>
有 益</w>
文 说</w>
敬 仰</w>
故 里</w>
故 土</w>
排 除</w>
手 握</w>
情 谊</w>
归 还给</w>
就 近</w>
实 为</w>
失 职</w>
天 穆</w>
天 体</w>
大 抵</w>
土 壤</w>
四 只</w>
受 辱</w>
典 制</w>
兴 州</w>
仲 礼</w>
临 头</w>
中 举</w>
两 道</w>
两 支</w>
两 千</w>
高望 重</w>
隆 盛</w>
陪 葬</w>
通 事</w>
赵 葵</w>
豺 狼</w>
诸 路</w>
诗 赋</w>
要 用</w>
西 突厥</w>
装 载</w>
裁 定</w>
血 流</w>
自 夸</w>
聘 请</w>
精 深</w>
竖 立</w>
督 战</w>
皇甫 嵩</w>
牢 之</w>
柏 树</w>
李光 颜</w>
李 平</w>
李 可
智 者</w>
抽 出</w>
得 着</w>
徒 弟</w>
往 回</w>
往 前</w>
彭 泽</w>
建功 立业</w>
巴 州</w>
工 事</w>
山 野</w>
对 人</w>
审 核</w>
官 家</w>
安 邑</w>
宁 愿</w>
多 方</w>
城 人</w>
善 人</w>
号 施令</w>
可 比</w>
召 用</w>
只 身</w>
发 号施令</w>
参 考</w>
卢 文
南 匈奴</w>
刘 牢之</w>
刘 子</w>
几 千里</w>
军 师</w>
健 壮</w>
假 传</w>
亲 爱</w>
亭 长</w>
九 鼎</w>
九 天</w>
之 妻</w>
东 府</w>
专 断</w>
不 言</w>
七 寸</w>
鲁 花
鲁花 赤</w>
高 昌
长 兴</w>
邓 太后</w>
遣 返</w>
途 经</w>
远 行</w>
财 赋</w>
诗 人</w>
行 星</w>
行 在</w>
聘 礼</w>
税 粮</w>
种 类</w>
神 态</w>
百 计</w>
田 畴</w>
独 揽</w>
点 头</w>
沮 渠
民 兵</w>
教 坊</w>
政 者</w>
抚 摸</w>
执 意</w>
才 气</w>
惊 吓</w>
忌 日</w>
得 逞</w>
当 日</w>
张 禹</w>
引 水</w>
延 英殿</w>
庙 堂</w>
幽 求</w>
就 位</w>
宣 徽
客 气</w>
宋 明帝</w>
妖 孽</w>
嘉 兴</w>
后 援</w>
司马 伦</w>
受 惊</w>
厨 师</w>
卧 病</w>
包 容</w>
助 手</w>
冶 炼</w>
冲 破</w>
兴 平</w>
六 合</w>
便 用</w>
作 官</w>
仗 队</w>
京 东</w>
不 设</w>
一万 户</w>
马 鞭</w>
首 次</w>
青 山</w>
逃 遁</w>
退 位</w>
达 鲁花赤</w>
赤 乌</w>
资 质</w>
该 死</w>
诀 别</w>
蓬 莱</w>
萧遥 光</w>
荣 华
荣华 富贵</w>
草 丛</w>
船 夫</w>
胶 东</w>
箭 头</w>
童 贯</w>
窦 氏</w>
相 加</w>
田 单</w>
环 绕着</w>
牵 连到</w>
泥 于</w>
汉 高帝</w>
氏 县</w>
残 兵</w>
武 氏</w>
李 成
有 方</w>
智 力</w>
放 走</w>
探 究</w>
拘 泥于</w>
打 破</w>
情 意</w>
恼 火</w>
御 前</w>
徐 孝
征 询</w>
往 昔</w>
建 文</w>
巡 官</w>
家 事</w>
审 慎</w>
学 官</w>
孙 膑</w>
如 晦</w>
夷 离</w>
头 痛</w>
大 中</w>
唐 王</w>
唐 宪宗</w>
咳 嗽</w>
呈 报</w>
右 丞
可 贵</w>
反 抗</w>
全 族</w>
党 营私</w>
先 父</w>
先 派</w>
储 藏</w>
信 使</w>
俞 大猷</w>
何 承天</w>
仪 仗队</w>
二千 余</w>
争 先</w>
书 院</w>
丰 县</w>
东 到</w>
上 车</w>
鱼 鳖</w>
食 其</w>
题 写</w>
面 部</w>
闹 市</w>
鄯 善</w>
进 贤</w>
觉 察</w>
获 利</w>
舒 州</w>
百 步</w>
疲 乏</w>
王 镇恶</w>
犯 下</w>
演 习</w>
洼 地</w>
武 兴</w>
李 王</w>
有 礼</w>
曹 彬</w>
曹 休</w>
患 难</w>
得 其所</w>
弄 清</w>
庐 山</w>
孝 昌</w>
如 此
奋 起</w>
咸 康</w>
呈 献</w>
同 谋</w>
合 为</w>
各 类</w>
台 上</w>
只 求</w>
反 倒</w>
医 治</w>
刘 孝
凉 王</w>
何 人</w>
人 以</w>
亲 情</w>
下 部</w>
上 流</w>
七 次</w>
一百 五十</w>
龙 潭</w>
飞 扬</w>
部 郎</w>
责 成</w>
说 情</w>
训 诫</w>
萧 纪</w>
茶 叶</w>
老 年人</w>
老 头
窥 探</w>
破 旧</w>
白 云</w>
海 口</w>
流 落</w>
活 埋</w>
沙 苑</w>
束 宫</w>
旋 即</w>
新 妇</w>
放 过</w>
支 付</w>
拨 给</w>
所 欲</w>
开 设</w>
己 任</w>
左 右
宽 阔</w>
如 山</w>
好 长时间</w>
好 几年</w>
奠 献</w>
大 如</w>
堆 积
哪 些</w>
周 国</w>
厚 恩</w>
勃 勃</w>
割 地</w>
刘 诞</w>
分 管</w>
冤 案</w>
五 千多</w>
乐 章</w>
之 女</w>
东 行</w>
东 南
上 层</w>
一个 个</w>
高 于</w>
马 融</w>
颁 赐</w>
长 大
长大 成人</w>
酿 成</w>
郊 野</w>
遵 行</w>
逃 命</w>
转 战</w>
谚 语</w>
谏 大夫</w>
襄 帝</w>
街 道</w>
营 中</w>
苏 醒过来</w>
至 极</w>
考 证</w>
老 天</w>
纪 年</w>
筵 席</w>
笑 话</w>
用 车</w>
王 立</w>
王 智
玉 璧</w>
玄 菟</w>
深 知</w>
汉 景帝</w>
横 贯</w>
最 先</w>
暴 风</w>
普通 百姓</w>
晋 熙</w>
明 德</w>
恶 行</w>
微 妙</w>
得 来</w>
归 心</w>
强 劲</w>
建 置</w>
建 中</w>
店 铺</w>
带 有</w>
尸 首</w>
子 里</w>
女 巫</w>
奋 战</w>
天 成</w>
大 振</w>
四 夷</w>
周 室</w>
召 公</w>
取 来</w>
华 盖</w>
十 四岁</w>
六 条</w>
偏 爱</w>
传 庭</w>
会 试</w>
仇 士良</w>
亲 家</w>
五百 匹</w>
举 着</w>
临 终
一百 零
一 杯</w>
阻 断</w>
长 成</w>
遥 望</w>
造 船</w>
赵 郡王</w>
贼 子</w>
蓄 积</w>
莫 过于</w>
范 云</w>
翟 让</w>
结 党营私</w>
符 瑞</w>
祭 祖</w>
神 农</w>
皇 陵</w>
番 禺</w>
甲 兵</w>
潮 州</w>
枝 条</w>
李 顺</w>
放 任</w>
收 割</w>
撤 去</w>
按察 司</w>
成 长</w>
成 名</w>
张 生</w>
应 答</w>
常 说</w>
居 室</w>
室 韦</w>
太 牢</w>
大 众</w>
复 命</w>
地方 官吏</w>
四 拜</w>
咱 们</w>
呈 现</w>
午 日</w>
刘 弘
刘 健</w>
分 司</w>
出 山</w>
典 范</w>
公 府</w>
伏 炽
任 城王</w>
从 古
五 音</w>
乡 村</w>
不 称</w>
不 相</w>
不 前</w>
一千 八百</w>
黎 民</w>
高高 的</w>
透 彻</w>
调 拨</w>
警 报</w>
被 判</w>
补 救</w>
胡宗 宪</w>
织 成</w>
紧 闭</w>
精 华</w>
竭尽 全力</w>
竟 是</w>
盘 旋</w>
用 刀</w>
生 员</w>
王敬 则</w>
王 生</w>
王 浑</w>
灵 魂</w>
流 散</w>
流 处</w>
沼 泽</w>
没有 防备</w>
沉 默
水 平</w>
武 阳</w>
武 州</w>
案 情</w>
朱 世隆</w>
本 地</w>
散 失</w>
接 战</w>
手 掌</w>
心 性</w>
广 利</w>
常 平</w>
左 氏</w>
山 河</w>
小 名</w>
太 官</w>
大 川</w>
境 外</w>
圆 丘</w>
听 闻</w>
吕 公
名 利</w>
发 表
历 城</w>
几 十</w>
八 分</w>
何 等</w>
从 命</w>
之 运
东 北面</w>
三十 岁</w>
黄 巾军</w>
风 采</w>
非 法</w>
震 慑</w>
门 关</w>
郁 林
追 兵</w>
运 河</w>
跋 涉</w>
赵 王
贬 黜</w>
诬 蔑</w>
讲 习</w>
解 职</w>
萧宝 寅</w>
肌 肤</w>
羽林 军</w>
美 妙</w>
罪 于</w>
罢 休</w>
统 统</w>
经 费</w>
绍 威</w>
织 造</w>
移 到</w>
离 任</w>
社 会
相 王</w>
献 计</w>
治 水</w>
沁 水</w>
气 象</w>
民 工</w>
榆 林</w>
权 衡</w>
权 术</w>
时 溥</w>
施 用</w>
新 州</w>
放 回</w>
拄 着</w>
怀 帝</w>
心 悦诚服</w>
徽 州</w>
征 象</w>
山海 经</w>
寺 里</w>
宽 敞</w>
实 封</w>
宁 静</w>
宁 宗</w>
子 嗣</w>
天 理</w>
大 喊</w>
多 高</w>
多 难</w>
多 天</w>
埋 没</w>
商 贾</w>
和 之曲</w>
吴 主</w>
吕 文
叶 护</w>
南 郑</w>
北 朝</w>
具 体
其 妻</w>
其 二</w>
免于 一死</w>
先 天</w>
元 凶</w>
停 驻</w>
人 龙</w>
两 块</w>
东 北方</w>
不 振</w>
三 川</w>
一 时间</w>
鸿 渐</w>
高 州</w>
韩 安国</w>
长驱 直入</w>
锦 缎</w>
赵 简子</w>
赤 水</w>
象 升</w>
诏 狱</w>
规 章</w>
虎 豹</w>
蕲 州</w>
荒 地</w>
苏 代</w>
至 死</w>
脚 夫</w>
耸 起</w>
绫 罗</w>
继 立</w>
结 局</w>
砍 掉</w>
相 关</w>
王 锡
王 涯</w>
爵 号</w>
烦 扰</w>
点 检</w>
毒 酒</w>
欣 喜</w>
来 京</w>
李 弘
暴 涨</w>
新 春</w>
持 重</w>
拷 问</w>
拦 击</w>
手 上</w>
张 稷</w>
张 延
工 人</w>
大 街</w>
士 英</w>
国 志</w>
合 成</w>
吃 喝</w>
右 都御史</w>
受 过</w>
反复 无常</w>
南 星</w>
匣 子</w>
割 据</w>
出 钱</w>
凌 辱</w>
内 阁
内 殿</w>
兴 宗</w>
关 门</w>
僮 仆</w>
作 大匠</w>
何 曾</w>
会 面</w>
亲 戚
二十 九</w>
中 期</w>
不 生</w>
不 以为
三 卷</w>
三 万多</w>
一百 匹</w>
高季 兴</w>
颍 州</w>
预 知</w>
阅 兵</w>
门 卫</w>
铁 木</w>
采 访</w>
郭 氏</w>
遍 地</w>
这 支</w>
轿 子</w>
谦 卑</w>
请 降</w>
试 着</w>
许 由</w>
著 书</w>
自 卫</w>
能 言
职 任</w>
缺 粮</w>
终 生</w>
立 庙</w>
离 家</w>
祭 拜</w>
相 识</w>
目 光</w>
申 日</w>
申 君</w>
王 爷</w>
王 景</w>
王 安
渭 桥</w>
淡 泊</w>
洪 范</w>
治 愈</w>
武元 衡</w>
梁 末帝</w>
更 替</w>
昭 阳</w>
时 要</w>
无可 奈何</w>
无 名</w>
文 襄</w>
数 百里</w>
数 丈</w>
放 进</w>
抨 击</w>
抄 录</w>
成 例</w>
性 情
张昌 宗</w>
张 昭</w>
庸 关</w>
山 寨</w>
小 道</w>
尊 称</w>
对 敌</w>
寸 口</w>
宝 贝</w>
安 息</w>
守 门人</w>
如 若</w>
奸 猾</w>
奉 朝</w>
头 部</w>
太仆 寺</w>
太 原
天 险</w>
大 鱼</w>
大 体
多 多</w>
多 事</w>
夏侯 渊</w>
国 相</w>
周 人</w>
吟 诵</w>
博 览
勃 海</w>
判 刑</w>
创 伤</w>
列 入</w>
几 代</w>
公 的</w>
仪 节</w>
令 人
于 忠</w>
于 天</w>
乐 陵</w>
之 灾</w>
丧 命</w>
下 韶</w>
鸡 蛋</w>
魂 魄</w>
高 出</w>
香 炉</w>
面 孔</w>
阳 宫</w>
锋 芒</w>
退 路</w>
身 披</w>
蜀 汉</w>
草 料</w>
脱 掉</w>
窦 武</w>
祭 神</w>
礼 待</w>
相 救</w>
盛 行</w>
现 有</w>
湖 泽</w>
游 猎</w>
流 淌</w>
流 向</w>
法 兴</w>
治 好</w>
气 力</w>
死 讯</w>
武 为</w>
松 柏</w>
杜 如晦</w>
李 通</w>
旋 转</w>
敬 爱</w>
散 开</w>
提 举
拦 住</w>
批 示</w>
恒 山</w>
怀 远</w>
应 试</w>
干 练</w>
帐 篷</w>
安 远</w>
孝 德</w>
太 宗皇帝</w>
处 州</w>
困 扰</w>
向 高</w>
叶 向高</w>
叔孙 通</w>
原 故</w>
卫 灵公</w>
卢 氏</w>
南 汉</w>
军 器</w>
内阁 大臣</w>
八 种</w>
倚 重</w>
体 制</w>
伏炽 磐</w>
仲 远</w>
云 彩</w>
临 阵</w>
个 月</w>
严 谨</w>
两 县</w>
不 自
一 无所
一 对</w>
一 宿</w>
默 默
首 尾</w>
饶 恕</w>
阳 山</w>
闪 电</w>
遗 命</w>
适 时</w>
这 点</w>
象 是</w>
西 秦</w>
精 神
眉 毛</w>
盐 池</w>
用 得着</w>
生 子</w>
特 点</w>
潜 入</w>
深 为</w>
海 西</w>
汉 公</w>
水 利</w>
水 从</w>
楷 模</w>
梁 兵</w>
李 义
本 职</w>
服 罪</w>
故 而</w>
打 柴</w>
慕容 德</w>
急 需</w>
忤 逆</w>
很久 没</w>
帝 永</w>
居 庸关</w>
小 河</w>
对 不起</w>
宋 武帝</w>
妓 女</w>
多 时</w>
唐 州</w>
合 朔</w>
合 州</w>
压 死</w>
千 计</w>
十 四
前 一天</w>
刘 延
兵 役</w>
关 外</w>
公 子
光 泽</w>
保 机</w>
任 同</w>
令狐 楚</w>
中 统</w>
不 致</w>
一千 二百</w>
龟 甲</w>
黄 钺</w>
黄 河水</w>
魏 孝武</w>
高 杰</w>
驳 斥</w>
雷 州</w>
陈 宜</w>
闻 讯</w>
重 镇</w>
部 曲</w>
邵 陵王</w>
进 山</w>
进 上</w>
这 场</w>
过 多</w>
轮 番</w>
赶 路</w>
赞 善</w>
赐 宴</w>
贪 求</w>
该 县</w>
论 功</w>
要 冲</w>
裴 邃</w>
蒋 济</w>
荒 年</w>
罗 绍威</w>
用 钱</w>
王 播</w>
王 夫人</w>
灵 活</w>
海 道</w>
济 北</w>
泰 和</w>
江 口</w>
汗 出</w>
汇 流处</w>
梓 州</w>
样 式</w>
杨 溥</w>
朝 内</w>
有 能</w>
无 尽</w>
新 法</w>
文 渊
散 乱</w>
挑 起</w>
指 令</w>
惊 醒</w>
御 驾</w>
引 入</w>
废 立</w>
废 弛</w>
常 道</w>
带 子</w>
巴 郡</w>
已 高</w>
山 石</w>
完 全
大惊 失色</w>
大 醉</w>
大 清</w>
大 度</w>
复 生</w>
国 戚</w>
唱 道</w>
听 从命令</w>
司 业</w>
口 渴</w>
县 衙</w>
县 吏</w>
厚 禄</w>
厌 倦</w>
刘 贺</w>
刘 秀
关 上</w>
六 天</w>
公 然</w>
会稽 王</w>
仁 人</w>
互 通</w>
为 乐</w>
丰 州</w>
两 代</w>
上官 桀</w>
一百 一十</w>
马希 萼</w>
饰 物</w>
风 尚</w>
降 霜</w>
酒 醉</w>
都 护
都护 府</w>
近 年</w>
边 境
谢 安
诸 臣</w>
试 探</w>
讲 经</w>
裴行 俭</w>
衣 帽</w>
虔 州</w>
荣 阳</w>
英 勇</w>
翡 翠</w>
粮 米</w>
禹 贡</w>
登 高</w>
王 昶</w>
王 德
猛 虎</w>
澄 清</w>
淫 逸</w>
涉 水</w>
武 库</w>
槐 树</w>
楼 兰</w>
桓 子</w>
林 木</w>
枕 头</w>
朱 温</w>
晋 献公</w>
春 分</w>
无 一
打 得</w>
戍 卒</w>
恭 王</w>
往 南流</w>
强 健</w>
开 仓</w>
庆 宫</w>
就 命</w>
守 边</w>
姊 妹</w>
大 厅</w>
喂 养</w>
同 一天</w>
司 直</w>
史 弥远</w>
口 气</w>
华 佗</w>
匆 忙</w>
力 求</w>
列 子</w>
军 情</w>
公 车</w>
元 丰</w>
仲 尼</w>
人 中</w>
井 里</w>
不久 前</w>
不 合
下 位</w>
一 两</w>
高 呼</w>
阴 平</w>
郭 解</w>
郊 庙</w>
远 虑</w>
赶 忙</w>
贡 奉</w>
诚 地</w>
记 事</w>
观 览</w>
街 巷</w>
虚 无</w>
薛 延陀</w>
脱 落</w>
累 积</w>
禁 兵</w>
真 相</w>
看 后</w>
的 士</w>
痛 快</w>
狼 狈</w>
烧 死</w>
涿 州</w>
河 阴</w>
正 想</w>
止 境</w>
歌 妓</w>
歇 息</w>
来 访</w>
李 宝臣</w>
有识 之士</w>
有 钱</w>
昭 达</w>
既 有</w>
旗 鼓</w>
方 明</w>
搜 求</w>
战 斗
情 状</w>
恪 守</w>
恍 惚</w>
思 道</w>
德 高望重</w>
归 德</w>
强 国</w>
延 陵</w>
广 陵
布 施</w>
崔 亮</w>
寇 恂</w>
官 田</w>
始 终
夹 攻</w>
太 夫人</w>
天 后</w>
夏 人</w>
壮 丽</w>
地 名</w>
在 场</w>
咸 和</w>
周 襄王</w>
各 司</w>
叛 将</w>
去 职</w>
利 禄</w>
判 处死刑</w>
出 境</w>
关 系
公 田</w>
元 顺</w>
元 禧</w>
保 宁</w>
伸 出</w>
仓 猝</w>
二 帝</w>
九 锡</w>
不 至</w>
三十 二</w>
一 辈子</w>
一 条
一 意</w>
饮 水</w>
霸 道</w>
陈 仓</w>
阶 上</w>
长 春</w>
酷 刑</w>
进 讨</w>
过 继</w>
贪 得
贪得 无厌</w>
诏 谕</w>
蒙 军</w>
罢 去</w>
纵 兵</w>
繁 盛</w>
粗 布</w>
神 通</w>
石 烈</w>
着 急</w>
眼 下</w>
田 氏</w>
理 财</w>
王锡 爵</w>
王 商</w>
滋 生</w>
派 来</w>
法 善</w>
水 县</w>
某 某</w>
林 邑</w>
杨 存</w>
李 神
李 弼</w>
李 业</w>
李 世</w>
朝 外</w>
既 然如此</w>
无 人
方 山</w>
推 断</w>
护 儿</w>
所 欲
成 汤</w>
意 向</w>
张 飞</w>
康 子</w>
应 战</w>
年 仅</w>
干 粮</w>
崇 敬</w>
宕 昌</w>
姿 色</w>
姚 襄</w>
失 措</w>
多 名</w>
坐 骑</w>
地 利</w>
因 循</w>
发 表</w>
去 除</w>
加 固</w>
前 燕</w>
别 墅</w>
刘 渊</w>
冒 死</w>
兵 乱</w>
便 命</w>
侍 妾</w>
人 材</w>
互 不</w>
二 次</w>
九 成</w>
之 制</w>
丰 足</w>
东 南面</w>
下 雪</w>
三 才</w>
三 只</w>
龙 城</w>
鬼 宿</w>
高 峰</w>
食 禄</w>
除 非</w>
阿 保机</w>
铨 选</w>
酿 酒</w>
郭 汜</w>
通 天</w>
进 到</w>
趴 在</w>
赐 福</w>
谋 议</w>
西 上</w>
薛 道衡</w>
蒲 察
若 有</w>
背 负</w>
胆 量</w>
考 取</w>
缓 解</w>
缓 急</w>
第 七</w>
竹 林</w>
窦 婴</w>
稀 少</w>
祸 殃</w>
矫 正</w>
真 实
监 管</w>
盐 州</w>
略 微</w>
玩 耍</w>
溺 死</w>
河 堤</w>
江 阴</w>
汉 昭帝</w>
永 徽</w>
此 案</w>
此 机会</w>
查 访</w>
杨 慎
杨 俊</w>
李 纳</w>
机 智</w>
敬 意</w>
收 留</w>
搜 查</w>
按 规定</w>
当 晚</w>
张 玄
张 步</w>
宗 师</w>
子 侄</w>
如 愿</w>
夸 大</w>
失 当</w>
天 嘉</w>
多 加</w>
因 袭</w>
喊 叫</w>
吕 不
反 常</w>
北 极</w>
化 育</w>
劝 谕</w>
再 行</w>
再 战</w>
六 寸</w>
公 道</w>
免 不了</w>
仍 为</w>
乌 龟</w>
不 信</w>
三十 多</w>
一百 三十</w>
一 趟</w>
骤 然</w>
领 导</w>
霸 王</w>
陈 轸</w>
铸 成</w>
金 世宗</w>
醴 泉</w>
道 宗</w>
追 念</w>
连 理</w>
赵 郡</w>
谎 称</w>
西 海</w>
表示 同意</w>
薄 弱</w>
芜 湖</w>
能言 善辩</w>
胡 说</w>
纵 情</w>
紧 急
精 细</w>
程 颐</w>
移 剌
相 符合</w>
独 断
牧 马</w>
灵 台</w>
流而 下</w>
洞 内</w>
治 政</w>
汹 涌</w>
水 旱
水旱 灾害</w>
每 隔</w>
死 守</w>
欣 然</w>
栋 梁</w>
构 筑</w>
条 理</w>
木 邦</w>
曲 沃</w>
暂 代</w>
时 才</w>
数 里</w>
收 税</w>
戴 上</w>
战 国</w>
往 上
彰 显</w>
张 辅</w>
巴 东</w>
崔 浩
少 阴
宁 王</w>
孙 峻</w>
太平 盛世</w>
太原 人</w>
太 白</w>
大 旗</w>
喝 完</w>
周 旋</w>
告 老</w>
各有 不同</w>
吃 饱</w>
司 徒
号 叫</w>
参 军事</w>
半 路上</w>
加 紧</w>
办 好</w>
刚 正</w>
典 雅</w>
六十 四</w>
元 熙</w>
僧 侣</w>
俯 视</w>
使 唤</w>
之 山</w>
上 坡</w>
三 部</w>
一百 四十</w>
顺 流而下</w>
雅 乐</w>
阴 王</w>
长 长
里 巷</w>
邦 国</w>
辛 勤</w>
车 夫</w>
身 受</w>
设 防</w>
记 录下来</w>
西 陵</w>
西 宫</w>
薪 俸</w>
萧 大
英 武</w>
肃 清</w>
聚 在一起</w>
纹 理</w>
突 然
神 圣</w>
礼 让</w>
王 越</w>
王 茂
王 琼</w>
王 孝
湘 水</w>
海 运</w>
比 起</w>
正 大</w>
李存 勖</w>
服 于</w>
曲 端</w>
晋 书</w>
改 嫁</w>
执 金</w>
恩 遇</w>
忠 为</w>
席 位</w>
山 人</w>
寒 热</w>
官 名</w>
官 制</w>
守 令</w>
姚 泓</w>
奴 才</w>
处理 事务</w>
墓 穴</w>
哈 剌
品 德
取 乐</w>
北 麓</w>
北 行</w>
务 求</w>
分 头</w>
几 十年</w>
军 阵</w>
军 门</w>
六 七</w>
光 耀</w>
佛 塔</w>
伏 威</w>
仲 子</w>
人 要</w>
事 态</w>
九 万</w>
乌 古
临 行</w>
三 族</w>
三 升</w>
七 八</w>
一 统</w>
风 邪</w>
面 貌</w>
雄 壮</w>
雄 伟</w>
锐 利</w>
近 日</w>
身 分</w>
超 群</w>
赶 得上</w>
话 说</w>
讯 察</w>
虢 国</w>
至 尊</w>
自 以为
而 逃</w>
继 任</w>
端 门</w>
白 鹿</w>
瓜 分</w>
王 朗</w>
王 建
潞 王</w>
漳 州</w>
海 滨</w>
派 人来</w>
泾 阳</w>
沉 入</w>
气 概</w>
正 派</w>
次 数</w>
横 行
李 雄</w>
机 应变</w>
时 宜</w>
文 臣</w>
改 姓</w>
摆 脱</w>
承 畴</w>
心 裹</w>
心 存</w>
延 儒</w>
干 戈</w>
帝 说</w>
官 长</w>
季 子</w>
孙 承宗</w>
娘 家</w>
夺 回</w>
大 石</w>
外 援</w>
圣 朝</w>
圜 丘</w>
围 着</w>
哀 王</w>
哀 求</w>
向 外</w>
向 北
吊 祭</w>
口 才</w>
发 泄</w>
参 宿</w>
县 侯</w>
原 籍</w>
前 辈</w>
前 次</w>
前 些
刘 禅</w>
凋 敝</w>
关 节</w>
六 宫</w>
六 卿</w>
先 进</w>
元 行</w>
元 氏</w>
佞 人</w>
体 会</w>
仰 赖</w>
以 身
仆 役</w>
五百 多</w>
东 夷</w>
麻 布</w>
预 备</w>
金 印</w>
郦 食其</w>
选 官</w>
行 不通</w>
英 才</w>
而 降</w>
而 止</w>
美 色</w>
绝 顶</w>
经 文</w>
织 布</w>
简 略</w>
王思 政</w>
王 伟</w>
王 亮</w>
献 纳</w>
没 人</w>
李 道</w>
李 广利</w>
本 纪</w>
明 知</w>
方 针</w>
救 活</w>
攻 杀</w>
搬 迁</w>
接 任</w>
拿 下</w>
扩 展</w>
所 求</w>
德 祖</w>
形 容</w>
引 退</w>
废 墟</w>
幼 主</w>
尽 孝</w>
少 君</w>
宋 公</w>
安 汉公</w>
孝 惠帝</w>
夷 狄</w>
失 礼</w>
大 败
夜 叉</w>
多 种</w>
多 家</w>
友 好
卫 君</w>
博览 群书</w>
刘 寻</w>
公 叔</w>
入 内</w>
元 光</w>
保 有</w>
便 宜</w>
何 点</w>
从 容
亡 命
五十 年</w>
不 降</w>
不 实</w>
一千 三百</w>
一 整天</w>
一 举
鱼 袋</w>
首 恶</w>
韦 睿</w>
面 积</w>
雷 击</w>
陪 侍</w>
镇 远</w>
重 刑</w>
道 谢</w>
车 都尉</w>
责 骂</w>
试 验</w>
药 师</w>
胡 安国</w>
肉 刑</w>
老 将</w>
罗 帖</w>
纵 火</w>
竞 争</w>
窗 户</w>
空 旷</w>
秋 分</w>
益 于</w>
皮 革</w>
生 死
王 文
玉 女</w>
献 酒</w>
猛 攻</w>
狭 隘</w>
濒 临</w>
滥 用</w>
浅 陋</w>
法 律
治 世</w>
枯 死</w>
攻 掠</w>
改 动</w>
提举 司</w>
挺 进</w>
惶 恐不安</w>
忽 略</w>
快 到</w>
必 会</w>
得 人心</w>
张 仲
干 枯</w>
带 头</w>
帅 府</w>
封 闭</w>
宗 旨</w>
壮 丁</w>
城 垣</w>
均 匀</w>
国子 学</w>
囚 车</w>
品德 高尚</w>
周 济</w>
周 宣王</w>
南 宁</w>
千里 马</w>
内 库</w>
兴 办</w>
做 梦</w>
侧 面</w>
佳 肴</w>
传 出</w>
众 不同</w>
休 养</w>
以 法</w>
他 入</w>
他 会</w>
书 郎</w>
乡 亲</w>
九 尺</w>
之 长</w>
之 舞</w>
为 先</w>
丘 陵</w>
与 众不同</w>
不 妥</w>
不 仁</w>
三 层</w>
一点 儿</w>
黄 霸</w>
项 籍</w>
霸 主</w>
铁 券</w>
野 草</w>
道 观</w>
遏 制</w>
这 部</w>
迁 至</w>
调 到</w>
诸 郡</w>
诰 命</w>
补 益</w>
衢 州</w>
虞 国</w>
落 后</w>
萧 氏</w>
苦 役</w>
臣 们</w>
而 知</w>
繁 琐</w>
禀 受</w>
真 心</w>
百姓 家</w>
登 临</w>
甘 愿</w>
水 口</w>
殉 葬</w>
柳 仲礼</w>
朱 兆
未 有</w>
有 损</w>
明 州</w>
昌 邑王</w>
早 早</w>
断 绝
文 为</w>
故 地</w>
指 控</w>
托 病</w>
扁 鹊</w>
我 本</w>
怀 里</w>
德 光</w>
异 心</w>
建 邺</w>
平 台</w>
山 后</w>
宝 贵</w>
官 舍</w>
守 兵</w>
娄 室</w>
女 仆</w>
太 医</w>
大败 敌军</w>
大 器</w>
回 兵</w>
善 长</w>
咸 平</w>
名 籍</w>
名 州</w>
同 辈</w>
同 于</w>
可 望</w>
发生 变化</w>
冠 冕</w>
内 有</w>
兴 衰</w>
元 义</w>
五 霸</w>
云 梯</w>
于 民</w>
之 患</w>
举 杯</w>
为 界</w>
世 荣</w>
万 机</w>
七 星</w>
一 曲</w>
一 批</w>
魏 氏</w>
雾 气</w>
隐 公</w>
铁 木
郭 祚</w>
邻 里</w>
邪 说</w>
连 结</w>
进 位</w>
迎 娶</w>
赐 与</w>
谋 臣</w>
该 城</w>
许 敬宗</w>
计 数</w>
若 水</w>
自 相
自 焚</w>
编 写</w>
笼 络</w>
直 趋</w>
申 报</w>
田 产</w>
生 了
献 媚</w>
热 气</w>
毫 不
棍 子</w>
栈 道</w>
杨 守
李 责力</w>
李 庭
更 新</w>
晋 元帝</w>
文渊 阁</w>
数 十里</w>
散 关</w>
挫 折</w>
德 为</w>
得 利</w>
归 国</w>
帮 忙</w>
崔 宁</w>
崇 祖</w>
屡 经</w>
容 许</w>
四 千
喝 水</w>
向 西流</w>
可 说</w>
可 法</w>
受 敌</w>
南 阳人</w>
北 斗星</w>
刘 崇
内 官</w>
兼 散</w>
充 饥</w>
优 点</w>
仁 宗
乡 间</w>
举 报</w>
丘 县</w>
不 下雨</w>
七 庙</w>
七 州</w>
一万 二千</w>
骁 卫</w>
雷 鸣</w>
集 中
阿 剌
豹 子</w>
谋 生</w>
蒙 恬</w>
荒 凉</w>
自以为 是</w>
肢 体</w>
穿 透</w>
空 隙</w>
祸 事</w>
祥 符</w>
神 主
真 德秀</w>
王 奂</w>
海 中</w>
治 军</w>
欢 迎</w>
案 卷</w>
柳 树</w>
李成 梁</w>
李 如
本 郡</w>
早 到晚</w>
无 忧</w>
改 立</w>
探 求</w>
所 奏</w>
意 识</w>
惠 卿</w>
总 揽</w>
御 用</w>
彰 德</w>
弃 官</w>
就 会
少 诚</w>
富 强</w>
实 践</w>
威 德</w>
奇 妙</w>
天 柱</w>
坐 席</w>
咨 议</w>
合 在一起</w>
司天 之</w>
可 信</w>
南 畿</w>
刘 腾</w>
划 定</w>
内 侧</w>
俯 身</w>
伤 感</w>
令 其</w>
他 常</w>
从 早到晚</w>
之 忧</w>
丑 奴</w>
不 发</w>
三 篇</w>
飞 去</w>
领 悟</w>
露 水</w>
阅 览</w>
适 中</w>
迫 不得已</w>
趁 势</w>
贤良 方正</w>
证 实</w>
许 配给</w>
要 务</w>
虐 待</w>
自 取</w>
禁 卫</w>
独断 专行</w>
火 气</w>
洛 阳人</w>
江 充</w>
李惟 岳</w>
李 轨</w>
李 珏</w>
李 植</w>
杀 人
朝 歌</w>
朝 任</w>
晴 朗</w>
明 主</w>
斩 断</w>
文 本</w>
敌 营</w>
改 过</w>
振 作</w>
挖 出</w>
打 着</w>
所 指</w>
恩 义</w>
归 葬</w>
广 王</w>
并 排</w>
学 到</w>
嬉 戏</w>
委 婉</w>
姑 姑</w>
奥 妙</w>
大体 上</w>
图 纹</w>
命 中</w>
刘文 静</w>
刘 彦
冯 保</w>
元 起</w>
佩 剑</w>
位 列</w>
以 本</w>
仆 从</w>
交 还</w>
亢 宿</w>
不知 所
上 午</w>
龚 遂</w>
齐 献</w>
黄 巾</w>
高 琪</w>
骄 傲
隐 没</w>
限 于</w>
陈 郡</w>
阳 经</w>
释 之</w>
酒 菜</w>
都 护</w>
邪 僻</w>
迫 于</w>
贾 诩</w>
谏 诤</w>
要 挟</w>
行 船</w>
行 拜</w>
虞 诩</w>
舍 不得</w>
罗 列</w>
端 坐</w>
突然 袭击</w>
疟 疾</w>
留 用</w>
留 异</w>
王 骥</w>
王 显</w>
王 振</w>
王 之
燕 山</w>
灵 宫</w>
淄 青</w>
济 宁</w>
洗 手</w>
永 泰</w>
此 话</w>
校 正</w>
杨 复</w>
杨 士奇</w>
李 崇
有 功
断 定</w>
改 建</w>
收 殓</w>
指 斥</w>
拔 剑</w>
才 行</w>
悬 空</w>
张 释之</w>
康 居</w>
家 室</w>
实 质</w>
安 陵</w>
失 地</w>
大 学</w>
大 姓</w>
嚣 张</w>
周公 旦</w>
同 光</w>
吉 温</w>
取 悦</w>
前 世</w>
刘 从</w>
分 之二</w>
击 打</w>
减 损</w>
偏 远</w>
俊 杰</w>
井 中</w>
于 谦</w>
为 本</w>
专 用</w>
不 胜
下 陷</w>
三 台</w>
万 事
驯 服</w>
首 位</w>
风 化</w>
顾 彦
韦 后</w>
随 机应变</w>
院 中</w>
陆 腾</w>
阵 前</w>
长 满</w>
镇 海</w>
遭 灾</w>
边境 地区</w>
边 陲</w>
赠 予</w>
赔 偿</w>
贼 首</w>
贪 污
调 节</w>
讥 刺</w>
萧 惠
萧 思
莎 车</w>
腰 斩</w>
职 官</w>
考 虑
群 众</w>
繁 殖</w>
紧 靠</w>
私 事</w>
研 习</w>
石 缝</w>
王 茂</w>
率 地</w>
狠 毒</w>
爪 牙</w>
火 炬</w>
湘 江</w>
武 门</w>
李匡 威</w>
文 吏</w>
敞 开</w>
摄 政</w>
揭 露</w>
捣 毁</w>
悖 逆</w>
庆 幸</w>
平 衡</w>
常 例</w>
小 山</w>
寓 所</w>
定 都</w>
安 道</w>
大 余</w>
复 职</w>
声 言</w>
嗣 业</w>
商 贩</w>
君 命</w>
吕 太后</w>
同 日</w>
司马 元显</w>
反 正</w>
南 人</w>
刘知 远</w>
出 汗</w>
兴 县</w>
公 是</w>
先 圣</w>
僧 珍</w>
侵 吞</w>
交 接</w>
二十 一</w>
九 十岁</w>
举 办</w>
临 死</w>
下韶 说</w>
一 经</w>
高士 廉</w>
飞 驰</w>
非 为</w>
隘 口</w>
随 州</w>
闻 到</w>
鉴 戒</w>
酌 情</w>
避 暑</w>
选 出</w>
退 避</w>
裴 延龄</w>
荣 禄</w>
荡 荡</w>
背 部</w>
老 妇</w>
竖 起</w>
租 庸</w>
皇 统</w>
留 宿</w>
沂 水</w>
污 浊</w>
汝 南郡</w>
武 备</w>
桑 叶</w>
来 护儿</w>
朱友 谦</w>
木 料</w>
替 换</w>
景 明</w>
晋 君</w>
显 德</w>
易 于</w>
明 珠</w>
才 识</w>
成 立</w>
戏 弄</w>
慈 母</w>
恶 劣</w>
开 端</w>
康 延
尚 有</w>
封 立</w>
家 家</w>
家 伙</w>
宫 观</w>
官 籍</w>
孔 雀</w>
堂 堂</w>
回 拜</w>
嘴 巴</w>
善 政</w>
善 心</w>
吉 州</w>
北 魏军</w>
北 向</w>
加 害</w>
划 归</w>
出 猎</w>
其 气</w>
兵 营</w>
六 气</w>
公 婆</w>
人 群</w>
乐 官</w>
之 兆</w>
两 端</w>
两 广</w>
专 管</w>
万 顷</w>
面 见</w>
进 为</w>
运 气</w>
赫连 定</w>
赃 物</w>
谏 言</w>
而 动</w>
籍 没</w>
筑 成</w>
突 通</w>
穆 子</w>
看 过</w>
看 得
甘 茂</w>
献 策</w>
牵 累</w>
清 晰</w>
深 浅</w>
泰 宁</w>
汉 州</w>
段 秀实</w>
此 洞</w>
歌 词</w>
棺 椁</w>
标 记</w>
杨 应龙</w>
李 大
有 效</w>
曹 魏</w>
旧 地</w>
抢 先</w>
抚 育</w>
扩 充</w>
打 扫</w>
愁 苦</w>
心 神</w>
彦 范</w>
建 州</w>
己 见</w>
左 良玉</w>
崔 生</w>
屈 辱</w>
富 豪</w>
宝 器</w>
守 候</w>
大 帅</w>
坚 持
周 必
司马 师</w>
司 命</w>
受 到
发 达</w>
即 令</w>
危 机</w>
单 骑</w>
北 燕</w>
北 地区</w>
包 含</w>
初 任</w>
列 出</w>
几 百里</w>
养 性</w>
光 启</w>
传 扬</w>
九 畴</w>
乐 宫</w>
之 变</w>
严 格
两 宫</w>
东 都</w>
东 进</w>
丙 吉</w>
不能 自己</w>
不 朽</w>
不 开</w>
不 分</w>
万 余
一百 多里</w>
一百 余</w>
顷 刻
针 对</w>
酒 色</w>
逍 遥</w>
转 弯</w>
赠 官</w>
贺 拔</w>
调 整</w>
详 稳</w>
诛 除</w>
诘 问</w>
认 可</w>
解 下</w>
蜂 起</w>
萧 铣</w>
苦 难</w>
给 与</w>
终 南山</w>
筋 骨</w>
稻 谷</w>
禽 鸟</w>
礼 帽</w>
皮 毛</w>
田 里</w>
王智 兴</w>
王 郎</w>
猿 猴</w>
潜 善</w>
源 子</w>
消 瘦</w>
水 战</w>
毒 害</w>
武 器
横 亘</w>
梁 孝王</w>
李继 岌
李 国
李 元</w>
本 土</w>
未 满</w>
景 山</w>
文 成</w>
收 聚</w>
擂 鼓</w>
搜 寻</w>
拂 晓</w>
惩 戒</w>
情 况
心 胸</w>
微 臣</w>
归 罪于</w>
归 宿</w>
张延 赏</w>
平 安无事</w>
常 用</w>
师 父</w>
州 事</w>
岐 山</w>
小 利</w>
宗 泽</w>
宗 元</w>
孝 成</w>
大 帝</w>
大 于</w>
嗟 叹</w>
喜 怒
君 父</w>
吕不 韦</w>
同 郡</w>
同 德</w>
各 得其所</w>
司马 孚</w>
右 散</w>
句 话</w>
卫 王</w>
刘 章</w>
刘 承
入 境</w>
光 荣</w>
供 品</w>
伊 水</w>
任 右</w>
仅 次于</w>
九 次</w>
之 乐</w>
丹 水</w>
东 阁</w>
不 符</w>
上 言</w>
一百 八十</w>
魏 博
颜 竣</w>
陵 人</w>
除 害</w>
陈留 王</w>
采 取
远 古</w>
进 奏</w>
赴 宴</w>
贼 帅</w>
谋 士</w>
谋 利</w>
讲 论</w>
觐 见</w>
西 北面</w>
行 政</w>
蛊 惑</w>
薛 仁
萧 懿</w>
舍 利</w>
耻 于</w>
继 光</w>
纪 纲</w>
繁 茂</w>
紫 金</w>
称 雄</w>
石 室</w>
盗 匪</w>
申 述</w>
田 宅</w>
王 基</w>
玉 环</w>
献 身</w>
燕 兵</w>
灵 芝</w>
渭 南</w>
沙钵 略</w>
汉 族</w>
水 潭</w>
比 赛</w>
森 严</w>
束 面</w>
未 尝</w>
有 着</w>
有 别</w>
曾 多次</w>
曲 阳</w>
是 非
昭 陵</w>
春 夏</w>
接 收</w>
拿 走</w>
扶 助</w>
打 垮</w>
惊 愕</w>
悼 念</w>
恭敬 敬</w>
恭 恭敬敬</w>
归 彦</w>
张 邈</w>
张 奂</w>
弘 文馆</w>
庆 则</w>
幸 而</w>
巨 鹿</w>
左 金吾</w>
山 丘</w>
就是 指</w>
尘 世</w>
尔 雅</w>
宫 禁</w>
宗 正卿</w>
宋 子</w>
孙 叔
存 有</w>
威 权</w>
姬 妾</w>
天 锡</w>
大 石头</w>
大 捷</w>
外 任</w>
坠 入</w>
四十 岁</w>
四 千人</w>
喜 事</w>
吕公 著</w>
向 西行</w>
后 部</w>
叹 服</w>
卿 相</w>
卫 侯</w>
刘 玄</w>
刘 湛</w>
几 千
写 得</w>
其 功</w>
其 兄</w>
关键 在于</w>
会 战</w>
人 身</w>
九 条</w>
不 由</w>
万 石</w>
麋 鹿</w>
鲤 鱼</w>
魁 梧</w>
高 官
首 辅</w>
饮 用</w>
顺 宗</w>
顶 端</w>
青 年</w>
雄 军</w>
陆 续</w>
陆 抗</w>
那 边</w>
跌 倒</w>
赃 枉法</w>
贪 赃枉法</w>
讲 得</w>
草 树木</w>
范 质</w>
芳 香</w>
花 草树木</w>
自 缢</w>
自 取
纪 律</w>
简 易</w>
签 署</w>
秉 性</w>
礼 器</w>
看 起来</w>
皇 亲
皇亲 国戚</w>
病 愈</w>
生 来</w>
王司马 伦</w>
王 高</w>
犀 牛</w>
熄 灭</w>
沙 河</w>
沉 着</w>
水 土</w>
武 王
横 向</w>
桓 彦范</w>
树 干</w>
查 验</w>
来 得</w>
李 仲
昏 君</w>
日月 星辰</w>
无 计
文 饰</w>
敲 门</w>
掠 取</w>
扎 寨</w>
想 见</w>
怪 事</w>
年 份</w>
左卫 率</w>
居 处</w>
尺 寸</w>
封 赠</w>
密 州</w>
完 好</w>
嫂 子</w>
姑 洗</w>
妄 自</w>
奔 往</w>
夹 谷</w>
太 微</w>
太 大</w>
大 汉</w>
增 强</w>
坐 罪</w>
品 评</w>
吴 越王</w>
吕 惠卿</w>
叹 气</w>
参 照</w>
半 个</w>
午 时</w>
十 三个</w>
军 备</w>
兴 亡</w>
免 死</w>
光 庭</w>
先 用</w>
元 勋</w>
何 时</w>
伯 温</w>
伏 羲</w>
任 满</w>
他 作</w>
从 征</w>
人 率</w>
二 名</w>
乾 归</w>
三 颗</w>
一 路上</w>
齐 王
魏 国公</w>
邵 陵</w>
这 就是说</w>
迁 入</w>
越 人</w>
贪 财</w>
谋 克</w>
调 往</w>
调 回</w>
言 诗</w>
获 得
苏 醒</w>
自 觉</w>
膝 盖</w>
编 织</w>
编 入</w>
繁 衍</w>
精 密</w>
章 武</w>
真实 情况</w>
相 斗</w>
直 指</w>
目 睹</w>
田 横</w>
田 弘正</w>
生 计</w>
潜 伏</w>
漕 河</w>
清 清
波 涛</w>
武 仙</w>
正 午</w>
杨 廷
李 隆
李 宪</w>
服 从命令</w>
曲 江</w>
普 天
无 双</w>
文 虎</w>
救 火</w>
攻 不下</w>
披 靡</w>
怨 仇</w>
怠 惰</w>
心 一意</w>
得 名</w>
府 上</w>
帝 时</w>
左 光
工 役</w>
山 岳</w>
官 邸</w>
学 会</w>
大 雅</w>
大 车</w>
大 节</w>
大 受</w>
外 侧</w>
坚 强</w>
地 狱</w>
因 素</w>
四 天</w>
和 睦
吴 少诚</w>
合 浦</w>
司 法
号 召</w>
史 籍</w>
可 施</w>
厢 房</w>
原 吉</w>
占 验</w>
勾 践</w>
动 众</w>
刘 骏</w>
刘 悟</w>
冠 服</w>
养 马</w>
典 签</w>
全 靠</w>
入 寇</w>
元 略</w>
低 微</w>
五 千户</w>
之 志</w>
主 子</w>
中 牟</w>
两 手</w>
世 担</w>
下 到</w>
一 周</w>
齐 武帝</w>
齐 丘</w>
魁 伟</w>
顺 德</w>
震 怒</w>
降 附</w>
阐 述</w>
轨 道</w>
谕 告</w>
讲 明</w>
讲 官</w>
讲 信用</w>
西 郊</w>
衰 竭</w>
蜀 军</w>
自 居</w>
自 刎</w>
胡 作
而 定</w>
群 山</w>
编 纂</w>
缓 和</w>
结 冰</w>
穷 究</w>
直 隶</w>
玺 印</w>
王 萧</w>
玄 妙</w>
爱 妾</w>
淳 熙</w>
海 岛</w>
毛 色</w>
每 有</w>
殷 浩</w>
楚 楚</w>
棵 树</w>
柔 软</w>
杨 奉</w>
村 民</w>
有 水</w>
昌 为</w>
无 须</w>
方 人</w>
敲 打</w>
敌 众</w>
掘 开</w>
慎 行</w>
惊 叹</w>
恼 恨</w>
忠 烈</w>
徐 氏</w>
律 法</w>
归 路</w>
张文 礼</w>
开 挖</w>
建 了</w>
延 岑</w>
广 南</w>
平 侯</w>
岐 王</w>
尽心 尽力</w>
宋 将</w>
安 都</w>
安 康</w>
守 道</w>
太白 金星</w>
太 子
太 兴</w>
大 盗</w>
夏 代</w>
圣 哲</w>
国 用</w>
四 门</w>
唐 穆宗</w>
品 质</w>
和睦 相处</w>
同 伴</w>
合 拢</w>
卫 辰</w>
华 歆</w>
几 人</w>
兴 师
全 体</w>
入 殓</w>
光 武
元 礼</w>
侯 君集</w>
会 聚</w>
优 势</w>
众 军</w>
任 国子</w>
二千 里</w>
二 万多</w>
丑 恶</w>
下 策</w>
上 次</w>
万事 万物</w>
一百 个</w>
一 般
齐 高帝</w>
鲜 明</w>
高 堂</w>
马 厩</w>
额 头</w>
阳明 胃</w>
铢 钱</w>
道 旁</w>
调 解</w>
讲 读</w>
袒 露</w>
蚩 尤</w>
范 蠡</w>
范 氏</w>
自 号</w>
胡作 非为</w>
肢 解</w>
肠 胃</w>
老头 儿</w>
类 人</w>
策 马</w>
第 八</w>
种 族</w>
监 生</w>
留 有</w>
特 赦</w>
燕 昭王</w>
滋 长</w>
游 荡</w>
水 患</w>
此 星</w>
楚 昭王</w>
棍 棒</w>
梓 潼</w>
查 办</w>
极 刑</w>
本 道</w>
本 源</w>
服 务</w>
有 限</w>
最 小</w>
曲 调</w>
斯 椿</w>
断 案</w>
整 整</w>
敬 则</w>
放 开</w>
推 论</w>
按 理</w>
成 周</w>
慕容 永</w>
慎 重
念 经</w>
志 趣</w>
微 子</w>
度 过</w>
并 立</w>
山海 关</w>
官 僚</w>
孤 城</w>
姚 元</w>
头 衔</w>
外 孙</w>
士 族</w>
名 额</w>
发 扬
华 宫</w>
半 路</w>
加 工</w>
几百 名</w>
养 成</w>
兵 势</w>
公 从</w>
八 九</w>
元 海</w>
做 好事</w>
住 房</w>
伺 机</w>
伏 乾归</w>
人之 常情</w>
亡 者</w>
五 声</w>
九 种</w>
举 措</w>
严 寒</w>
严 刑
东 安</w>
不 拘
一举 一动</w>
一 世</w>
黎 州</w>
食 盐</w>
隐 秘</w>
陡 削</w>
阻 卜</w>
金 牌</w>
郁林 王</w>
选 为</w>
这 家</w>
返 京</w>
过 江</w>
辨 明</w>
角 宿</w>
西 蜀</w>
袁 州</w>
萧 绎</w>
范 阳
膀 胱
膀胱 经</w>
肃 穆</w>
经 验</w>
纯 洁</w>
紧急 情况</w>
秦 兵</w>
离 心</w>
皇太 孙</w>
由此 可见</w>
王守 澄</w>
王 法</w>
特 征</w>
燕 铁木</w>
热 病</w>
清 洁</w>
楚 地</w>
栽 种</w>
树 根</w>
极 端</w>
杨 大
杜 伏威</w>
朱 博</w>
景 色</w>
时 局</w>
旧 部</w>
教 练</w>
收 下</w>
擒 拿</w>
惩 办</w>
思 慕</w>
怀 抱</w>
忠 实</w>
徐孝 嗣</w>
徐 知
当 值</w>
张 扬</w>
张 俊
弘 景</w>
开 进</w>
幽 静</w>
岁 时</w>
尽 数</w>
小 功</w>
封 锁</w>
宽 松</w>
宝 鼎</w>
宝 座</w>
孟 养</w>
孙叔 敖</w>
奉 表</w>
大 呼</w>
国 力</w>
园 中</w>
四 座</w>
喧 闹</w>
品 性</w>
告 成</w>
只 知</w>
古 制</w>
受 禅</w>
去 留</w>
升 格</w>
化 成</w>
冒 充</w>
僚 佐</w>
住 在一起</w>
优 良</w>
优 异</w>
众 宾</w>
众 官</w>
于 烈</w>
事 者</w>
之 东</w>
严 刑</w>
两 季</w>
龙 江</w>
黄 潜善</w>
飞 奔</w>
领 有</w>
间 隙</w>
长 陵</w>
金 符</w>
都 市</w>
郭 淮</w>
通 婚</w>
车 载</w>
身 居
赵 思</w>
评 事</w>
誓 言</w>
誓 死</w>
詹 事
西 侧</w>
蓟 城</w>
舒 展</w>
署 名</w>
缺 失</w>
稍 加</w>
禁 卫军</w>
破 敌</w>
留 正</w>
田 赋</w>
田 子</w>
生了 病</w>
甄 琛</w>
琴 瑟</w>
灵 车</w>
激 昂</w>
泸 州</w>
注 解</w>
没 敢</w>
水 井</w>
气 量</w>
正 己</w>
杨 秀</w>
李 牧</w>
李 抱
朵 儿</w>
有 神</w>
有 益于</w>
月 令</w>
昭 为</w>
文 化</w>
数 千
收 容</w>
捍 卫</w>
拉 开</w>
扬 名</w>
扩 建</w>
慕容 绍宗</w>
愤 慨</w>
急 难</w>
志 愿</w>
心 诚意</w>
心 所欲</w>
循 环</w>
御 座</w>
很 重</w>
往 后</w>
彦 回</w>
形 迹</w>
当 众</w>
归 乡</w>
张 亮</w>
弓 弦</w>
开 发</w>
布 告</w>
安 顿</w>
学 识
姜 太公</w>
天 晴</w>
堆积 如山</w>
国 难</w>
国 之君</w>
四十 六</w>
器 量</w>
告 退</w>
合 作</w>
司 射</w>
叠 叠</w>
危 宿</w>
危 及</w>
博 览</w>
南 迁</w>
北 路</w>
勇 善战</w>
加 同</w>
凝 结</w>
全 家人</w>
入 贡</w>
充 分
偏 私</w>
俗 话说</w>
侯 萧
以 图</w>
人 入</w>
亲 朋</w>
亡命 之徒</w>
举 行
严 守</w>
万 乘</w>
一年 四季</w>
一 刻</w>
一 列</w>
黄 巢
领 受</w>
随 心所欲</w>
闹 饥荒</w>
重 伤</w>
选 人</w>
边 缘</w>
辞 藻</w>
转 变</w>
赵 南星</w>
走 来</w>
资 本</w>
贫 乏</w>
诸 公</w>
西 王</w>
蓍 草</w>
蒋 琬</w>
荆 山</w>
胜 气</w>
级 别</w>
精 诚</w>
策 应</w>
筑 堤</w>
监 护</w>
畿 内</w>
王 李</w>
济 阴</w>
流 注</w>
河 渠</w>
沛 国</w>
沙 门</w>
沉 静</w>
池 中</w>
汝 砺</w>
汉 家</w>
气 化</w>
武 皇
楚 客</w>
杂 草</w>
机 行事</w>
朱 砂</w>
有 德
曹 节</w>
晓 得</w>
晋 卿</w>
无计 可施</w>
文 龙</w>
收 购</w>
挥 动</w>
房 州</w>
戚 继光</w>
慨 叹</w>
悬 殊</w>
快 点</w>
张 绣</w>
引 发</w>
开 头</w>
开 初</w>
建 初</w>
建 为</w>
希 亮</w>
币 帛</w>
山 大川</w>
小 屋</w>
寿 王</w>
家 贫</w>
安 思
宁 陵</w>
孔 熙</w>
大 举
复 杂</w>
围 猎</w>
回 朝后</w>
喜 鹊</w>
唐 末</w>
呵 叱</w>
周 游</w>
向北 走</w>
名 目</w>
史 册</w>
发扬 光大</w>
历 时</w>
南 路</w>
单 人</w>
匾 额</w>
刘义 真</w>
冤 情</w>
其 人</w>
兵 备</w>
关 卡</w>
公 派</w>
偏 袒</w>
作 怪</w>
低 洼</w>
伤 口</w>
五 六</w>
二 三</w>
之 象</w>
之 西</w>
丰 年</w>
东 关</w>
下韶 书</w>
三十 多年</w>
万 荣</w>
一 斤</w>
一 幅</w>
一 为</w>
首 饰</w>
饭 后</w>
韦 安石</w>
隧 道</w>
院 使</w>
陈 群</w>
长长 的</w>
鉴 于</w>
郭 璞</w>
送 走</w>
退 隐</w>
辅 导</w>
轻 率地</w>
试 用</w>
落 成</w>
萧渊 明</w>
萧 赜</w>
荣 荣</w>
苑 囿</w>
缪 公</w>
管 子</w>
简 朴</w>
私 家</w>
神 气</w>
矮 小</w>
短 命</w>
相 承</w>
相 告</w>
相 减</w>
甲 子日</w>
王 邑</w>
特 勒</w>
牵 牛</w>
父 王</w>
熊 廷弼</w>
然 无
烟 火</w>
炼 丹</w>
火 焰</w>
津 液</w>
汪 应
污 辱</w>
汉 灵帝</w>
汉 明帝</w>
汀 州</w>
此 次</w>
柬 之</w>
权 变</w>
有 名气</w>
日 光</w>
无 阻</w>
文 襄帝</w>
文 件</w>
整 日</w>
数 据</w>
敌 虏</w>
改 过自新</w>
指 教</w>
扔 下</w>
忧 郁</w>
忧 心</w>
归 入</w>
张 柬之</w>
张 方</w>
弘 信</w>
开 采</w>
建 有</w>
左 司
屯 扎</w>
少 尹</w>
少 女</w>
宣 宗
安 童</w>
学识 渊博</w>
孝 行</w>
孔 丘</w>
太 上</w>
天下 大事</w>
天 纲</w>
天 年</w>
天 宝
大 雾</w>
四十 八</w>
四 百户</w>
启 民</w>
司 礼
台 阁</w>
古 弼</w>
发 布
卫 队</w>
博 学
十余 年</w>
十 来
北 道</w>
刺 探</w>
刘 邵</w>
刘 悛</w>
列 队</w>
养 病</w>
共 工</w>
六 百
入 阁</w>
光 化</w>
储 蓄</w>
偕 同</w>
假 意</w>
侍 中
伯 升</w>
五十 两</w>
五 座</w>
二百 万</w>
二 两</w>
为 君</w>
专 卖</w>
不 休</w>
一 家人</w>
鼓 舞</w>
黄 裳</w>
麾 下</w>
魏 相</w>
高 肇</w>
飞 马</w>
韩 遂</w>
韦 昭
陈 敬</w>
陆 法</w>
钦 佩</w>
钥 匙</w>
遗 体</w>
送 入</w>
这 般</w>
辽 主</w>
身 材
贬 低</w>
贫 瘠</w>
诡 计</w>
诚 如</w>
西 去</w>
裁 断</w>
衰 退</w>
蛮 横</w>
菜 肴</w>
药 方</w>
草 稿</w>
茂 才</w>
自 用</w>
肆 州</w>
肃 然</w>
纳 入</w>
紧 张</w>
竖 眼</w>
穆 皇后</w>
神 龟</w>
神 功</w>
矗 立</w>
督 护</w>
真 伪</w>
盘 子</w>
用 事</w>
现 在
王 祥</w>
沉 湎</w>
歌 声</w>
横 海</w>
桃 花</w>
松 潘</w>
杨慎 矜</w>
李 重
本 质</w>
本 心</w>
昌 黎</w>
时 为</w>
时 世</w>
斧 子</w>
收 受</w>
接 续</w>
报 捷</w>
扫 荡</w>
成 宗</w>
恳 切
恳切 地</w>
忻 州</w>
往北 行</w>
张 俭</w>
延 朗</w>
延 昌</w>
并 行</w>
常 清</w>
帘 子</w>
尽 职</w>
对 话</w>
官 属</w>
孟 达</w>
委 以</w>
奉 公</w>
夺 走</w>
失 常</w>
外 貌</w>
士 众</w>
圣 驾</w>
各 府</w>
各 城</w>
可 爱</w>
句 子</w>
升 职</w>
十 几年</w>
办 不到</w>
劝 诫</w>
冯 延
内 廷</w>
其 害</w>
兵 甲</w>
兰 州</w>
公 有</w>
元 老</w>
元 方</w>
假 话</w>
休 整</w>
乐 浪</w>
之 急</w>
之 作</w>
之 亲</w>
主 公</w>
为 师</w>
临 到</w>
中书 平</w>
不以为 然</w>
不 良</w>
不 爱</w>
上 船</w>
上 供</w>
一 门</w>
一 双</w>
一 仗</w>
鼓 噪</w>
鲜 艳</w>
集 聚</w>
门 庭</w>
金 华</w>
郭 勋</w>
跨 过</w>
越 岭</w>
设宴 招待</w>
规 谏</w>
裴 炎</w>
虚 空</w>
落 泪</w>
舒 缓</w>
自然 界</w>
统 治
粮 价</w>
穿 衣</w>
离 析</w>
祭 文</w>
真 为</w>
理 会</w>
王公 大人</w>
王 溥</w>
王 仁
牵 着</w>
爆 发</w>
烦 闷</w>
深 潭</w>
海 船</w>
河 里</w>
汶 水</w>
江 上</w>
每 亩</w>
欢 呼</w>
来 源</w>
未 定</w>
有 数</w>
暴 戾</w>
景 灵宫</w>
明 朗</w>
旧 友</w>
无 形</w>
方 平</w>
文 通</w>
抬 起</w>
技 能</w>
扶 立</w>
惑 乱</w>
心 灵</w>
徒 众</w>
彦 章</w>
张 超</w>
张 宪</w>
庄 园</w>
州 官</w>
山 腰</w>
寨 子</w>
寒 邪</w>
定 制</w>
子 良</w>
夹 住</w>
天 降</w>
多 户</w>
复 仇</w>
城 时</w>
围 棋</w>
困 厄</w>
四 郡</w>
后 军</w>
名 节</w>
吃 人</w>
叛 臣</w>
发布 命令</w>
南 方人</w>
华 皎</w>
北 王</w>
北 有</w>
剪 除</w>
刘休 仁</w>
刘 道
刘 胡</w>
凭 空</w>
几 丈</w>
公 羊</w>
任 太常</w>
介 子</w>
人 吃人</w>
亡 故</w>
乞 丐</w>
之 刑</w>
久 雨</w>
东 郊</w>
不 羁</w>
三 者</w>
齐 威王</w>
黄 衣</w>
鲁 君</w>
风 云</w>
顺 流</w>
附 着</w>
阴 人</w>
阳 虎</w>
阳 关</w>
闲 散</w>
错 过</w>
铁木 迭</w>
金 币</w>
郁 林</w>
遗 留下来</w>
送 礼</w>
退 军</w>
这 裹</w>
还 朝</w>
身 形</w>
赤 心</w>
贪 欲</w>
质 地</w>
范 文</w>
胜 军</w>
纪 念</w>
窦 泰</w>
祭 服</w>
石 氏</w>
畅 饮</w>
用 药</w>
甘 宁</w>
王 通</w>
王 甫</w>
王 弘
玄 成</w>
牲 口</w>
爱 卿</w>
照 亮</w>
灿 烂</w>
湛 之</w>
深 谋
流 沙</w>
水 师</w>
毕 师铎</w>
残 缺</w>
歌 曲</w>
柳 公
条 令</w>
杀 光</w>
朱 然</w>
普天 之下</w>
时 光</w>
无 言</w>
无 以</w>
无 为
施 恩惠</w>
新 河</w>
数以 千计</w>
拱 手
抽 打</w>
承 相</w>
患 有</w>
性 质</w>
忘 却</w>
往 下
引 以为
庸 俗</w>
康 生</w>
应 为</w>
州 兵</w>
岭 头</w>
屋 子里</w>
宣 传</w>
宗 人</w>
孺 子</w>
存 节</w>
存 放</w>
奶 妈</w>
太 湖</w>
太 叔</w>
天 数</w>
天 威</w>
大 兴
多 谋</w>
壮 大</w>
图 画</w>
四 万人</w>
周 天</w>
吟 诗</w>
各 王</w>
可 言</w>
可 求</w>
变 换</w>
十多 丈</w>
利害 关系</w>
冯 熙</w>
元 胄</w>
做 买卖</w>
偏 西</w>
佛 事</w>
会稽 山</w>
任 忠</w>
从 政</w>
五 路</w>
二十 余</w>
之 母</w>
两 翼</w>
不 成
三十 天</w>
一百 七十</w>
高 深</w>
飞 行</w>
韩 擒
韩擒 虎</w>
降 雪</w>
陈 武帝</w>
问 安</w>
配 偶</w>
进 用</w>
运 来</w>
车 辕</w>
趋 向</w>
趋 势</w>
赏 钱</w>
豪 爽</w>
详 情</w>
该 当</w>
装 着</w>
蜀 州</w>
蔡 叔</w>
苦 战</w>
良 策</w>
胜 非</w>
肾 经</w>
给 养</w>
箭 手</w>
管 叔</w>
禅 位</w>
石 烈
皇 考</w>
皇 亲</w>
百 世</w>
病 得</w>
现在 起</w>
王 翦</w>
王 王</w>
王 殷</w>
王 国宝</w>
猖 獗</w>
渭 河</w>
洛 周</w>
水 校尉</w>
气 息</w>
毛 诗</w>
正 妻</w>
栏 杆</w>
柔 顺</w>
李庭 芝</w>
李 白</w>
李 琪</w>
权 宜</w>
杀 身
朱 虚
服 事</w>
景 初</w>
昭 德</w>
明 池</w>
无 援</w>
握 住</w>
提 醒</w>
换 代</w>
投 宿</w>
执 中</w>
扈 从</w>
扇 子</w>
所 犯</w>
所 定</w>
感 念</w>
怀 柔</w>
御 敌</w>
弃 疾</w>
幸 好</w>
平 东</w>
巧 语</w>
崇 德</w>
山 泽</w>
山 峦</w>
尊 师</w>
宾 馆</w>
宾 主</w>
孟 贲</w>
委 以
委以 重任</w>
如 雷</w>
女 乐</w>
夷 陵</w>
大 魏</w>
大 而</w>
大 漠</w>
土 兵</w>
商 定</w>
吕 尚</w>
叶 法善</w>
县 子</w>
原 是</w>
原 地</w>
即 墨</w>
匡 扶</w>
包围 圈</w>
刻 有</w>
到 头</w>
利 弊</w>
几十 天</w>
决 一
军 于</w>
内 在</w>
养 父母</w>
兖 二州</w>
光禄 卿</w>
俭 约</w>
促 成</w>
依 前</w>
例 如</w>
位 为</w>
但 愿</w>
任 内</w>
仰 视</w>
从 现在起</w>
云 雨</w>
二十多 万</w>
乾 元</w>
之 路</w>
久 安</w>
丧 亡</w>
两 层</w>
两 万</w>
世 孙</w>
不 舍</w>
下 场</w>
三十 二年</w>
三 秦</w>
万 斤</w>
一千 里</w>
一 队</w>
高 煦</w>
高 孝
顾 惜</w>
韶 州</w>
霍 山</w>
门 窗</w>
门 楼</w>
酷 暑</w>
酌 量</w>
邕 州</w>
遍 野</w>
这 道</w>
读 学士</w>
误 用</w>
要 点</w>
褒 贬</w>
行 路</w>
虎 牙</w>
老 人家</w>
绛 色</w>
结 怨</w>
真 能</w>
真 假</w>
看 清</w>
盗 寇</w>
王 式</w>
状 元</w>
牛 角</w>
烦 琐</w>
温 子</w>
深 思
法 治</w>
氏 族</w>
武 事</w>
李隆 基</w>
服 气</w>
曹 氏</w>
暑 热</w>
显 然</w>
无 边</w>
文 灿</w>
敬 服</w>
放 火烧</w>
攀 附</w>
掉 下来</w>
抓 到</w>
抄 没</w>
所 到</w>
成 汉</w>
意 气</w>
患 者</w>
德 王</w>
微 微</w>
很 近</w>
开 路</w>
开 宝</w>
广 武</w>
并 论</w>
年 迈</w>
年 事
年事 已高</w>
平 川</w>
左 面</w>
居 官</w>
小 腿</w>
对 阵</w>
对 下</w>
宰 杀</w>
完颜 亮</w>
孤 单</w>
始 于</w>
头 牛</w>
天 元</w>
夏 贵</w>
后 路</w>
后 生</w>
名 讳</w>
只 想</w>
受 不了</w>
发 掘</w>
南 粤</w>
北 凉</w>
勇 敢
刘 兴
出 面</w>
军 长</w>
内 脏</w>
元 悦</w>
偷 看</w>
侍 读学士</w>
作 假</w>
伯 爵</w>
伏 波</w>
任 太尉</w>
五 千余</w>
之 宝</w>
主 考官</w>
丰 城</w>
不知所 措</w>
不同 寻常</w>
下 旨</w>
三 分之二</w>
一 本</w>
鸳 鸯</w>
骨 肉
香 火</w>
陵 君</w>
陵 侯</w>
降 生</w>
闯 入</w>
郡 府</w>
郑 清</w>
退 后</w>
贬 降</w>
诱 骗</w>
诏 旨</w>
许 都</w>
譬 如</w>
西南 夷</w>
虎 狼</w>
董 晋</w>
荣 华</w>
荒 远</w>
苗 傅</w>
良 民</w>
胜 景</w>
肝 脏</w>
聚 于</w>
联 盟</w>
老 家</w>
经 受</w>
细 密</w>
精 选</w>
米 价</w>
筑 巢</w>
第 九</w>
直 谏</w>
盆 子</w>
百 倍</w>
王 庶</w>
父 辈</w>
灰 尘</w>
清 道</w>
江 面</w>
江 淹</w>
汉 元帝</w>
水 谷</w>
气 色</w>
染 病</w>
林 钟</w>
李 焘</w>
日 常
整 修</w>
指 派</w>
抱 住</w>
抓 来</w>
忍 耐</w>
张 公
广 达</w>
广 明</w>
平原 郡</w>
常 景</w>
差 点</w>
嵇 康</w>
崖 石</w>
小 肠</w>
家 境</w>
定 陵</w>
宇文 直</w>
季 布</w>
孙 秀</w>
婕 妤</w>
姓 李</w>
奠 定</w>
奚 武</w>
奔 流</w>
奋 发</w>
头 盔</w>
天 泽</w>
大兴 土木</w>
大 钱</w>
大 利</w>
大 儿子</w>
复 位</w>
坐 镇</w>
回 绕</w>
四 镇</w>
唐 邕</w>
周 官</w>
吹 奏</w>
名 胜</w>
取 名为</w>
叔 琮</w>
叔 伯</w>
卧 床</w>
博 州</w>
南 麓</w>
午 门</w>
北 到</w>
加 深</w>
前后 后</w>
前 前后后</w>
判 度</w>
刘 敬
刘 尚</w>
出 为</w>
冲 毁</w>
兴 安</w>
兴 化</w>
关 中
关中 地区</w>
入 仕</w>
余 部</w>
人 主</w>
井 水</w>
云 龙</w>
于 阗</w>
二 匹</w>
久 久</w>
举 哀</w>
为 度</w>
两 里</w>
东 麓</w>
不 怎么</w>
不 全</w>
上 诉</w>
一百多 天</w>
一 章</w>
一 官</w>
黄 水</w>
鹰 扬</w>
鲍 叔</w>
高 敖
高敖 曹</w>
高 岳</w>
马 腾</w>
顺 昌</w>
雍 丘</w>
阆 州</w>
重 建</w>
逐 条</w>
迷 信</w>
边 民</w>
赵德 钧</w>
贮 存</w>
贡 赋</w>
诸葛 瑾</w>
诗 中</w>
诊 察</w>
表 白</w>
虞世 基</w>
藏 身</w>
落 山</w>
萌 生</w>
范 镇</w>
臧 洪</w>
纷 争</w>
红 漆</w>
神 妙</w>
督 师</w>
看 轻</w>
直 逼</w>
皇太 弟</w>
白 龙</w>
白 敏</w>
生 了</w>
王 珂</w>
王 方
王 尊</w>
猛 将</w>
照 着</w>
照 样</w>
煎 煮</w>
清清 楚楚</w>
清 谈</w>
消 难</w>
流 满面</w>
洗 刷</w>
沱 河</w>
沟 涧</w>
汪应 辰</w>
水 渠</w>
每 户</w>
死 而
武 略</w>
桌 子</w>
柔 和</w>
某 日</w>
杨 震</w>
李义 府</w>
李 回</w>
权 位</w>
术 数</w>
朝 议</w>
有 声</w>
晋 兵</w>
早 死</w>
攻 拔</w>
撤 掉</w>
挑 夫</w>
扬 起</w>
扫 平</w>
所 言</w>
成 事</w>
慷 慨
恰 遇</w>
循 行</w>
归 化</w>
张 嘉
张 万
延 请</w>
府 邸</w>
平 壤</w>
带 走</w>
布政 司</w>
已 尽</w>
尚 父</w>
宣 和</w>
孟 津</w>
孝 闵帝</w>
威 慑</w>
如 像</w>
大 堂</w>
大 城</w>
地 来</w>
四 颗星</w>
四 县</w>
四 千多</w>
告 老
向 东
同 三司</w>
合 计</w>
只 须</w>
南 府</w>
单 克宁</w>
十 九岁</w>
十 七
刘 焉</w>
刘 幽求</w>
军 旗</w>
共 享</w>
六十 五</w>
公 安</w>
俯 伏</w>
众 臣</w>
任 职
以 本官</w>
二千 五百</w>
二十 个</w>
乞 伏</w>
九 真</w>
为 耻</w>
为 奸</w>
两 朝</w>
不 高</w>
不 晚</w>
三 河</w>
三 千里</w>
一千 名</w>
一千 七百</w>
一 项</w>
一 户</w>
齐 衰</w>
黄 回</w>
马 氏</w>
首 都</w>
阮 籍</w>
邓 通</w>
通 政
这 么
辨 认</w>
转 过</w>
赵 括</w>
走 时</w>
贼 党</w>
贤 为</w>
诛 戮</w>
西 王母</w>
薛 举</w>
萧思 话</w>
荆 湖</w>
苍 蝇</w>
自取 灭亡</w>
自 愿</w>
能 比</w>
胡 广</w>
聚 居</w>
老 年</w>
紧 紧</w>
笛 子</w>
秀 丽</w>
禄 位</w>
瞧 不起</w>
省 去</w>
相 提
相提 并论</w>
盐 铁
申 请</w>
甘 草</w>
王 德</w>
父 子
熹 宗</w>
灵 位</w>
湍 急</w>
混 淆</w>
洮 州</w>
洞 察</w>
注 人</w>
河中 府</w>
沮渠 牧</w>
江 岸</w>
江 宁</w>
永 为</w>
水 气</w>
民 风</w>
民 财</w>
比 例</w>
歌 辞</w>
梁 冀
查 阅</w>
杨 洪</w>
束 缚</w>
杜 暹</w>
杜 威</w>
李 揆</w>
李 固
本 业</w>
末 端</w>
木 筏</w>
旷 野</w>
无为 而治</w>
无 心</w>
施 礼</w>
攻 讨</w>
提 问</w>
执 政者</w>
打 消</w>
感 伤</w>
悔 过</w>
忠 嗣</w>
徒 然</w>
张敬 达</w>
延 误</w>
左 翼</w>
州 军</w>
崩 瓦解</w>
崇 义</w>
小 径</w>
寂 静</w>
容 颜</w>
家 境
宫 太子</w>
孟 氏</w>
姐 妹</w>
如 初</w>
夷 简</w>
天 师</w>
夜 裹</w>
多 用</w>
填 塞</w>
城 后</w>
地 为</w>
在 押</w>
土 崩瓦解</w>
命 中
命中 注定</w>
呈 送</w>
名 山大川</w>
吃 了
吃了 饭</w>
可 疑</w>
可 否</w>
另 见</w>
南 道</w>
南 归</w>
卑 鄙</w>
千 余
刘 道</w>
刘 继
刘 旦</w>
军 纪</w>
兵 丁</w>
公 室</w>
公 到</w>
先 于</w>
健 康</w>
信 以为
信以为 真</w>
伪 装</w>
伏 罪</w>
仪 制</w>
于 阗
事 时</w>
之 任</w>
主 说</w>
两 河</w>
东 宫太子</w>
上 空</w>
三 晋</w>
龙 山</w>
齐 明帝</w>
齐 心
齐 宣王</w>
黑 山</w>
音 调</w>
韩 游</w>
银 印</w>
这 份</w>
轻 骑兵</w>
越 王
越王 勾</w>
赵 在</w>
赵 伯
贾 后</w>
谷 口</w>
谈 笑</w>
让 土地</w>
襄 国</w>
行 文</w>
行 为
营 室</w>
花 言
致 病</w>
维 系</w>
给 钱</w>
经 筵</w>
笨 拙</w>
秦 惠王</w>
离 宫</w>
礼 贤
知 己</w>
睿 智</w>
相 亲</w>
直 立</w>
盐 官</w>
百 匹</w>
畜 养</w>
由此 可知</w>
田 中</w>
生 物</w>
理 事</w>
王 霸</w>
王 伦</w>
熔 化</w>
渭 北</w>
泻 法</w>
河 池</w>
河 图</w>
江 阳</w>
江 县</w>
永 光</w>
此 书</w>
正 字</w>
正 像</w>
杨 思
朱 宸
朱宸 濠</w>
文 惠</w>
敌 境</w>
改 朝
搜 括</w>
抒 发</w>
打 鱼</w>
所 害</w>
感到 恐惧</w>
徐 文
徐 国</w>
张 觉</w>
建 功</w>
底 部</w>
应 得</w>
巫 山</w>
崔 群</w>
崔 杼</w>
属 地</w>
察 儿</w>
宇文 融</w>
孔 纬</w>
嫉 恨</w>
娄 师
奏 道</w>
天 雄军</w>
大 宝</w>
大 位</w>
国 师</w>
啼 哭</w>
哀 叹</w>
取 法</w>
叔 牙</w>
卫 上</w>
南 顿</w>
南 伐</w>
单 薄</w>
千 辆</w>
办 完</w>
割 让土地</w>
刘 怀
刘 休</w>
冲 天</w>
体 弱</w>
从 简</w>
事 实
九 族</w>
乌 程</w>
之 明</w>
之 役</w>
中 年</w>
丝 绵</w>
东 海郡</w>
不 敢
不 小</w>
不 作</w>
三 名</w>
鲁 阳</w>
鲁 昭公</w>
高 德
高 一丈</w>
静 江</w>
青 海</w>
霸 上</w>
雄 才
阴 阳
问 话</w>
造 福</w>
连 日</w>
近 于</w>
谈 及</w>
观 音</w>
西 蕃</w>
袁 氏</w>
表 露</w>
虞世 南</w>
花言 巧语</w>
自 我
肾 脏</w>
老 夫</w>
缔 结</w>
纵 横
红 衣</w>
米 饭</w>
礼 经</w>
破 格</w>
石 子</w>
短 暂</w>
皮 衣</w>
留 居</w>
甲 乙</w>
王 皇后</w>
玄 为</w>
物 力</w>
牛 肉</w>
激 动</w>
滋 味</w>
源 贺</w>
深谋 远虑</w>
江 彬</w>
桓 冲</w>
本 名</w>
望 族</w>
时 以</w>
日 落</w>
掩 护</w>
所 写</w>
愚 臣</w>
惯 于</w>
惊 慌
恸 哭</w>
总 结</w>
心 痛</w>
心 怀
归 属于</w>
弯 隆</w>
张 颢</w>
张 宿</w>
张 世杰</w>
庆 阳</w>
平 北</w>
帝 命</w>
师 丹</w>
属 实</w>
尊 位</w>
宜 用</w>
官 人</w>
官 为</w>
夸 奖</w>
太 清宫</w>
大 局</w>
城 旦</w>
地 府</w>
嗣 昌</w>
唐 括</w>
周 幽王</w>
合 之众</w>
受 罚</w>
卢 昶</w>
协 和</w>
勒 索</w>
刘 长</w>
分 子</w>
刀 刃</w>
出 示</w>
其 国</w>
六 次</w>
六 千人</w>
八 天</w>
健 在</w>
伸 展</w>
伦 理</w>
从 师</w>
仍 任</w>
亭 侯</w>
五 铢钱</w>
云 霄</w>
二 气</w>
乌 合之众</w>
为 阳</w>
中 酒</w>
东 厂</w>
不 和睦</w>
不 入</w>
三 倍</w>
黎 利</w>
高 昂</w>
高 唐</w>
骨 髓</w>
韦 处</w>
靖 康</w>
雨 露</w>
隆 昌</w>
隆 安</w>
陪 伴</w>
陈 觉</w>
附 属</w>
重 金</w>
重 修</w>
遨 游</w>
逃 归</w>
适 用</w>
这 片</w>
近 世</w>
运 回</w>
袋 子</w>
蜀 主</w>
虎 牢</w>
萧 子</w>
草 鞋</w>
自 已</w>
聚 积</w>
耶律 德</w>
而 易
考 绩</w>
置 司</w>
箕 宿</w>
策 试</w>
竹 简</w>
秦 二世</w>
种 地</w>
福 佑</w>
祖 父母</w>
督 军</w>
看 一看</w>
盛 名</w>
盐 法</w>
略 地</w>
田 荣</w>
王景 崇</w>
王 之道</w>
烧 香</w>
消 散</w>
浩 大</w>
汝 才</w>
正 遇</w>
横 渡</w>
李 愚</w>
李 德</w>
朱 玫</w>
末 世</w>
智 巧</w>
晋 悼公</w>
无穷 无尽</w>
无 暇</w>
无 奈</w>
文 选</w>
敦 促</w>
改 成</w>
摆 在</w>
投 水</w>
扶 余</w>
所 受</w>
战 术</w>
成 侯</w>
愚 见</w>
愍 帝</w>
情 怀</w>
德 义</w>
很 得</w>
强 兵</w>
弓 箭手</w>
建 炎</w>
廉 访
废 置</w>
干 户</w>
屈 从</w>
尽 到</w>
宋 孝武帝</w>
安 身</w>
安 仁</w>
守 节</w>
奔 波</w>
天 市</w>
大 开</w>
外 祖父</w>
地 神</w>
四 名</w>
命 于</w>
呼 延</w>
吕 纂</w>
各 异</w>
变 色</w>
受 赏</w>
发表 意见</w>
单 单</w>
别 部</w>
出 口</w>
几 岁</w>
公 正
全 节</w>
先 辈</w>
充 作</w>
僧 尼</w>
倾 心</w>
修 补</w>
保 密</w>
侍 从官</w>
仔 细
从 那
五 家</w>
二百 五十</w>
二 等</w>
九 分</w>
丽 江</w>
严 正</w>
严 实</w>
不 逊</w>
不 周</w>
三千 余</w>
三十 五年</w>
三 牲</w>
非 凡</w>
雍 王</w>
陨 石</w>
除 数</w>
院 里</w>
长 宁</w>
重 围</w>
道 而来</w>
道 生</w>
遇 难</w>
迟 迟</w>
远 道而来</w>
这 篇</w>
过 人</w>
边 镇</w>
边 患</w>
辩 护</w>
越来 越
赶 回</w>
赵彦 深</w>
解 缙</w>
西 门
裴 之
袁 盎
表 证</w>
蓝 玉</w>
草 房</w>
致 书</w>
老 者</w>
美 貌</w>
羊 马</w>
编 造</w>
第 三次</w>
突 击</w>
空 地</w>
祭 享</w>
石 雄</w>
石 米</w>
督 责</w>
省 察</w>
盐铁 使</w>
百余 人</w>
田 婴</w>
玩 乐</w>
王萧 绎</w>
王 直</w>
爱 子</w>
烹 煮</w>
潮 水</w>
清 查</w>
混 同</w>
消 灾</w>
海 路</w>
浑 身</w>
泥 沙</w>
江 革</w>
欢 欣</w>
欠 缺</w>
检 点</w>
极 度</w>
李 寿</w>
期 待</w>
有 愧</w>
昌 言</w>
无 意</w>
无 上</w>
方 国珍</w>
文 诏</w>
敬 晖</w>
收 拢</w>
拉 弓</w>
抵 触</w>
所 著</w>
愤 愤
德 泽</w>
往 常</w>
往 下</w>
张 天锡</w>
弑 君</w>
式 样</w>
弊 政</w>
廉访 司</w>
巡 狩</w>
岔 道</w>
山 嘴</w>
尘 埃</w>
宇文 忻</w>
子 夏</w>
嫁 娶</w>
如 一</w>
太 祝</w>
太 安</w>
增 派</w>
地 被</w>
圣 君</w>
四 角</w>
喜 庆</w>
后 辈</w>
可 靠</w>
占 候</w>
卜 式</w>
十 次</w>
力 行</w>
兼 职</w>
六 是</w>
六 分</w>
光 祖</w>
兄弟 二人</w>
修 正</w>
伊 吾</w>
仲 连</w>
以 德</w>
交 通
于 禁</w>
二十 八
二 颗</w>
为 准</w>
中 平</w>
中 大通</w>
两 件</w>
东 阿</w>
丕 扬</w>
下 嫁</w>
三百 匹</w>
丁 零</w>
骨 骼</w>
限 期</w>
降 福</w>
长 久
遮 盖</w>
遗 嘱</w>
迟 疑
连 横</w>
辞 退</w>
车 裂</w>
起 始</w>
赵 鞅</w>
赴 京</w>
赞 颂</w>
谷 城</w>
谨 守</w>
谈 起</w>
请 命</w>
诱 使</w>
诊 断</w>
见 闻</w>
裤 子</w>
行 驶</w>
虽 有</w>
荆 门</w>
自 一人</w>
腧 穴</w>
脏 腑</w>
胆 小</w>
肺 脏</w>
经 籍</w>
繁 荣</w>
离 德</w>
相 爱</w>
病 邪</w>
琐 碎</w>
玉 壁</w>
猜 测</w>
独 自一人</w>
爪 哇</w>
熟 虑</w>
渭 州</w>
渠 水</w>
涿 郡</w>
洪 熙</w>
沙 江</w>
沈攸 之
江 南
汝 南王</w>
水 运</w>
殷 代</w>
正 为</w>
次 第</w>
档 案</w>
格 式</w>
根 本
柳 城</w>
杨 文
来 来
杜 让</w>
村 里</w>
李抱 玉</w>
朝 纲</w>
有 块</w>
时 务</w>
方 城</w>
新 书</w>
新 丰</w>
斧 钺</w>
文 忠</w>
敝 邑</w>
摘 下</w>
推 托</w>
所 居</w>
想 用</w>
怎 样
快 慢</w>
张 汉
建 义</w>
年 初</w>
帝 登基</w>
左 谏议</w>
封 户</w>
寝 宫</w>
定 数</w>
孜 孜
字 彦
姑 母</w>
好 吃</w>
夫 余</w>
天 有</w>
大 驾</w>
嘉 平</w>
周必 大</w>
告老 还乡</w>
吴王 夫</w>
南 巡</w>
十余 里</w>
北 都</w>
出 殡</w>
凶 悍</w>
减 罪</w>
册 命</w>
典 故</w>
其 身</w>
六 安</w>
公 苻
八 卦</w>
全 琮</w>
俊 美</w>
何 在</w>
人 道</w>
人 性</w>
云 中
二 部</w>
乐 趣</w>
乌 丸</w>
之 以</w>
义 臣</w>
中 立</w>
世代 相传</w>
不 太</w>
下 临</w>
万 名</w>
一 空</w>
鹤 鸣</w>
鲁 山</w>
高 陵</w>
骄 奢
驾 着</w>
香 味</w>
颜 师
项 城</w>
雅 州</w>
雄才 大略</w>
门 槛</w>
长 治
长治 久安</w>
锦 州</w>
遗 风</w>
车 前</w>
足 少阴
足少阴 肾经</w>
越 是</w>
起 自</w>
费 力</w>
谬 误</w>
试 试</w>
褚 彦回</w>
蓄 养</w>
莫 测</w>
致 富</w>
脊 背</w>
耿 耿</w>
而 论</w>
而 亡</w>
考虑 一下</w>
羽 翼</w>
羞 惭</w>
罗 弘信</w>
继 续
第 四个</w>
积 度</w>
秦 代</w>
福 祉</w>
知 遇</w>
睦 州</w>
白 鹤</w>
生 意</w>
琉 璃</w>
现 任</w>
王 曾</w>
王 崇
焚 香</w>
炎 帝</w>
灰 烬</w>
清 口</w>
清 净</w>
海 王</w>
海 子</w>
洗 涤</w>
没 见</w>
殡 葬</w>
止 住</w>
楼 下</w>
树 皮</w>
查 核</w>
杨 椿</w>
李从 荣</w>
李 敏</w>
李 建
昭 侯</w>
无 德</w>
斧 头</w>
政 和</w>
改朝 换代</w>
抗 争</w>
户 数</w>
战斗 力</w>
战 国
急 攻</w>
怀 恩
得 象</w>
征 入</w>
当 阳</w>
张 绪</w>
库 房</w>
平 昌</w>
左光 斗</w>
左 相</w>
封 赐</w>
封 常清</w>
富 民</w>
密 令</w>
家 眷</w>
宜 于</w>
官 复
官复 原职</w>
孝 绪</w>
天 资</w>
天 复</w>
大 大
大 儒</w>
夜 郎</w>
外 围</w>
壮 观</w>
告 祭</w>
呈 递</w>
吕 禄</w>
同 甘
同 母</w>
叔 齐</w>
即 日</w>
十 匹</w>
区 区</w>
公 允</w>
八十 一</w>
先 贤</w>
元 昊</w>
倾 倒</w>
俯 首</w>
促 使</w>
何 武</w>
任 礼部</w>
仙 女</w>
人 君子</w>
五十 匹</w>
五 郡</w>
互 为</w>
乘 舆</w>
之 政</w>
主 国</w>
丹 徒</w>
两 颗</w>
不 备</w>
三百 余</w>
三十 五</w>
三 皇</w>
一百 户</w>
一 枝</w>
一 人
齐 全</w>
雄 州</w>
陈 公</w>
阴 经</w>
长 乐宫</w>
镶 嵌</w>
镇 国</w>
金银 财宝</w>
金 墉
采 摘</w>
郑 王</w>
那 座</w>
遗 忘</w>
道 场</w>
选 定</w>
退 居</w>
辞 令</w>
走 兽</w>
赏 罚
调 治</w>
西 华</w>
藏 于</w>
萌 芽</w>
荒 诞</w>
节 令</w>
致 敬</w>
致 力</w>
胸 部</w>
而 进</w>
老 和尚</w>
羽林 监</w>
缠 绕</w>
绝 壁</w>
离 心
离心 离德</w>
离 别</w>
祥 云</w>
祝 祷</w>
看 得</w>
直 冲</w>
白 日</w>
疏 忽</w>
留 存</w>
理 当</w>
王 来</w>
王 常</w>
王 宗</w>
王 义</w>
献 礼</w>
特 性</w>
满 后</w>
洪 皓</w>
洛 邑</w>
波 浪</w>
汝 阴</w>
永 忠</w>
殷 琰</w>
殷 景仁</w>
楚 人</w>
枢密 直</w>
杨嗣 复</w>
条 款</w>
李 皋</w>
李 同
李 公
杀身 之祸</w>
朱 弘
曲 意</w>
晏 婴</w>
早 灾</w>
日 方</w>
日 出</w>
新 平</w>
文 宣</w>
放 心</w>
改 派</w>
收 起</w>
操 纵</w>
摆 放</w>
探 问</w>
拱手 行礼</w>
才 略</w>
慕容 盛</w>
愤愤 不平</w>
愚 钝</w>
急 促</w>
怎样 才能</w>
延 宗</w>
府 署</w>
广 布</w>
崇 明</w>
岛 上</w>
屏 退</w>
宫 苑</w>
宋 元</w>
季 连</w>
字 文
字 德
婆 罗
始 皇帝</w>
妥 善</w>
如 何
奏 折</w>
奎 宿</w>
失 信</w>
太 久</w>
天 兴</w>
大 晋</w>
大 乐</w>
夏 后
图 像</w>
因 受</w>
四十 二年</w>
四 百人</w>
吕 岱</w>
后 卫</w>
名 流</w>
吉 安</w>
史 宁</w>
史 令</w>
可 不</w>
受 人</w>
博 取</w>
南 西川</w>
南 军</w>
南 侵</w>
割 断</w>
初 始</w>
分 类</w>
出 狱</w>
冤 狱</w>
元 王</w>
信 誉</w>
供 词</w>
仁 为</w>
人 工</w>
五 斗</w>
也 好</w>
之 权</w>
中 星</w>
东 林
东 堂</w>
世 系</w>
不 齐</w>
不 老</w>
三 两</w>
七 国</w>
一千 多里</w>
一 郡</w>
一 二</w>
齐 贤</w>
黄 石</w>
鲁 仲连</w>
骄 奢</w>
颜 之
韩 弘</w>
露 出来</w>
雄 武</w>
阳 门</w>
问 起</w>
钟 律</w>
酒 器</w>
郢 城</w>
郑 国
造 化</w>
迁 为</w>
车 服</w>
赞 助</w>
裴 蕴</w>
蒲 坂</w>
芝 草</w>
艰 难
船 舰</w>
老 君</w>
算 卦</w>
答 对</w>
突 利</w>
石 上</w>
真 有</w>
盘 问</w>
白 圭</w>
疲 困</w>
生 就</w>
王 长史</w>
王 曦</w>
王 昭
猛 安</w>
烦 恼</w>
漠 北</w>
滇 池</w>
渑 池</w>
海 里</w>
河 岸</w>
汾 阳</w>
水 声</w>
气 数</w>
死 尸</w>
死 前</w>
梁 帝</w>
柳 州</w>
李 正己</w>
本 应</w>
本 原</w>
是 好</w>
昙 朗</w>
明 经</w>
日夜 兼程</w>
无 可</w>
数 十年</w>
效 验</w>
改 定</w>
收 编</w>
摒 弃</w>
推 求</w>
损 于</w>
挽 回</w>
按 期</w>
招 收</w>
所 处</w>
成 婚</w>
想 以</w>
恰 恰</w>
念 及</w>
忠 节</w>
德 妃</w>
德 兴</w>
徐 邈</w>
律 金</w>
广 顺</w>
巫 术</w>
岂 可</w>
尾 宿</w>
宁 府</w>
字 元
妹 夫</w>
如何 是好</w>
奉 国</w>
失 里</w>
太史 慈</w>
夏侯 玄</w>
城 防</w>
均 州</w>
四 代</w>
四 丈</w>
哪 怕</w>
周 舍</w>
周 宝</w>
后 背</w>
另 立</w>
口 里</w>
叛 者</w>
叔 宝</w>
叔 孙</w>
博 大</w>
十 条</w>
匹 敌</w>
北 城</w>
勤 奋
刘 挚</w>
凭 据</w>
内 城</w>
八 座</w>
保 障</w>
依 傍</w>
伐 木</w>
仁 者</w>
五 礼</w>
云 集</w>
乐 府</w>
之 敌</w>
不 迫</w>
不 懈</w>
三 匹</w>
七 百多</w>
龙 泉</w>
魏 公</w>
高 隆</w>
高 湛</w>
马 前</w>
雨 下</w>
难 过</w>
障 碍</w>
邓 愈</w>
邑 县</w>
迫 害</w>
轻 便</w>
路 人</w>
赵 佗</w>
赞 礼</w>
谯 王</w>
读 音</w>
说 不出</w>
西门 豹</w>
虎 皮</w>
蕤 宾</w>
萧 坦</w>
范 为</w>
苟且偷 生</w>
舞 阳</w>
自 强</w>
自 安</w>
职 分</w>
耿 弇</w>
综 合</w>
笼 子</w>
章 昭达</w>
窦 参</w>
称 做</w>
知 节</w>
王萧 子</w>
王 延</w>
独 独</w>
狄 道</w>
犯 上</w>
燕 地</w>
点 火</w>
湖 中</w>
法律 条文</w>
治 家</w>
沉默 不语</w>
毁 弃</w>
武帝 元</w>
武 统</w>
来 朝贺</w>
李 家</w>
李 听</w>
木 桥</w>
有 子</w>
旧 名</w>
旦 夕</w>
无 言
无 关</w>
旅 馆</w>
文 治</w>
敌 手</w>
收 罗</w>
担 保</w>
扬 子</w>
所向 无敌</w>
我 见</w>
惠 子</w>
恐 吓</w>
徐 晃</w>
徐 嗣
弯 曲
应 征</w>
平 反</w>
川 水</w>
崔 玄
岳 父</w>
屹 立</w>
山 岩</w>
少 数</w>
小 女儿</w>
小 偷</w>
封 土</w>
宣 使</w>
客 馆</w>
季 龙</w>
孝 景帝</w>
奸 淫</w>
奉 送</w>
头 脑</w>
失 散</w>
大 字</w>
壅 塞</w>
土 门</w>
固 原</w>
四十 九</w>
四 国</w>
嗣 子</w>
名 家</w>
原 路</w>
厚 薄</w>
压 倒</w>
厄 运</w>
千 八百</w>
北 狄</w>
北 渡</w>
北 归</w>
刘休 范</w>
冲 突</w>
冯 胜</w>
军 镇</w>
军 前</w>
兵 祸</w>
兵 书</w>
六 畜</w>
八 百多</w>
入 城</w>
免 遭</w>
儒 雅</w>
假 冒</w>
假 传
假传 圣旨</w>
值 勤</w>
保 举</w>
作 成</w>
位 至</w>
伟 业</w>
买 来</w>
乙 辛</w>
之 福</w>
之 军</w>
世 宁</w>
不 立</w>
三 度</w>
一万 三千</w>
一 株</w>
马 周</w>
风 声</w>
震 恐</w>
雍 城</w>
陶 谦</w>
闷 不乐</w>
长 驱</w>
金 沙江</w>
酒 饭</w>
郁 郁
遗 迹</w>
遏 止</w>
逐 出</w>
迷 乱</w>
进 剿</w>
返 还</w>
起 到</w>
赵 地</w>
走 了</w>
贯 彻</w>
诞 生</w>
西 麓</w>
裴 冕</w>
装 在</w>
装 作</w>
蔑 视</w>
萧 斌</w>
舒 服</w>
自 今</w>
羽 葆</w>
绳 之
管 束</w>
算 了</w>
筹 码</w>
立 法</w>
立 春</w>
秀 美</w>
禀 承</w>
用 大</w>
王 广</w>
王 华</w>
率 师</w>
独 断</w>
牛 皮</w>
满 宠</w>
渡 水</w>
深思 熟虑</w>
治 民</w>
沈文 季</w>
汾 阴</w>
汇 聚</w>
毛 发</w>
母 弟</w>
殃 及</w>
死 难</w>
查 出</w>
杯 子</w>
李孝 恭</w>
李 周</w>
权 且</w>
曹 王</w>
昨 天
易 水</w>
昌 朝</w>
旧 典</w>
散 兵</w>
改 道</w>
掩 蔽</w>
推 选</w>
据 城</w>
指 头</w>
招 魂</w>
扼 住</w>
扩 张</w>
扣 押</w>
怨 气</w>
忿 恨</w>
德 伦</w>
德 业</w>
徐 敬业</w>
张 角</w>
张 守</w>
张 光
建 制</w>
床 前</w>
平 整</w>
市 民</w>
工 于</w>
岑 文本</w>
尉 元</w>
家 口</w>
宁 为</w>
婆罗 门</w>
威 灵</w>
失 策</w>
失 明</w>
大 名
垂 拱</w>
四 百里</w>
唆 使</w>
启 用</w>
向 善</w>
右 臂</w>
另 派</w>
受 理</w>
努 力
刘 信</w>
刑 按察</w>
分 担</w>
凶 兆</w>
军 籍</w>
其 部众</w>
公 对</w>
停 放</w>
倾 轧</w>
侧 边</w>
佩 玉</w>
佛 图</w>
传 遍</w>
伊 阙</w>
任 散</w>
任 性</w>
亲戚 朋友</w>
京 郊</w>
五 国</w>
云中 郡</w>
九 寸</w>
举 为</w>
主 君</w>
不 留</w>
不 大</w>
三十 三年</w>
三十 七</w>
三 官</w>
一 有</w>
一 小</w>
鸟 儿</w>
鲁 庄公</w>
鲁 定公</w>
鱼 儿</w>
高 柔</w>
驱 除</w>
顺 阳</w>
雕 琢</w>
隔 断</w>
隐 逸</w>
降 旨</w>
陆 纳</w>
郭 正
郑 子</w>
邳 州</w>
遭 殃</w>
迎 神</w>
辰 时</w>
转 化</w>
车 里</w>
赫 连</w>
读 完</w>
观 音
虞 庆则</w>
葱 岭</w>
苏 绰</w>
致 于</w>
聚 饮</w>
考 究</w>
缺 口</w>
绳之 以法</w>
统治 者</w>
符 存</w>
章 宗</w>
祢 衡</w>
看 病</w>
省 悟</w>
王 君
狱 讼</w>
独 有</w>
牛 犊</w>
火 亘</w>
溯 流</w>
游 动</w>
清 浊</w>
水 洞</w>
毋 丘俭</w>
武 承嗣</w>
欺 负</w>
横 暴</w>
杨大 眼</w>
朱虚 侯</w>
木 柴</w>
有 变</w>
明 日</w>
时 弊</w>
旧 宅</w>
旅 客</w>
故 人</w>
攀 着</w>
揣 摩</w>
提 刑</w>
拿 着</w>
招 徕</w>
披 散</w>
所 行</w>
所 住</w>
心 服</w>
得 功</w>
弹 丸</w>
弟 兄</w>
延 缓</w>
幽 暗</w>
幼 子</w>
年 数</w>
常 年</w>
帝 号</w>
崔 道</w>
尺 度</w>
封 疆</w>
富 庶</w>
家 园</w>
宣 政殿</w>
客 卿</w>
宝 珠</w>
宗 楚客</w>
宗 大怒</w>
始 平</w>
奸 贼</w>
太 一
天 雄</w>
大 话</w>
复 州</w>
声 调</w>
土 木
四 路</w>
吴 喜</w>
否 定</w>
向东 走</w>
后 魏</w>
发 光</w>
卢 芳</w>
南 越王</w>
南 仲</w>
北 风</w>
六 艺</w>
六 代</w>
公 则</w>
信 陵君</w>
侍中 王</w>
佯 装</w>
作 好</w>
众 生</w>
任 氏</w>
任 安</w>
任 免</w>
从容 不迫</w>
京 营</w>
五 县</w>
云 霞</w>
了 结</w>
乾 符</w>
世 蕃</w>
上下 下</w>
上 上下下</w>
三 阳</w>
三 间</w>
七 种</w>
龙 州</w>
鹿 皮</w>
高 道</w>
高 地</w>
骁 勇善战</w>
顾 不上</w>
韦 温</w>
雕 饰</w>
陶 弘景</w>
长生 不老</w>
长 江
长 房</w>
长 到</w>
金 色</w>
里 克</w>
酷 吏</w>
郭正 域</w>
郗 鉴</w>
郑 伯</w>
追 至</w>
连 续
远 祖</w>
过 头来</w>
达 官
辩 白</w>
辉 煌</w>
轻 敌</w>
车 右</w>
贵 嫔</w>
贫 富</w>
贪 恋</w>
谦 为</w>
诗 书</w>
诊 治</w>
被 困</w>
萧 综</w>
营 扎寨</w>
若 能</w>
苏 颋</w>
苏 瑰</w>
自然 规律</w>
腾 蛟</w>
胡 藩</w>
老 僧</w>
罗 网</w>
罗 织
罗织 罪名</w>
绵 州</w>
纪 法</w>
竣 工</w>
稻 田</w>
礼贤 下士</w>
监 禁</w>
百 尺</w>
白 雀</w>
画 工</w>
申 不害</w>
由 来
环 城</w>
王晏 球</w>
王延 政</w>
王 嘉</w>
熟 知</w>
照 办</w>
灌 注</w>
潘 美</w>
清 泰</w>
涟 水</w>
派 人
洞 庭</w>
泪 流满面</w>
泥 泞</w>
求 教</w>
气 焰</w>
民 房</w>
比 能</w>
殿 门</w>
死 生</w>
此 职</w>
此 水</w>
杨 博</w>
李景 隆</w>
李同 捷</w>
李 绍</w>
杂 居</w>
暹 罗</w>
景 元</w>
晋 惠公</w>
晋 孝武帝</w>
春 申君</w>
昆 阳</w>
昆 明</w>
早 餐</w>
新 旧</w>
文 言</w>
文 天祥</w>
措 置</w>
挑 拨</w>
指 甲</w>
指 导</w>
抱 负</w>
所 立</w>
我 怕</w>
戊 戌
惨 败</w>
思 忠</w>
怜 爱</w>
忠 州</w>
徐 道</w>
徐 湛之</w>
往上 走</w>
强 横</w>
张 林</w>
库 藏</w>
平 易</w>
州 别</w>
崔 琰</w>
尚 方
小 车</w>
宝 玺</w>
宜 州</w>
宋 金刚</w>
安 边</w>
安 营扎寨</w>
守 信用</w>
季 武子</w>
姜 氏</w>
姚 崇
太平 无事</w>
天 统</w>
天 祚</w>
大举 进攻</w>
大 铖</w>
外 官</w>
墨 家</w>
土 著</w>
周 忱</w>
呜 呼</w>
合 达</w>
吃 不
台 臣</w>
可 耻</w>
取得 成功</w>
动 听</w>
前 年</w>
前 卫</w>
到 今</w>
刘 崇</w>
刀 子</w>
冲 坏</w>
写 给</w>
全 诲</w>
入 学</w>
元 宝</w>
依 例</w>
体 力</w>
众 心</w>
从古 到今</w>
人 口
于 色</w>
二 升</w>
乾 道</w>
中 庸</w>
两 方</w>
两 匹</w>
不 长</w>
不 拘</w>
不 守</w>
不 堪
七 分</w>
一百 六十</w>
齐王 田</w>
鱼 肉</w>
高官 厚禄</w>
风 向</w>
韩 全诲</w>
韦昭 度</w>
靴 子</w>
隐 退</w>
随 从
随从 人员</w>
陈 县</w>
阿 波</w>
间 隔</w>
酗 酒</w>
退 到</w>
辽 阔</w>
辽 州</w>
较 为</w>
路 经</w>
跨 越</w>
赠 为</w>
贺若 敦</w>
贵 臣</w>
诸 事</w>
萧 嵩</w>
舒 适</w>
自 封</w>
能 以</w>
而 然</w>
绝 交</w>
纸 钱</w>
纵 使</w>
纲 常</w>
管 辂</w>
算 作</w>
第 三天</w>
穆 亮</w>
秦 孝公</w>
石烈 志宁</w>
看 上去</w>
直 合</w>
盘 龙</w>
疼 爱</w>
由来 已久</w>
田 园</w>
生 辰</w>
生 活
生 有</w>
王思 同</w>
王 良</w>
王 凌</w>
王 仙芝</w>
献 祭</w>
猖 狂</w>
狄 青</w>
牛 酒</w>
燕 人</w>
烧 火</w>
满 座</w>
游 学</w>
渔 夫</w>
海 盐</w>
流 域</w>
泾 水</w>
泰 定</w>
注 视</w>
沈 鲤</w>
水 浅</w>
正 平</w>
桂 管</w>
杜 牧</w>
李 叔
本 县</w>
昏 昧</w>
早 些</w>
施 予</w>
文 体</w>
数百 名</w>
教 义</w>
支 道</w>
护 羌</w>
投 掷</w>
战 备</w>
感 悟</w>
惊 惶</w>
情 志</w>
急 流</w>
忠 武军</w>
忠 心
忙 忙</w>
德 胜</w>
张 茂
应 募</w>
庄 田</w>
峰 山</w>
尚 文</w>
少 量</w>
封为 安</w>
察 罕</w>
寝 殿</w>
官 禄</w>
宗 龙</w>
如 神</w>
夫 差</w>
大名 府</w>
大 雁</w>
大 贵</w>
大 方</w>
声 讨</w>
坐 落</w>
在 手</w>
国 势</w>
四十 七</w>
唐 庄宗
咸 熙</w>
周 长</w>
呜 咽</w>
告 捷</w>
君 临
君临 天下</w>
吕 祖
同 居</w>
各 派</w>
右 面</w>
叩 首</w>
古 墓</w>
口 头</w>
历 年</w>
南 走</w>
半 数</w>
北 府</w>
匕 首</w>
包 庇</w>
到 时候</w>
切 齿</w>
分 崩
出 镇</w>
军 帐</w>
养 生</w>
其 意</w>
关系 密切</w>
八 音</w>
元 法</w>
元 孚</w>
元 吉</w>
兀 良
储 君</w>
做 主</w>
修 葺</w>
作 风</w>
作 监</w>
作 文</w>
余 姚</w>
低 矮</w>
位 子</w>
二百 四十</w>
二 宿</w>
乐 县</w>
乌 撒</w>
之 词</w>
之 别</w>
义 武</w>
为 国
东 井</w>
不 听</w>
下 落</w>
下 台阶</w>
上 者</w>
上 千</w>
丈 人</w>
齐 名</w>
默 然</w>
魏 了
魏了 翁</w>
顾 全</w>
顺 风</w>
韩 王信</w>
非 同
霍 韬</w>
雨 雪</w>
雍 州牧</w>
陈 宣帝</w>
阳 公</w>
闷 闷不乐</w>
门 路</w>
野 猪</w>
通 到</w>
送 死</w>
运 载</w>
迎 送</w>
身 躯</w>
起 程</w>
贞 明</w>
豢 养</w>
调 理</w>
诸 君</w>
论 辩</w>
虚 宿</w>
草 屋</w>
腐 败</w>
联 军</w>
箭 矢</w>
登 岸</w>
界 内</w>
男 爵</w>
王 韶</w>
王 审
玄 武门</w>
浸 泡</w>
沿 岸</w>
江 海</w>
汉 江</w>
求 福</w>
求 生</w>
水 寨</w>
氏 家族</w>
横 木</w>
楚 之</w>
李大 亮</w>
权 者</w>
本 事</w>
有功 之臣</w>
月 余</w>
景 物</w>
旁 人</w>
方 镇</w>
文 史</w>
敬 慕</w>
撤 职</w>
摆 开</w>
搏 击</w>
揣 度</w>
提 控</w>
推 心
授 命</w>
拘 囚</w>
拖 累</w>
所 任</w>
房 门</w>
思 王</w>
征 聘</w>
已 过</w>
巨 人</w>
山 地</w>
屈 尊</w>
小 字</w>
家 畜</w>
家 世</w>
宣 为</w>
定 额</w>
定 时</w>
孙 丕扬</w>
天 皇</w>
天 才</w>
大 米</w>
外 患</w>
夏 育</w>
唐 明宗
听 讲</w>
听 命于</w>
含 有</w>
后 代
后代 子孙</w>
同 盟</w>
同 列</w>
合 格</w>
各 样</w>
司马 楚之</w>
司 天监</w>
口 供</w>
取 笑</w>
十 多</w>
十 五个</w>
北 虏</w>
加 给</w>
功 用</w>
分崩 离析</w>
几 步</w>
兴 人</w>
光 明
先 零
元 标</w>
假 设</w>
修 德</w>
侍 立</w>
今 晚</w>
五 刑</w>
二 城</w>
乌 重</w>
之 滨</w>
临 死时</w>
中 门</w>
中 来</w>
东林 党</w>
一 具</w>
鳏 寡
鲁 爽</w>
高 肇
霍 氏</w>
隐 讳</w>
阻 截</w>
铜 器</w>
钟 声</w>
郭 仲
邓 骘</w>
造 父</w>
逆 党</w>
进 洞</w>
转 到</w>
踏 着</w>
贬 到</w>
豆卢 革</w>
设宴 款待</w>
言 道</w>
要 害
装 殓</w>
行 迹</w>
行 御史台</w>
虱 子</w>
藏 书</w>
葫 芦</w>
芬 芳</w>
自 在</w>
胆 略</w>
肃 州</w>
职 掌</w>
而 居</w>
而 去</w>
老 实</w>
置 腹</w>
纷 扰</w>
纯 朴</w>
累 计</w>
精 壮</w>
篡 权</w>
符 彦卿</w>
突 承</w>
空 话</w>
秦 二州</w>
私 宅</w>
神 威</w>
祖 逖</w>
碰 巧</w>
石 州</w>
知 温</w>
王 谦</w>
王 匡</w>
玄 晖</w>
爱 憎</w>
爱 人</w>
激 起</w>
浑 浊</w>
流 贼</w>
沐 英</w>
汗 国</w>
汉 使</w>
永 定</w>
武 人</w>
梁 地</w>
桑 弘
极 星</w>
杲 卿</w>
来 于</w>
李存 信</w>
李 三才</w>
暴 病</w>
晋 厉公</w>
旧 法</w>
无 限</w>
旌 节</w>
料 想</w>
斗 柄</w>
敝 国</w>
敕 勒</w>
救 出</w>
攻 下来</w>
摆 酒</w>
摆 开
摆开 阵势</w>
抓 捕</w>
手 书</w>
我 受</w>
怀 义</w>
忠心 耿耿</w>
志 书</w>
延 平</w>
庙 前</w>
平 常人</w>
市 井</w>
巧 言</w>
岭 北</w>
山 口</w>
尊 长</w>
将 星</w>
射 礼</w>
封 于</w>
宪 王</w>
客 省</w>
官 居</w>
安 郡王</w>
守 礼</w>
孙 腾</w>
太 一</w>
夏 军</w>
回 营</w>
嘴 唇</w>
品 行
后 升</w>
合 宜</w>
台 平章</w>
叙 说</w>
受 损</w>
发 言</w>
千 万
劝 农</w>
剑 州</w>
前 导</w>
刺 中</w>
刘 繇</w>
分 道</w>
击 中</w>
决一 死战</w>
六 度</w>
充 盈</w>
儒 术</w>
停 职</w>
偏 颇</w>
侯 瑱</w>
依 法
余 孝
何 尚</w>
传 于</w>
以 此
仗 义</w>
京 湖</w>
五 常</w>
于 外</w>
二百 匹</w>
乙 卯日</w>
举 出</w>
丹 砂</w>
东 归</w>
三十 八</w>
三 万余</w>
万 辆</w>
万 死</w>
一 两个</w>
鳏寡 孤独</w>
陨 落</w>
陈 咸</w>
陈 仲
阳 刚</w>
铁 骑</w>
金墉 城</w>
邛 州</w>
遗 言</w>
逃 进</w>
送 别</w>
追 思</w>
违 法
边 际</w>
轻 轻</w>
身 孕</w>
贞 为</w>
调 为</w>
说得 好</w>
误 国</w>
订 正</w>
触 动</w>
西 北角</w>
西 下</w>
行 逢</w>
藩 臣</w>
藏 在</w>
苏 茂</w>
艰 苦</w>
至 忠</w>
自然 而然</w>
翟 义</w>
置 之
结 赞</w>
纷 繁</w>
纳 税</w>
精 致</w>
粮 道</w>
符 习</w>
瞻 仰</w>
白 沙</w>
生 化</w>
班 剑</w>
玩 物</w>
玛 瑙</w>
王 澄</w>
王 彪</w>
牛 存节</w>
漠 代</w>
清 新</w>
沿 路</w>
没 人敢</w>
正 人君子</w>
染 上</w>
极 限</w>
杨 一清</w>
条 目</w>
杜 佑</w>
李继 迁</w>
杂 事</w>
朱 守</w>
朝 阳</w>
有 户</w>
昆 明池</w>
无所 顾忌</w>
方 百计</w>
文 公
整 夜</w>
推心 置腹</w>
推 翻</w>
按 着</w>
承 训</w>
所欲 为</w>
战 火</w>
惑 众</w>
惊慌 失措</w>
忧 愤</w>
律 管</w>
待 命</w>
征 为</w>
往 来于</w>
往 南
彩 云</w>
张 苍</w>
张 建
开 山</w>
延 熙</w>
平 叛</w>
常 态</w>
巡 查</w>
崔 绍</w>
屋 内</w>
尽心 竭力</w>
将 作监</w>
对 子</w>
宗 子</w>
宏 为</w>
安 郡</w>
安 福</w>
宇文 氏</w>
奸 党</w>
太 小</w>
天 授</w>
大 法</w>
大 为
复 气</w>
壬 午日</w>
城 壕</w>
回 转</w>
品 格</w>
周 行逢</w>
吴 中</w>
吕 产</w>
古 礼</w>
卢 植</w>
千 方百计</w>
副 本</w>
分 数</w>
刀 枪</w>
冬 夏</w>
冠 带</w>
军 服</w>
关 怀</w>
八十 四</w>
克 融</w>
元 晖</w>
伞 盖</w>
仪 器</w>
仪 卫</w>
互相 攻击</w>
事 堂</w>
九 龙</w>
义 旗</w>
主 掌</w>
为 所欲为</w>
中 宫</w>
两 山</w>
两 城</w>
东 阶</w>
世 音</w>
不 论是</w>
三百 六十</w>
黑 白</w>
高 楼</w>
顷 公</w>
韩 厥</w>
队 列</w>
闽 越</w>
镇 南王</w>
金 日</w>
邹 衍</w>
邓 艾
邓 琬</w>
遗 失</w>
赵 贵</w>
赵 岩</w>
走 开</w>
贰 师</w>
诵 经</w>
说 过</w>
诚 然</w>
观 世音</w>
西 苑</w>
裨 将</w>
落 在</w>
营 门</w>
自 满</w>
腠 理</w>
脉 搏</w>
聪明 人</w>
结 实</w>
细 致</w>
粗 糙</w>
簿 册</w>
管 宁</w>
程 昱</w>
祭 时</w>
真 宗
盖 延</w>
皇 祖</w>
田 忌</w>
用 箭射</w>
琼 州</w>
王 温</w>
献 夫</w>
狱 案</w>
牡 丹</w>
深 宫</w>
涣 散</w>
洛 城</w>
洒 扫</w>
河 曲</w>
汪 伯
汇 入</w>
毛 修</w>
正月 十五</w>
欺 瞒</w>
果 毅</w>
杨 亿</w>
李继 韬</w>
李 少君</w>
杀 掠</w>
望 风
景 致</w>
明 威</w>
施 惠</w>
新 君</w>
文 词</w>
数 百万</w>
放 掉</w>
揽 大权</w>
提 婆</w>
推 迟</w>
按 例</w>
拜 受</w>
把 酒</w>
批 复</w>
扬 威</w>
战 栗</w>
成 果</w>
戏 谑</w>
惆 怅</w>
必 败</w>
庆 封</w>
并不 知道</w>
属 阳</w>
小 王子</w>
宣徽 南</w>
官 宦</w>
子 玉</w>
娄 宿</w>
太 社</w>
多 为</w>
外 兵</w>
城 垒</w>
地 于</w>
围 观</w>
四十 四</w>
四 郎</w>
唐 兵</w>
周 堪</w>
吞 食</w>
吕 嘉</w>
只 顾</w>
博学 多
协 同</w>
千 斤</w>
刻 苦</w>
创 制</w>
刘 德
出 了
军 权</w>
其 下</w>
共 苦</w>
六 百户</w>
公孙 衍</w>
八 条</w>
入 睡</w>
先 殿</w>
偷 窃</w>
余 力</w>
佐 助</w>
会 理</w>
交 流</w>
五 卷</w>
事 项</w>
之 美</w>
之 大</w>
之 四</w>
义 帝</w>
义 子</w>
两 万人</w>
丝 绢</w>
不 高
不 法
下 裳</w>
下 情</w>
三 四</w>
万 全
丁 会</w>
一百 名</w>
一 辆车</w>
黄 祖</w>
鸡 足
鲍 泉</w>
鲁 襄公</w>
馆 阁</w>
饮 酒
颜 杲卿</w>
预 见</w>
顺 父母</w>
霸 州</w>
霍 彦威</w>
需 求</w>
长 有</w>
银 币</w>
金 齿</w>
郭 药师</w>
郭 元振</w>
邹 元标</w>
过 重</w>
迅 猛</w>
边 地</w>
辩 才</w>
轲 比能</w>
路 线</w>
起 任</w>
赶 跑</w>
贤 君</w>
财 礼</w>
调 用</w>
诺 言</w>
西 有</w>
西 晋</w>
薛仁 贵</w>
薛 万
范 阳人</w>
范 文虎</w>
苦 恼</w>
花 朵</w>
良 机</w>
良 娣</w>
舒 畅</w>
臣 贼子</w>
腹 心</w>
脚 印</w>
羊 肉</w>
缓 缓</w>
继续 前进</w>
纠 纷</w>
素 食</w>
箭 靶</w>
管 领</w>
竭尽 忠诚</w>
积 雪</w>
秋 粮</w>
离 城</w>
祸 及</w>
礼 来</w>
眷 顾</w>
盗 取</w>
益 寿</w>
皇 朝</w>
田 常</w>
王 轨</w>
王 献
王 派</w>
王 根</w>
王 应</w>
狠 狠</w>
特 赐</w>
煮 熟</w>
烈 火</w>
潘 岳</w>
滕 胤</w>
清 洗</w>
流 箭</w>
流 矢</w>
河 上</w>
永 福</w>
水 陆
楚 成王</w>
梁 主</w>
枯 萎</w>
来 信</w>
有 权</w>
月 球</w>
更 深</w>
易 俗</w>
明 代</w>
时 则</w>
斯 藏</w>
故 此</w>
提 着</w>
排 行</w>
持 刀</w>
披 上</w>
承 担
扑 灭</w>
所 归</w>
战 略</w>
成 都
德 阳</w>
往下 走</w>
张 贴</w>
张 行
异 于</w>
年 景</w>
常 法</w>
师 友</w>
峡 中</w>
层 层
小 猪</w>
家 庙</w>
审 配</w>
宜 春</w>
宋 齐丘</w>
宋 襄公</w>
孝 顺父母</w>
孙 登</w>
字 长</w>
字 样</w>
子 西</w>
大 长</w>
大 印</w>
夏 官</w>
士 及</w>
城 来</w>
坐 车</w>
国 舅</w>
园 子</w>
回 音</w>
回 过头来</w>
唱 和</w>
向 太后</w>
另 行</w>
叔 陵</w>
反 绑</w>
友好 关系</w>
参 合</w>
十来 天</w>
十二 律</w>
十 朋</w>
化 生</w>
动 荡
劝 解</w>
前 汉时</w>
利 息</w>
刘子 勋</w>
出 奔</w>
凡 属</w>
凝 聚</w>
军 机</w>
内 臣</w>
全 在</w>
先 有</w>
充 斥</w>
倒 地</w>
何 力</w>
低 劣</w>
伺 候</w>
任职 期间</w>
人 王</w>
交 迫</w>
交 朋友</w>
五百 名</w>
于 志宁</w>
二 卷</w>
事 无
乡 公</w>
乞 讨</w>
乌 斯藏</w>
为 贵</w>
丰 满</w>
中 监</w>
业 兴</w>
不能 到达</w>
万 全</w>
一 言
一 穴</w>
鸡足 山</w>
骊 姬</w>
韩 宣子</w>
陶 器</w>
陈叔 宝</w>
阿鲁 台</w>
金 朝
道 义
进 退
这 五种</w>
边 城</w>
辞 赋</w>
辅 公</w>
赶 着</w>
谕 令</w>
讽 谏</w>
要 旨</w>
袁 天纲</w>
虽 多</w>
草 创</w>
茂 州</w>
英 国</w>
节 日</w>
色 泽</w>
腊 月</w>
脚 步</w>
能 活</w>
肥 水</w>
肋 骨</w>
联 姻</w>
聆 听</w>
破 裂</w>
直 说</w>
皋 陶</w>
百 辆</w>
白 虹</w>
登 门</w>
略 有</w>
生 路</w>
狱 官</w>
父 老
漳 河</w>
清 贫</w>
淳于 髡</w>
流而 上</w>
流 布</w>
泪 下</w>
沈文 秀</w>
永 固</w>
正月 初三</w>
正 副</w>
杜 氏</w>
杂 物</w>
杂 役</w>
朝 散</w>
最 早</w>
曾 有过</w>
曹 郎</w>
智 多谋</w>
智 光</w>
昭 子</w>
明 说</w>
无 有</w>
方 案</w>
散 官</w>
攀 援</w>
捐 躯</w>
捉 到</w>
挨 着</w>
挟 制</w>
拜 祭</w>
报 丧</w>
折 服</w>
所 献</w>
愈 事</w>
恣 肆</w>
思 索</w>
徐 达
彭 年</w>
张 齐</w>
张 大</w>
应 麟</w>
应 酬</w>
库 存</w>
庆 远</w>
已 晚</w>
射 声</w>
对 立</w>
安 生</w>
始终 如一</w>
如 旧</w>
太 行</w>
太 伯</w>
大 防</w>
大 祀</w>
多 岁</w>
夏后 氏</w>
国 时</w>
器 官</w>
周 弘正</w>
吏 人</w>
叱 责</w>
发 明</w>
参 赞</w>
千 载</w>
千 秋
十 郡</w>
割 草</w>
刘 元
几百 个</w>
几十 名</w>
几 句</w>
冯 太后</w>
兼 行</w>
兼 知</w>
公孙 贺</w>
公孙 敖</w>
光 临</w>
元 素</w>
倾 听</w>
倒 下</w>
修 习</w>
五 岭</w>
五 兵</w>
二 万五千</w>
事 发</w>
临 刑</w>
中 州</w>
两 级</w>
不 求</w>
不 曾有过</w>
不 愈</w>
上 公</w>
三十 三</w>
一万 匹</w>
一 钱</w>
一 车</w>
一 手</w>
一 岁</w>
龚 胜</w>
魏 时</w>
魏 兵</w>
鬼 魅</w>
高 价</w>
骄奢 淫逸</w>
饮酒 作乐</w>
飞 燕</w>
风 易俗</w>
领 袖</w>
韩 琦
韩 氏</w>
青 溪</w>
陈 涉</w>
闻 喜</w>
镇 安</w>
鉴 别</w>
酸 枣</w>
那 次</w>
造 诣</w>
躯 体</w>
赶 去</w>
谢 庄</w>
谈 谈</w>
调 养</w>
诸 子
许 衡</w>
西 番</w>
西 伯</w>
袁 安</w>
补 足</w>
萧 范</w>
苦 味</w>
至 大</w>
能 之士</w>
群 起</w>
罪 囚</w>
维 州</w>
经 济</w>
素 有</w>
策 书</w>
稍 为</w>
私 仇</w>
离 京</w>
祖 辈</w>
祖 上</w>
石 崇</w>
病 势</w>
用 法</w>
生 平</w>
王 权</w>
犬 马</w>
牛 仙客</w>
激 发</w>
滹 沱河</w>
清 臣</w>
消 亡</w>
法 网</w>
泉 之下</w>
泅 水</w>
治 道</w>
没 听
汉 章帝</w>
水 银</w>
水 田</w>
毒 疮</w>
此 举</w>
正月 初二</w>
棋 盘</w>
梁 士
杜 衍</w>
杜 元
权 宜
未 经</w>
有所 不同</w>
有 贞</w>
暴 敛</w>
晋 成帝</w>
昂 贵</w>
早 逝</w>
新 奇</w>
文 笔</w>
文 举</w>
收 降</w>
撤 消</w>
拉 拢</w>
才 子</w>
戊戌 日</w>
愈 发</w>
思 量</w>
思 远</w>
德 化</w>
开 脱</w>
康 怀
庐 舍</w>
年老 多病</w>
帷 幄</w>
山 头</w>
居 所</w>
尖 峰</w>
宣 明</w>
审 视</w>
官 方</w>
完 饭</w>
学 道</w>
子 房</w>
嫌 弃</w>
姑 息</w>
如 下</w>
奔 腾</w>
夷 灭</w>
大 部分</w>
大 星</w>
坚 贞</w>
土 豪</w>
回 访</w>
回 应</w>
喘 息</w>
周 为</w>
吕 夷简</w>
同 官</w>
吃 完饭</w>
取 水</w>
发 运</w>
发 出
反 元</w>
卢 生</w>
卢 思道</w>
升 堂</w>
化 贞</w>
加 赐</w>
加 时</w>
劝 酒</w>
剑 阁</w>
利 润</w>
刘 弘</w>
刘 季
刘 士
凭 借着</w>
几 寸</w>
冕 服</w>
再 兴</w>
八 州</w>
元 详</w>
侯 位</w>
伸 手</w>
任 何人</w>
仲 父</w>
以 右</w>
代 管</w>
从那 以后</w>
人 命</w>
亲 昵</w>
交 点</w>
五 件</w>
争 权</w>
乾 宁</w>
义 师</w>
东 越</w>
三十 余</w>
七十 多</w>
一 拜</w>
鲁 桓公</w>
魏 豹</w>
魏 惠王</w>
高 士</w>
飞 升</w>
飞 到</w>
风 寒</w>
题 名</w>
顾 琛</w>
顺 之</w>
陈 敏</w>
陈 兵</w>
销 毁</w>
郁 郁</w>
邓 元起</w>
道义 上</w>
通 路</w>
途 遥远</w>
递 给</w>
适 于</w>
远 道</w>
进 忠</w>
迎 立</w>
路 途遥远</w>
起 名叫</w>
赵 光
贾 复</w>
败 兵</w>
谄 谀</w>
诸葛 爽</w>
该 国</w>
讣 告</w>
言 行
视 事</w>
表 象</w>
行 义</w>
虎 臣</w>
蔺 相如</w>
茂 陵</w>
良 久</w>
膀 胱</w>
美 善</w>
符 彦
移 风易俗</w>
移 镇</w>
福 寿</w>
相 好</w>
相 国
盒 子</w>
白 天
疑 惧</w>
王 绪</w>
独 占</w>
照 例</w>
点 儿</w>
炳 文</w>
温 造</w>
涂 炭</w>
浮 躁</w>
河 神</w>
没有 止境</w>
汴 军</w>
江夏 郡</w>
民 部</w>
毕 竟</w>
欢 宴</w>
某 些</w>
杨 贵妃</w>
杨 巨源</w>
条 路</w>
杜 洛周</w>
朱 克融</w>
朝 聘</w>
朝 士</w>
暴 君</w>
昌 裔</w>
昊 天</w>
无言 以
敬 佩</w>
敢 死</w>
收 录</w>
收 受
收受 贿赂</w>
探 讨</w>
挑 拨
拔 刀</w>
拉 车</w>
护 驾</w>
打 官司</w>
手 腕</w>
所向 披靡</w>
战 战
恩 赏</w>
思 退</w>
归 家</w>
建 始</w>
延 明</w>
应 合</w>
广 施</w>
常 见</w>
希 求</w>
左 领军</w>
左 民</w>
岁 币</w>
山 寺</w>
尧 臣</w>
少 年
小 麦</w>
小 校</w>
尊 为</w>
封 泰山</w>
察 到</w>
寝 室</w>
宰 执</w>
安 闲</w>
安 适</w>
孝 祖</w>
孜孜 不倦</w>
子 游</w>
妖 言</w>
如 流</w>
大 胆</w>
大 冢</w>
大 中
坟 地</w>
坑 杀</w>
四十 四年</w>
唐 县</w>
咫 尺</w>
周 兴</w>
告 密</w>
吏 役</w>
同 为</w>
各 郡国</w>
卫 辉</w>
化 龙</w>
募 兵</w>
加 号</w>
刺 法</w>
刘玄 佐</w>
刘 秉
刘 家</w>
凌 空</w>
军 职</w>
再 任</w>
兴师 动众</w>
兴 地</w>
六 匹</w>
全 无</w>
保 持
何 晏</w>
体 统</w>
任 防</w>
仁 惠</w>
产 担</w>
五 府</w>
五 城</w>
乡 民</w>
之 仇</w>
义 州</w>
为 义</w>
严 可求</w>
不 忘</w>
不 干</w>
不 取</w>
上 蔡</w>
上 奏
一千 六百</w>
一 想</w>
一 伙</w>
高 干</w>
骨 相</w>
驻 于</w>
非 难</w>
霜 雪</w>
陈 规</w>
队 长</w>
闻 名
重 华</w>
重 于</w>
遭 祸</w>
迫 切</w>
迟 钝</w>
连 绵
还 京</w>
近年 以来</w>
辛 卯日</w>
轻 捷</w>
踪 影</w>
路 岩</w>
赖 于</w>
贷 给</w>
谢 迁</w>
谢 玄</w>
诗 篇</w>
设 施</w>
让 出</w>
要 道</w>
衣 着</w>
行 本</w>
薛 文
蒲 城</w>
落 下来</w>
药 渣</w>
花 园</w>
船 队</w>
自 当</w>
腐 朽</w>
统 御</w>
绝 迹</w>
纷 纭</w>
累 迁</w>
管 制</w>
答 话</w>
第 五个</w>
突 兀</w>
碣 石</w>
矿 税</w>
矿 物</w>
石 人</w>
瞎 子</w>
的 人</w>
疆 场</w>
理 所
玩 赏</w>
王 质</w>
王 潮</w>
王 是</w>
王 安</w>
玄 武</w>
灵 巧</w>
涪 陵</w>
涂 地</w>
浑 天
洞 里</w>
河 川</w>
河 伯</w>
没听 说过</w>
汲 水</w>
汤 药</w>
污 吏</w>
死 期</w>
武 攸
正 阳</w>
概 念</w>
楼 烦</w>
梁 肃</w>
根 部</w>
杨 津</w>
杞 国</w>
李 信</w>
朱 燮
本 乡</w>
服 色</w>
有 违</w>
有 天</w>
有 伤</w>
晋 时</w>
显 露出来</w>
显 耀</w>
昏 黑</w>
明 皇</w>
时 起</w>
时 值</w>
无所 作为</w>
无 声</w>
旗 子</w>
揣 测</w>
据 实</w>
抵 罪</w>
承 制</w>
扶 桑</w>
手 法</w>
戴 德</w>
我 心</w>
成 千
情 欲</w>
张 须</w>
廷 杖</w>
延 及</w>
废 去</w>
府 县</w>
庚 子日</w>
库 莫
左氏 传</w>
崩 裂</w>
屯 卫</w>
尚 可</w>
密 云</w>
客 店</w>
好 了</w>
天 气
天 之
大 如
外 来</w>
塞 童</w>
国 威</w>
喊 声</w>
善 言</w>
商 业</w>
唐 人</w>
哀 乐</w>
咒 语</w>
吴 氏</w>
吴 楚</w>
同甘 共苦</w>
吉 顼</w>
发 脾气</w>
反 叛者</w>
县 南</w>
北 河</w>
办 案</w>
劝 降</w>
刘 超</w>
刘 洪
分 发</w>
冲 锋</w>
冲 杀</w>
再 者</w>
其 家</w>
六 县</w>
作 证</w>
今 来</w>
五 部</w>
五 言诗</w>
五 度</w>
于 頔</w>
二百 七十</w>
乱 臣贼子</w>
乐 广</w>
乃 至</w>
举行 宴会</w>
主 书</w>
中 路</w>
东西 南北</w>
不 怕死</w>
三十 七年</w>
三 礼</w>
万 达</w>
一 子</w>
一 团</w>
额 外</w>
项 忠</w>
鞍 马</w>
革 职</w>
陈留 郡</w>
陈 庆之</w>
防 务</w>
铁 勒</w>
金 全</w>
重 罚</w>
配 置</w>
遣 时</w>
迁 回</w>
足 智多谋</w>
赵 普
读 过</w>
西 平王</w>
裴 楷</w>
衰 减</w>
表示 感谢</w>
表 弟</w>
虚 浮</w>
虔 诚地</w>
藩 属</w>
至 终</w>
脏 六腑</w>
胜 败</w>
胆 经</w>
肥 胖</w>
聪 颖</w>
聊 城</w>
耿 纯</w>
罗 织</w>
经 气</w>
纪 元</w>
笼 罩</w>
第 三年</w>
笔 直</w>
穷 追</w>
穷 苦</w>
积 存</w>
石 苞</w>
直言 进谏</w>
直 阁</w>
盖 勋</w>
申 锡</w>
用 布</w>
玳 瑁</w>
王 雄</w>
王 锷</w>
王 毛
特 异</w>
灵 座</w>
深 坑</w>
涉 到</w>
浩 为</w>
洛 口</w>
沈 田子</w>
汪伯 彦</w>
毛 璋</w>
正 员
正 位</w>
次 一等</w>
梁 王
梁 氏</w>
桑弘 羊</w>
桃 树</w>
树 起</w>
林 邑
极 谏</w>
杨 雄</w>
杨 镐</w>
杨 仪</w>
权宜 之计</w>
权 谋</w>
杀 身</w>
朱 高煦</w>
朗 诵</w>
有 心</w>
曾 布</w>
更 衣</w>
昭 文馆</w>
昌 明</w>
方 阵</w>
文 种</w>
文 中</w>
攻 城
撞 击</w>
提 防</w>
提 拔
提拔 任用</w>
挥 师</w>
抵 偿</w>
折 磨</w>
扶 南</w>
打 动</w>
戊 己</w>
态 势</w>
心 力</w>
律 吕</w>
彭 龟</w>
当 场</w>
张建 封</w>
建 章</w>
应 兆</w>
库莫 奚</w>
平 阳
峭 壁</w>
就 行</w>
就 够</w>
小 将</w>
密 奏</w>
宽 宏</w>
宫 庭</w>
宝 石</w>
安 丙</w>
孙 思
子 文</w>
奸 谋</w>
天下 大治</w>
天 长</w>
塑 像</w>
园 陵</w>
四 星</w>
品 尝</w>
吕 梁</w>
名 人</w>
同心 同德</w>
司礼 监</w>
口 舌</w>
原 委</w>
千 牛</w>
千 古</w>
匠 人</w>
加 散</w>
判 案</w>
刘子 羽</w>
军 国</w>
六 镇</w>
公 远</w>
八 百户</w>
全 食</w>
全 境</w>
兢 兢
做 些</w>
保 安</w>
俗 人</w>
何 远</w>
传 承</w>
仁 孝</w>
交通 要道</w>
五 脏六腑</w>
五 时</w>
二十八 宿</w>
事 人</w>
乾 德</w>
之 首</w>
主 考</w>
中 道</w>
两 部</w>
东 郭</w>
业 业</w>
世 雄</w>
不高 兴地</w>
不 见
不 多时</w>
不 修</w>
上 阵</w>
三十 八年</w>
三 边</w>
三 关</w>
一 城</w>
一 回</w>
高 斯</w>
驾 幸</w>
马 文升</w>
饥 寒
顿 丘</w>
顽 固</w>
韦 说</w>
雅 正</w>
陈 少游</w>
陈 宫</w>
陆 贾</w>
阴 暗</w>
钻 进</w>
钟 磬</w>
重 礼</w>
郭子 兴</w>
郡 主</w>
选 中</w>
转 官</w>
赵 两国</w>
赠 封</w>
赋 予</w>
贪 心</w>
豆 子</w>
谢 尚</w>
谋 虑</w>
西 昌</w>
裂 缝</w>
蛮 人</w>
蒋 玄晖</w>
英 为</w>
芙 蓉</w>
腋 下</w>
脾 脏</w>
胎 儿</w>
群 峰</w>
紫 宫</w>
篱 笆</w>
稻 米</w>
私 党</w>
石 季龙</w>
登 歌</w>
畜 牧</w>
王思 礼</w>
王 弼</w>
王 十朋</w>
牧 守</w>
牛 宿</w>
温 服</w>
清 军</w>
海 南</w>
洞 庭
洞庭 湖</w>
沾 湿</w>
永 寿</w>
永 丰</w>
水 果</w>
殷 纣王</w>
段 氏</w>
武 德
栎 阳</w>
查 明</w>
枝 干</w>
板 子</w>
李 特</w>
朱燮 元</w>
本 姓</w>
朝 着</w>
有 形</w>
明 辨</w>
改 封
推 演</w>
拔 萃</w>
拔 掉</w>
拓 展</w>
投 到</w>
所 长</w>
恬 静</w>
必 死</w>
德 音</w>
归 州</w>
归 仁</w>
异 星</w>
幸 免于
幸免于 难</w>
平 郡王</w>
帝 尧</w>
左氏 春秋</w>
左 武卫</w>
屠 戮</w>
寡 欲</w>
宿 度</w>
宴 乐</w>
官 品</w>
孟 容</w>
婚 事</w>
姚 察</w>
奉 表
头 部队</w>
失 意</w>
天 晚</w>
大 声
夜 袭</w>
外 敌</w>
夏侯 婴</w>
夏 历</w>
在 建</w>
因 犯</w>
四 度</w>
四 五</w>
嗜 欲</w>
喉 咙</w>
商 周</w>
哀 侯</w>
周 昌</w>
周 厉王</w>
吴 道</w>
君 立</w>
后 堂</w>
合 围</w>
受 冻</w>
取 士</w>
历 代
历 书</w>
华 林</w>
十 丈</w>
劝 进</w>
力 壮</w>
剽 掠</w>
刘季 述</w>
刘 晔</w>
出 朝</w>
冲 走</w>
其 军</w>
关 右</w>
六 律</w>
公 公</w>
全 斌</w>
兢兢 业业</w>
先 头部队</w>
兆 头</w>
侯 渊</w>
伸 张</w>
从 未
人 星</w>
人 多
人 同</w>
人 于</w>
五 篇</w>
互 市</w>
九 篇</w>
之 境</w>
主 气</w>
严 延年</w>
两 根</w>
不在 乎</w>
下 水</w>
三十 六年</w>
三 郎</w>
一百 斤</w>
一百 年</w>
一千 四百</w>
一万 名</w>
一 气</w>
一 案</w>
一 心一意</w>
一 室</w>
一 如</w>
一 坛</w>
鲁 郡</w>
颂 德</w>
非 分</w>
需 用</w>
陈 顼</w>
闽 主</w>
长 女</w>
长 卿</w>
铁 钱</w>
金 军
郭 英</w>
郗 超</w>
郁 结</w>
遮 挡</w>
迂 回</w>
迁 出</w>
较 大</w>
转 入</w>
赵 衰</w>
调 入</w>
请 安</w>
誓 师</w>
解 除
规 章制度</w>
见 机行事</w>
虞 氏</w>
落 地</w>
能 为</w>
胡 松</w>
胁 从</w>
联 名</w>
而 起</w>
罗 艺</w>
绝 食</w>
紧 要</w>
粉 饰</w>
类 型</w>
簿 籍</w>
竭 诚</w>
空 爵</w>
秋 收</w>
知 礼</w>
皮 肉</w>
百 般</w>
百 神</w>
疲 力
瓜 果</w>
王 谊</w>
王 蕴</w>
王 城</w>
独 揽大权</w>
然 自得</w>
清 风</w>
流 窜</w>
流 俗</w>
殊 死</w>
柳 宿</w>
某 种</w>
村 里人</w>
李 克
李 东阳</w>
暴 躁</w>
暂 任</w>
明 元帝</w>
时 逢</w>
无言以 对</w>
无 际</w>
无 射</w>
新 娘</w>
斜 谷</w>
教 养</w>
敏 求</w>
效 死</w>
改 易</w>
摄 图</w>
探 寻</w>
拘 束</w>
拆 除</w>
执 笔</w>
所 要</w>
所 学</w>
戍 兵</w>
意 在</w>
惶 惶</w>
总 之</w>
御 营</w>
得 力</w>
彭 州</w>
张孝 忠</w>
引 路</w>
开 运</w>
开 赴</w>
开 船</w>
开 朗</w>
康延 孝</w>
应 从</w>
平 卢
布 列</w>
差 一点</w>
巫 婆</w>
崔 季</w>
峰 峦</w>
屯 军</w>
宽 慰</w>
宽 度</w>
宗 尹</w>
安 家</w>
子 爵</w>
太子 妃</w>
大 难</w>
大 元帅</w>
壶 关</w>
四十 五</w>
唐 肃宗</w>
哭 诉</w>
周 书</w>
告 假</w>
受 益</w>
受 挫</w>
县 伯</w>
南 向</w>
华 为</w>
升 到</w>
十 名</w>
十 五天</w>
北 口</w>
募 集</w>
劈 开</w>
剥 削</w>
前 有</w>
到 溉</w>
刘 皇后</w>
减 弱</w>
军 资</w>
冒 险</w>
再 升</w>
六十 天</w>
六十 万</w>
入 室</w>
元 始</w>
僧 道</w>
值 得
值 宿</w>
余 杭</w>
何 妥</w>
伏 诛</w>
任 尚</w>
从 东</w>
亮 光</w>
于 人</w>
二 五</w>
事 故</w>
争 抢</w>
习 惯于</w>
九 重</w>
九 十里</w>
乙 巳日</w>
为 济</w>
丫 环</w>
严 苛</w>
两 汉</w>
不 需</w>
不 差</w>
下 坡</w>
三 统</w>
三 星</w>
黄 白</w>
麟 德</w>
魏 大中</w>
鬼 魂</w>
马 夫</w>
饥寒 交迫</w>
风 流</w>
韦 执
阵 以待</w>
阮 大铖</w>
间 或</w>
长 年</w>
银 器</w>
金 乡</w>
采取 行动</w>
邦 交</w>
逃 兵</w>
运 数</w>
迎 来</w>
费 宏</w>
诸 司</w>
识 字</w>
议 政</w>
认 错</w>
西 讨</w>
裙 子</w>
蔡 兴宗</w>
董 绍</w>
萧 誉</w>
胃 气</w>
肆 虐</w>
而 至</w>
老 小</w>
美 食</w>
羌 胡</w>
编 管</w>
粗 暴</w>
答 儿</w>
等 部</w>
神 君</w>
碧 玉</w>
短 浅</w>
盐 税</w>
白天 黑夜</w>
白 兔</w>
癸 酉日</w>
疾 驰</w>
男 丁</w>
生 机</w>
甘 甜</w>
理 案件</w>
珍 藏</w>
王 平</w>
燕 州</w>
灯 火</w>
漂 流</w>
清 扫</w>
淄 州</w>
洛 阳宫</w>
洗 雪</w>
沿 河</w>
河 南人</w>
沦 为</w>
没 入</w>
氏 叔琮</w>
毫 毛</w>
梧 州</w>
桂 枝</w>
果 树</w>
来 历</w>
束 海</w>
月 晕</w>
最 佳</w>
曲 靖</w>
景 德</w>
晚 辈</w>
晋 景公</w>
昨 晚</w>
昆 山</w>
无 话
无 所</w>
新 甲</w>
数 不胜
数不胜 数</w>
救 治</w>
政 事堂</w>
攻 进</w>
戒 惧</w>
成 法</w>
慕容 冲</w>
感 恩</w>
感 恩
意 念</w>
惠 达</w>
惟 庸</w>
恐 怖</w>
总 有</w>
急 事</w>
德 辉</w>
德 操</w>
当 权者</w>
当 务
强 调</w>
强 烈</w>
张 华
弄 权</w>
弃 市</w>
异 同</w>
座 席</w>
广 固</w>
巨 万</w>
左 司</w>
崔 铉</w>
崔 延
峻 峭</w>
屯 戍</w>
层层 叠叠</w>
小 巷</w>
家 裹</w>
审 理案件</w>
审 案</w>
完 成
孤 军</w>
孝 昭</w>
孙思 邈</w>
婉 转</w>
夷 甫</w>
失 传</w>
太 甲</w>
天 官</w>
大 顺</w>
外 泄</w>
夏 税</w>
壁 上</w>
坍 塌</w>
土 块</w>
图 治</w>
四 邻</w>
四 府</w>
周 宣帝</w>
吴 县</w>
吐 血</w>
司 户
可 为</w>
只 以</w>
厌 烦</w>
卷 起</w>
劳 绩</w>
刘 真
军 力</w>
内 外
其 众</w>
其 三</w>
公 辅</w>
依 凭</w>
人 丁</w>
五十 四</w>
二千 匹</w>
乙 丑
之 父</w>
为 定</w>
丹 州</w>
临终 时</w>
中 风</w>
中 旬</w>
严 阵以待</w>
两 千人</w>
东 迁</w>
专 心
不知 疲倦</w>
不 谈</w>
不 派</w>
下 官</w>
一 长</w>
齐 公</w>
黑 子</w>
鸟 雀</w>
高 闾</w>
驻 跸</w>
青 苗</w>
雄 飞</w>
隐 伏</w>
随 葬</w>
陷 阱</w>
阁 臣</w>
金 花</w>
重重 地</w>
重 托</w>
遭 难</w>
道 学</w>
退 下来</w>
连 缀</w>
连 州</w>
远 去</w>
过 往</w>
足 少</w>
赵 文子</w>
豪 放</w>
诸 多</w>
设 坛</w>
设 下</w>
要害 之地</w>
蚯 蚓</w>
萧 条</w>
莫 及</w>
范 增</w>
自 勉</w>
臣 妾</w>
肆 无
肆无 忌惮</w>
罪 罚</w>
罗 尚</w>
纬 度</w>
稻 子</w>
秦 时</w>
离 石</w>
神 志</w>
盐 井</w>
百 日</w>
百 名</w>
白 帝</w>
登 楼</w>
瘴 气</w>
生 还</w>
生 杀
现 已</w>
王审 知</w>
潭 水</w>
满 地</w>
湘 束</w>
涪 州</w>
浑天 仪</w>
浑 邪</w>
流 畅</w>
流 刑</w>
活 下去</w>
汤 思退</w>
段 文昌</w>
柳 璨</w>
枯 骨</w>
杨 彦
朱 晖</w>
暴 死</w>
普 天下</w>
普 及</w>
晋 室</w>
显 灵</w>
昭 著</w>
明 军</w>
旨 令</w>
旧 交</w>
文 用</w>
数 落</w>
放 归</w>
收 押</w>
擅 权</w>
描 述</w>
授 以</w>
捏 造</w>
挺 拔</w>
挥 军</w>
扫 地</w>
打 伤</w>
所 率</w>
战 利
战利 品</w>
总 制</w>
忠 勇</w>
德 文</w>
徒 单</w>
很 会</w>
当务 之急</w>
张 献
张 永
张 存
庾 信</w>
库 仁</w>
庆 云</w>
庆 为</w>
已 去</w>
州 路</w>
崇 信</w>
寿 宫</w>
官 们</w>
孤 军
季 康子</w>
子 敬</w>
娄师 德</w>
奔 命</w>
奋 勇
夹 道</w>
太 少</w>
太 好了</w>
天 快</w>
多 端</w>
复 光</w>
城 父</w>
圣 恩</w>
圆 通</w>
国 家
四十 三</w>
嘉 谟</w>
唐 休</w>
咎 于</w>
吴 州</w>
名 帖</w>
司户 参</w>
右 翼</w>
十二 万</w>
勋 臣</w>
势 头</w>
动荡 不安</w>
加 赠</w>
劝 慰</w>
列 国</w>
出 自
几 名</w>
冲 刷</w>
其 势</w>
兰 根</w>
光 速</w>
元 定</w>
偏 差</w>
俊 为</w>
作 诗</w>
作 客</w>
佛 堂</w>
余 众</w>
伯 有</w>
休 止</w>
仰 天</w>
从 天
五百 余</w>
五 颗星</w>
于 心</w>
了 人</w>
乾 曜</w>
之运 太
之 年</w>
义 举</w>
两 川</w>
不 远
不 妨</w>
下 延</w>
上 宾</w>
上 加</w>
三十 四年</w>
三 卫</w>
万 锭</w>
一 大半</w>
馆 陶</w>
风 俗
韦 生</w>
雍 熙</w>
隐 私</w>
隆 隆</w>
陷 没</w>
陷 入
陈 泰</w>
闪 耀</w>
长 广王</w>
采 办</w>
酒 后</w>
郧 阳</w>
迁 走</w>
迁 就</w>
输 纳</w>
较 量</w>
轻 罪</w>
车 轴</w>
车 师
贡 禹</w>
谷 永</w>
谷 梁</w>
说 些</w>
论 者</w>
西 洋</w>
裸 体</w>
表 文</w>
行 者</w>
行 政
虚 作假</w>
藏 有</w>
蒯 通</w>
萧 昭
荫 庇</w>
致 哀</w>
自 会</w>
脚 踏</w>
肥 壮</w>
绢 布</w>
经 络</w>
绍 义</w>
签 名</w>
程 颢</w>
破 贼</w>
百 工</w>
疑 忌</w>
留 人</w>
畏 服</w>
用 到</w>
王献 之</w>
王景 仁</w>
王仲 德</w>
王 缙</w>
王 淮</w>
王 充</w>
犬 戎</w>
特 许</w>
焦 芳</w>
溪 谷</w>
淳 化</w>
浇 灌</w>
流 浪</w>
洞 顶</w>
洞 门</w>
泪 水</w>
河 清</w>
沙 石</w>
水 下</w>
此 言</w>
梁 将</w>
校 书郎</w>
栗 子</w>
柳 氏</w>
来来 往往</w>
李孝 伯</w>
李如 松</w>
李 筠</w>
杀 生</w>
机 遇</w>
朱 云</w>
朔 大余</w>
有 损于</w>
月 八</w>
更 天</w>
晋 为</w>
星 光</w>
旧 职</w>
无 能
政 局</w>
支 取</w>
摆 好</w>
推 知</w>
挥 舞</w>
指 定</w>
持 有</w>
拒 不
我 作</w>
成 风</w>
成 员</w>
慌 忙</w>
愎 自用</w>
德 才</w>
微 笑</w>
得 民心</w>
徇 私</w>
往 今来</w>
强 弩</w>
张 筠</w>
张 彪</w>
张 伯
弄 虚作假</w>
开 出</w>
延 兴</w>
庾 翼</w>
应 钟</w>
庆 忌</w>
庆 历</w>
岂 止</w>
山 东
屯 骑</w>
寡 不
富 户</w>
密 集</w>
宫 禁中</w>
宦 者</w>
宋 义</w>
孤 立
季 友</w>
子 张</w>
委 曲</w>
妖 人</w>
奸 计</w>
奇 巧</w>
太 王</w>
天 正</w>
天 朝</w>
大 成</w>
外 廷</w>
增 高</w>
埋 藏</w>
垣 护</w>
四十 多年</w>
四 出</w>
善 待</w>
和 洽</w>
吕 望</w>
司法 部门</w>
台 省</w>
台 榭</w>
叫 喊</w>
古 往今来</w>
占 取</w>
南 有</w>
南 岳</w>
南 台</w>
十 一个</w>
加 恩</w>
功 成
劝 止</w>
刚 柔</w>
刚 愎自用</w>
刚 亮</w>
刘 正
刘 敬</w>
冯 氏</w>
兵 刃</w>
八 达</w>
八 儿</w>
余孝 顷</w>
体 例</w>
以 束</w>
他 升</w>
人 户</w>
人 张</w>
人 作</w>
亲 自
五 万多</w>
二 国</w>
乞 请</w>
为 己</w>
中书 右</w>
中 枢</w>
中 堂</w>
中 卫</w>
东 北角</w>
不敢 当</w>
下 笔</w>
三千 匹</w>
三十 一</w>
三 峡</w>
七 百里</w>
丁 奉</w>
一 线</w>
一 县</w>
黄 县</w>
鸡 鸣</w>
魏 舒</w>
高 归彦</w>
高 乾</w>
马 贤</w>
马 皇后</w>
马 来</w>
颈 项</w>
韦 粲</w>
面 上</w>
随 驾</w>
降 临到</w>
陈 豨</w>
门 来</w>
门 山</w>
逾 越</w>
通 政</w>
选 入</w>
路 费</w>
路 可
路 口</w>
超 人</w>
赵 世
贪 官
贪官 污吏</w>
贤 妃</w>
责 任
豪 族</w>
谷 类</w>
谦 和</w>
调 换</w>
语 气</w>
设 官</w>
西 宁</w>
裴 光庭</w>
袒 护</w>
袁 昂</w>
蒙 正</w>
萌 发</w>
耿 炳文</w>
而 复</w>
考 验</w>
耀 卿</w>
罪 刑</w>
缩 小</w>
绵 竹</w>
经 度</w>
紧 接着</w>
系 在</w>
简 为</w>
端 的</w>
积 压</w>
秩 禄</w>
秦 彦</w>
祁 山</w>
看得 见</w>
疾 速</w>
用 途</w>
璧 玉</w>
班 彪</w>
王 禹</w>
玉 衡</w>
猪 肉</w>
狼 狈
煮 饭</w>
炼 成</w>
滋 养</w>
深 沟</w>
深 不可
深不可 测</w>
淮 西
淫 荡</w>
淡 薄</w>
涪 城</w>
涡 阳</w>
洞 底</w>
沮 水</w>
沙 洲</w>
永 熙</w>
水 沟</w>
气 盛</w>
殷 实</w>
樵 夫</w>
横 穿</w>
楚 平王</w>
梁 郡</w>
桃 子</w>
柳 庆</w>
架 设</w>
构 思</w>
杨 承
杨 家</w>
杜 重</w>
李 昌
李 宝</w>
机 警</w>
机 务</w>
朱 荣
朱 俊</w>
曹 真</w>
暂 停</w>
景 龙</w>
映 照</w>
早 起</w>
日 知</w>
无 非</w>
文 阁</w>
文 林</w>
文 安</w>
整 洁</w>
整 体</w>
敢 死
攻 守</w>
收 为</w>
擒 住</w>
撰 文</w>
振 作
拳 头</w>
拨 乱
承 圣</w>
所 藏</w>
急 驰</w>
忿 怒</w>
忠 正</w>
心 计</w>
当 为</w>
归 咎于</w>
归 去</w>
张 欣
张 元</w>
张 位</w>
弃 城
建 设</w>
康 帝</w>
度 律</w>
并 命</w>
崔 彦
屋 檐</w>
屈 伸</w>
尾 随</w>
尹 子</w>
小 白</w>
寝 庙</w>
寒 心</w>
家 居</w>
家 令</w>
宫 刑</w>
宝 藏</w>
宋 弁</w>
宋 军
孝 友</w>
字 叔
子 琮</w>
太 晚</w>
太 宁</w>
天 历</w>
大 自然</w>
外 有</w>
备 用</w>
墓 碑</w>
堆 满</w>
基 本
坚 毅</w>
土木 工程</w>
四十 二</w>
喝 醉酒</w>
哪 敢</w>
咸 味</w>
吸 引</w>
君 山</w>
吏 治</w>
同 学</w>
各 以</w>
司 录</w>
叛 兵</w>
又 立</w>
历代 帝王</w>
卢 充</w>
千 乘</w>
匪 徒</w>
动 心</w>
动 员</w>
割 掉</w>
制 做</w>
到 手</w>
刘 洁</w>
刘 泽
刘 整</w>
刘 成</w>
冉 闵</w>
具体 情况</w>
其 道</w>
兵 强
兢 兢</w>
傅 喜</w>
倭 贼</w>
信 后</w>
保 衡</w>
保 卫
伯 为</w>
传 告</w>
仪 态</w>
以为 常</w>
以 助</w>
以 作</w>
交 由</w>
五百 两</w>
五 升</w>
云 天</w>
二十 五里</w>
二 篇</w>
乱 流</w>
习 以为常</w>
之 令</w>
两 篇</w>
与 此
不拘 小节</w>
不 由
不 比</w>
三十 个</w>
三 焦</w>
丁 卯日</w>
一 地</w>
齐心 协力</w>
齐 庄公</w>
黄 法</w>
魏 延</w>
高 攀</w>
颜师 伯</w>
韦 玄成</w>
随 手</w>
陈 东</w>
陆 凯</w>
阳 胆经</w>
问 问</w>
闭 上
郭 衍</w>
郑 重</w>
郑 生</w>
郑 县</w>
选 侍</w>
退 入</w>
这 帮</w>
还 敢</w>
辽 朝</w>
辰 州</w>
辟 阳侯</w>
轻 兵</w>
身体 力行</w>
身 在</w>
赵 宗
赢 得</w>
贻 误</w>
质 量</w>
责 打</w>
诈 伪</w>
记 在</w>
观 念</w>
西 阶上</w>
西 省</w>
襄 平</w>
被 围</w>
袍 子</w>
血 液</w>
蠡 王</w>
薛 宣</w>
薄 葬</w>
蕴 藏</w>
茹 法
苛 求</w>
苍 生</w>
致 志</w>
自 给</w>
腾 跃</w>
腾 空</w>
老 弱
老 人星</w>
绘 制</w>
绕 道</w>
纵 欲</w>
纱 帽</w>
策 问</w>
竹 竿</w>
移 交</w>
积 德</w>
秋 毫</w>
私 藏</w>
祸 端</w>
祖 陵</w>
礼 毕</w>
磨 砺</w>
知 古</w>
知 事</w>
相 克</w>
百 丈</w>
白 鱼</w>
申 时</w>
用 火</w>
珍 国</w>
王宗 弼</w>
王司马 颖</w>
王 恕</w>
王 宰</w>
王 在</w>
王 友</w>
玉 为</w>
猎 取</w>
父 母亲</w>
温 彦博</w>
温 体仁</w>
流传 于世</w>
洋 州</w>
治 绩</w>
河 源</w>
沃 野</w>
毛 喜</w>
槐 里</w>
梦 到</w>
桓 王</w>
极 盛</w>
杨 善</w>
权 利</w>
本 为</w>
木 棍</w>
有 志
晋 穆帝</w>
显 庆</w>
昨 夜</w>
日 用</w>
新 朝</w>
新 婿</w>
斗 鸡</w>
文 义</w>
教 学</w>
救 护</w>
敌 烈</w>
撤 离</w>
排 成</w>
挺 身</w>
挑拨 离间</w>
按 礼</w>
持 守</w>
拨乱 反正</w>
拒 敌</w>
折 冲</w>
承 庆</w>
才 兼备</w>
悲 叹</w>
悬 在</w>
恶 名</w>
怪 诞</w>
急 务</w>
思 任</w>
德 才兼备</w>
徐知 训</w>
当 朝</w>
弘农 郡</w>
应 援</w>
应 先</w>
库 狄
帝 赐</w>
己 酉日</w>
巩 昌</w>
岁 数</w>
山 贼</w>
屠 夫</w>
封 食邑</w>
封 建</w>
封 丘</w>
寺 卿</w>
察 罕
富 于</w>
密 布</w>
宽 宏
家 有</w>
宝 卷</w>
定 兴</w>
完 者</w>
孩 儿</w>
学 馆</w>
子 期</w>
子 思</w>
子 夏
嫡 孙</w>
多 疑</w>
夏 王</w>
堂 叔</w>
培 育</w>
圆 满</w>
回 旋</w>
回 城</w>
四 百多</w>
四 渎</w>
嘉 王</w>
唐 顺之</w>
史 实</w>
史 事</w>
可 得</w>
受 苦</w>
反 掌</w>
县 境</w>
半 月</w>
午 后</w>
十二 分</w>
匹 配</w>
制 置司</w>
刘 展</w>
刘 仁</w>
出 针</w>
军 势</w>
再 来</w>
再 作</w>
六 千多</w>
充 数</w>
元 膺</w>
做 工</w>
偃 师</w>
亵 渎</w>
交 合</w>
五十 八岁</w>
五十 九</w>
二 条</w>
九 里</w>
乘 此</w>
乌 古</w>
主 苻
主 任</w>
为 司</w>
东 坡</w>
专心 致志</w>
不 衰</w>
三百 年</w>
龙 凤</w>
龙 军</w>
黑 衣</w>
魏 县</w>
魏 兴</w>
魏 主</w>
驻 节</w>
预 防</w>
韩 皋</w>
降 级</w>
附 在</w>
阳明 经</w>
闭门 不出</w>
野 上下</w>
郑 简公</w>
邪 道</w>
道德 修养</w>
连续 不断</w>
远 扬</w>
迎 敌</w>
过 份</w>
迂 腐</w>
达官 贵人</w>
辖 境</w>
躲 藏在</w>
身 患</w>
蹂 躏</w>
跃 马</w>
赵 武
赫连 铎</w>
贞 阳侯</w>
调 派</w>
诈 降</w>
认 出</w>
规 制</w>
补 法</w>
街 头</w>
行 径</w>
藏 用</w>
蒲 察</w>
莫 如</w>
荒 草</w>
荆 王</w>
致 意</w>
胥 吏</w>
而 作</w>
老太 婆</w>
羸 弱</w>
筋 脉</w>
笔 墨</w>
窃 据</w>
穆 为</w>
稀 疏</w>
移 兵</w>
移 任</w>
祈 雨</w>
真 是
眉 州</w>
白 公
病 故</w>
疫 病</w>
甘 延寿</w>
理 想</w>
献 俘</w>
独 行</w>
状 子</w>
激 荡</w>
源 地</w>
混 合</w>
深 水</w>
治 丧</w>
沧 海</w>
汉 主</w>
水 泽</w>
水 底</w>
武 夫</w>
此 行</w>
横 征
横征 暴敛</w>
梁 师</w>
梁 人</w>
桌 上</w>
杨 皇后</w>
杨 期</w>
杨 收</w>
杨 广
杨 复光</w>
杜 甫</w>
李 昭德</w>
机 巧</w>
本 军</w>
末 尾</w>
未 尽</w>
朝 野上下</w>
有 毒</w>
普 照</w>
普 安</w>
晋 位</w>
昨 日</w>
明 明</w>
族 弟</w>
摈 者</w>
揖 让</w>
提 笔</w>
探 访</w>
指 明</w>
拘 押</w>
拉 住</w>
报 恩</w>
护 国</w>
抛 开</w>
投 诉</w>
所 赐</w>
战战 兢兢</w>
战 机</w>
情 趣</w>
情 报</w>
怨 声
御 府</w>
役 夫</w>
当 过</w>
归 德
弯曲 曲</w>
弯 弯曲曲</w>
张 柔</w>
张 果</w>
张 式</w>
张 兴
弋 阳</w>
建 文帝</w>
延 熹</w>
廖 永忠</w>
师 长</w>
左 厢</w>
山 梁</w>
山 往</w>
少 室</w>
对 齐</w>
容 州</w>
宗 越</w>
宋 白</w>
孝 宣</w>
存 粮</w>
子 华</w>
嬴 政</w>
姿 容</w>
好 看</w>
太 孙</w>
大 明
大 全</w>
外 感</w>
士 元</w>
填 满</w>
培 植</w>
城 郊</w>
坛 场</w>
地 有</w>
土 气</w>
四 维</w>
四 十一年</w>
器 度</w>
喝 斥</w>
和 约</w>
周 详</w>
吕 震</w>
后 继</w>
右 岸</w>
史 四人</w>
可 观</w>
变 星</w>
发 抖</w>
双 全</w>
华 贵</w>
十 步</w>
十 姓</w>
加 速</w>
割 取</w>
到 家</w>
刘 彻</w>
刑 徒</w>
兼 琼</w>
先 知</w>
侦 探</w>
依 礼</w>
作 祟</w>
作 声</w>
优 秀
众 位</w>
任 过</w>
从 史</w>
仇 视</w>
亲 笔
五十 七</w>
五 千名</w>
二 地</w>
买 下</w>
为 福</w>
为 子</w>
东 昌</w>
不 食</w>
上 旬</w>
三十 九年</w>
一百 九十</w>
一 听</w>
黄巢 军</w>
黄 琼</w>
高 达</w>
高 居</w>
高 举</w>
骁 将</w>
题 目</w>
顺 承</w>
韦 坚</w>
鞭 笞</w>
霄 宫</w>
陈 希亮</w>
陈 亮</w>
陇 山</w>
阳 子</w>
闵 王</w>
铁 器</w>
钱 帛</w>
钱 元</w>
重 熙</w>
配 祭</w>
酉 甫</w>
郑 庄公</w>
遗 训</w>
通 鉴</w>
通 用</w>
达 头</w>
辛 酉日</w>
载 道</w>
轻 信</w>
身居 高位</w>
贺 齐</w>
贯 钱</w>
贬 逐</w>
谢 彦章</w>
诸 人</w>
详 见</w>
觉 察到</w>
补 官</w>
补 助</w>
衣 衫</w>
融 为</w>
蒙 古人</w>
落 水</w>
萧 至忠</w>
萧 方</w>
荆 楚</w>
舆 鬼宿</w>
自相 残杀</w>
自 行
耕 耘</w>
考 校</w>
翻 阅</w>
绍 圣</w>
纸 笔</w>
简 要</w>
立 秋</w>
稀 粥</w>
祝 福</w>
祈 福</w>
礼 冠</w>
看 管</w>
疑 难
甲 仗</w>
甄 别</w>
瓜 步</w>
现 实</w>
王刘 安</w>
王 忠嗣</w>
王 君</w>
火 速</w>
火 器</w>
游 泳</w>
温 县</w>
清 闲</w>
洪 承畴</w>
泰 为</w>
治 平</w>
沧 江</w>
沛 公
沂 中</w>
求 贤</w>
水 西</w>
水 波</w>
气 虚</w>
殿 试</w>
此 种</w>
正月 初五</w>
正 色</w>
樊 毅</w>
梁 城</w>
校 勘</w>
柳 宗元</w>
查 究</w>
来 降</w>
杜 鸿渐</w>
李 迁</w>
李 敬
杂 色</w>
本 钱</w>
末 节</w>
朝 命</w>
有 勇
最 长</w>
暂 署</w>
景 思</w>
昭 穆</w>
明 门</w>
明 经
旧 业</w>
无 水</w>
无 极</w>
文 定</w>
敬 王</w>
救 人</w>
改 造</w>
操 心</w>
提 及</w>
振 武军</w>
担 子</w>
托 辞</w>
心 智</w>
徐嗣 徽</w>
很 早</w>
张 安世</w>
庞 籍</w>
庚 申日</w>
并 令</w>
帝 都</w>
己 有</w>
崔 炜</w>
岩 壁</w>
小 桥</w>
小 学</w>
射 出</w>
对 照</w>
富 平</w>
宿 营</w>
害 于</w>
客 舍</w>
安 同</w>
孤军 深入</w>
季 良</w>
媲 美</w>
姜 维
天 德军</w>
大 敌</w>
大 内</w>
夜 色</w>
多 日</w>
增 至</w>
土 田</w>
国 亡</w>
商 辂</w>
唐 俭</w>
响 亮</w>
听 罢</w>
听 取
向 南走</w>
名 儒</w>
各 营</w>
右 江</w>
发 动
参 战</w>
卢 龙军</w>
南 乡</w>
单 位</w>
十几 人</w>
十 六个</w>
刺 绣</w>
别 名</w>
刘 郡</w>
刘 琮</w>
刘 一
切 实</w>
凿 开</w>
出 降</w>
几 路</w>
再 往</w>
兼 理</w>
其 城</w>
兰 台</w>
入 京
傍 靠</w>
停 止
停 住</w>
俊 秀</w>
侯 相</w>
侯 周勃</w>
侠 义</w>
作 答</w>
任 右
令 公</w>
九 德</w>
乐 人</w>
主 力</w>
为 昭
为 己有</w>
临 淮
中 允</w>
两 镇</w>
两 国
东 胡</w>
东 侧</w>
丛 林</w>
专 制</w>
不能 容忍</w>
不 服气</w>
不 好
不 严</w>
上 身</w>
三百 五十</w>
三 藏</w>
万 八千</w>
七十 二岁</w>
一 字</w>
齐 兵</w>
高 等</w>
高 元海</w>
驾 部</w>
隐 晦</w>
陈 尸</w>
阴 柔</w>
阎 宝</w>
长 相</w>
郑 文公</w>
逆 流</w>
过 夜</w>
辉 映</w>
跳 入</w>
路 军</w>
赫 赫</w>
谁 知</w>
课 税</w>
诉 冤</w>
许 孟容</w>
记 下来</w>
裴 耀卿</w>
裂 痕</w>
蜿 蜒</w>
荒 唐</w>
节 拍</w>
臣 服于</w>
群 贼</w>
美 为</w>
缭 绕</w>
绥 州</w>
结 纳</w>
终 将</w>
等 府</w>
空 谈</w>
移 驻</w>
积 分</w>
种 谔</w>
祸 首</w>
神 女</w>
破 碎</w>
直言 极谏</w>
百 余里</w>
田 豫</w>
理 万机</w>
王 睿</w>
王 昕</w>
王 文</w>
玉 津
玉津 园</w>
玄 同</w>
献 来</w>
物 类</w>
火 势</w>
混 浊</w>
浩 荡荡</w>
浩 荡</w>
浩 浩荡荡</w>
浊 水</w>
洞 后</w>
沦 落</w>
沉 稳</w>
汲 郡</w>
江 里</w>
汉 语</w>
欢 悦</w>
梁 丘
校 理</w>
柳 下
柳下 惠</w>
林 父</w>
极 殿</w>
杨 崇
条 陈</w>
杜 钦</w>
李 化龙</w>
朱弘 昭</w>
朝 人</w>
有 加</w>
有 传</w>
是非 曲直</w>
昧 无知</w>
数 尺</w>
数 不清</w>
敢死 队</w>
教 师</w>
敏 锐</w>
放 着</w>
放 声</w>
支 配</w>
接 踵
探 知</w>
探 病</w>
挡 不住</w>
拜 四拜</w>
打 碎</w>
所 载</w>
所 记</w>
戒 律</w>
感到 高兴</w>
思 诚</w>
得 免</w>
张 忠</w>
张 家</w>
弄 清楚</w>
弃城 而逃</w>
异 志</w>
开 明</w>
开 州</w>
开 列</w>
康 承训</w>
度 日</w>
干 活</w>
常 衮</w>
左司 郎中</w>
峡 底</w>
峡 州</w>
山 脚</w>
将 才</w>
寒 温</w>
家境 贫寒</w>
审 阅</w>
宝 历</w>
宋 派</w>
宋 元嘉</w>
守 忠</w>
孤立 无援</w>
孝 义</w>
存 活</w>
子 野</w>
姓 张</w>
始 至终</w>
始 毕</w>
奸 情</w>
女 主</w>
奋 击</w>
太 盛</w>
天 策</w>
天 刚亮</w>
天 人</w>
大 钟</w>
大 患</w>
城 头</w>
围 剿</w>
回 顾</w>
嘉 州</w>
嗣 立</w>
周 葵</w>
后 门</w>
后 进</w>
后 园</w>
各 条</w>
司马 氏</w>
史 彦
变 迁</w>
发 源地</w>
发 令</w>
及 时
厚 加</w>
十二 天</w>
十 四个</w>
勇 于</w>
动 向</w>
加 害于</w>
判 死罪</w>
刘 珙</w>
刘 济</w>
凋 零</w>
冯 跋</w>
冠 者</w>
再 加</w>
入朝 任</w>
元 雍</w>
信 军</w>
侵 凌</w>
任 御史</w>
从天 而降</w>
什 翼</w>
人 品</w>
五 匹</w>
五 世</w>
争 吵</w>
九 原</w>
乐 律</w>
之 书</w>
临 死前</w>
丰 登</w>
不相 称</w>
不 计</w>
不 深</w>
不 救</w>
一百 步</w>
一 元</w>
龙 且</w>
黄 权</w>
黄 山</w>
鳄 鱼</w>
鲍 叔牙</w>
魏 子
魏 地</w>
骑 施</w>
香 草</w>
食 客</w>
飞 舞</w>
题 诗</w>
顾 问</w>
韦执 谊</w>
靖 州</w>
陇 川</w>
陆 生</w>
锦 袍</w>
钦 州</w>
酸 味</w>
鄢 陵</w>
郾 城</w>
那 块</w>
遣 军</w>
追 寻</w>
远 游</w>
这 番</w>
迅 疾</w>
轻 佻</w>
越 加</w>
赶 出</w>
赵 志
走 动</w>
资 料</w>
调 迁</w>
说 大话</w>
误 差</w>
诚 心诚意</w>
讲 武</w>
解 送</w>
补 偿</w>
行 伍</w>
蜚 语</w>
荣 祖</w>
草 泽</w>
茫 茫</w>
苗 民</w>
色 已晚</w>
脾 经</w>
脖 颈</w>
老 成</w>
罗 汝才</w>
罗 什</w>
简 明</w>
程 元振</w>
秦 人</w>
祸 根</w>
祭 牲</w>
神 物</w>
研 讨</w>
直 通</w>
盖 住</w>
盖 世</w>
百 事</w>
白 发</w>
番 族人</w>
申 州</w>
田令 孜
生 事</w>
甘 美</w>
王公 贵族</w>
王 及</w>
猎 人</w>
牟 寻</w>
牌 坊</w>
熟 练</w>
澶 渊</w>
澜 沧江</w>
温 热</w>
清 秀</w>
流 言
沉 溺</w>
沈 怀
气 绝</w>
武 丁</w>
正 九品</w>
横 流</w>
横 架</w>
楚 材</w>
桃 枝</w>
格 斗</w>
核 对</w>
校 书</w>
柴 薪</w>
林 宗</w>
杨 彪</w>
来 求</w>
杜 陵</w>
杜 畿</w>
村 寨</w>
李 迪</w>
李 说</w>
李 涛</w>
李 业兴</w>
杀 了人</w>
朱 文</w>
更 重</w>
景 仰</w>
星 叫</w>
无 理</w>
敌 制胜</w>
摧 折</w>
搞 乱</w>
掺 杂</w>
探 听</w>
排 泄</w>
捕 到</w>
抬 高</w>
成 山</w>
愤 懑</w>
感 染</w>
感 于</w>
悼 惠王</w>
悠 闲</w>
思 温</w>
忙 于</w>
志 节</w>
弱 者</w>
弯 弓</w>
张存 敬</w>
康 福</w>
庭 中</w>
应 时</w>
应 于</w>
崛 起</w>
崔 昭
崇 为</w>
山 甫</w>
尊 宠</w>
封 德</w>
寓 居</w>
密 县</w>
宾 州</w>
宣 旨</w>
实 话</w>
定 边</w>
官 衙</w>
官 帽</w>
安 审
孤 寡</w>
孝 敬
孝 先</w>
孙 为</w>
字 体</w>
孔 谦</w>
如 期</w>
好 马</w>
奏 本</w>
奉 侍</w>
天 色已晚</w>
多 于</w>
复 任</w>
增 益</w>
坐 船</w>
圆 规</w>
国子 生</w>
四 部</w>
嗜 酒</w>
善 明</w>
吸 取</w>
吐 出</w>
后 废帝</w>
同 罪</w>
合 朔
各 种
各 率</w>
受 阻</w>
发 狂</w>
原 涉</w>
历 元</w>
卢文 纪</w>
南 省</w>
南 宋</w>
加 高</w>
力 量
前 不久</w>
制 宜</w>
刘敬 宣</w>
刘 豫
刘 粹</w>
刘 勋</w>
分 清</w>
出 洞</w>
凶 手</w>
冯 行</w>
军 号</w>
内 情</w>
兼 中书</w>
其不 备</w>
六十 七</w>
六 里</w>
六 位</w>
八 度</w>
入 门</w>
儒 臣</w>
储 粮</w>
傅 永</w>
债 务</w>
倭 人</w>
倦 怠</w>
保卫 国家</w>
侯 刚</w>
使 女</w>
仰 面</w>
他 用</w>
仁 威</w>
仁 和</w>
亲 生
产 品</w>
五十 八</w>
二百 余</w>
争 利</w>
乡 兵</w>
乌孙 王</w>
之 病</w>
之 歌</w>
之 奇</w>
义 诚</w>
为 家</w>
中 气</w>
两 眼</w>
不 看</w>
不 悦</w>
上 爬</w>
上 吊</w>
万 金</w>
万 万</w>
七十 五</w>
七 宝</w>
黄 泉</w>
鹰 犬</w>
鸣 响</w>
鲁 地</w>
高 延宗</w>
高 傲</w>
骗 人</w>
颜之 推</w>
顺 应
顷 刻</w>
鞑 靼</w>
靠 山</w>
静 下来</w>
霹 雳</w>
震 撼</w>
阴 德</w>
长久 之计</w>
长 进</w>
镇 束</w>
郡 吏</w>
邵 武</w>
邕 管</w>
遗 民</w>
追 踪</w>
进 针</w>
进 步</w>
辅 弼</w>
跳 动</w>
赵志 皋</w>
赵 莹</w>
贤 达</w>
谕 旨</w>
说 不
诧 异</w>
详 察</w>
训 谕</w>
覆 亡</w>
衙 署</w>
蚕 茧</w>
虢 州</w>
藏 库</w>
蔡 廓</w>
荡 平</w>
范 希
脉 络</w>
耶律 淳</w>
而 视</w>
而 求</w>
美 誉</w>
罗 公远</w>
编 辑</w>
结 好</w>
结 东</w>
纯 粹</w>
繁 忙</w>
精 疲力
类 推</w>
簇 拥</w>
算 命</w>
神 速</w>
破 灭</w>
砍 杀</w>
知 名
知 军</w>
盈 满</w>
白 马
白 沟</w>
登 车</w>
略 为</w>
田 州</w>
田 叔</w>
用 金</w>
用 贤</w>
班 列</w>
珍 重</w>
珍 玩</w>
王萧 嶷</w>
王 镕
王 经</w>
王 大怒</w>
犀 首</w>
灵 宝</w>
漂 浮</w>
淮 海</w>
海 盗</w>
浮 肿</w>
浮 山</w>
浑 仪</w>
流传 后世</w>
法 华</w>
没 事</w>
永 中</w>
永 世</w>
水 分</w>
气 喘</w>
横行 霸道</w>
横 列</w>
梁 商</w>
枣 树</w>
杨 阜</w>
杨 虞卿</w>
李 行</w>
李 廷
李 夫人</w>
李 公</w>
本 年</w>
未 成年</w>
木 匠</w>
有 志气</w>
曹 洪</w>
日 日</w>
无 异</w>
新 鲜</w>
新 昌</w>
文 钱</w>
敢 说话</w>
故 国</w>
收 葬</w>
撰 述</w>
提 学</w>
掩 映</w>
持 不下</w>
招 谕</w>
拒 战</w>
报 酬</w>
承 恩</w>
承 奉</w>
戛 斯</w>
成 县</w>
戎 族</w>
懿 公</w>
慰 抚</w>
感恩 戴德</w>
恶 化</w>
恢复 正常</w>
怨声 载道</w>
怎能 说</w>
忠 于
心 事</w>
循 州</w>
得 体</w>
律 历</w>
张弘 靖</w>
应 是</w>
幼 儿</w>
平 虏</w>
平 为</w>
常 为</w>
帅 臣</w>
峻 法</w>
山 阴县</w>
屠 宰</w>
尽 早</w>
尚 方</w>
官 渡</w>
宋 之
宁 宫</w>
季 札</w>
孔 氏</w>
子 年</w>
妻 室</w>
如 云</w>
夷 则</w>
失 实</w>
多 远</w>
备 好</w>
坐 等</w>
国 门</w>
器 用</w>
品 位</w>
周 边</w>
周 穆王</w>
吴 子</w>
吕 诲</w>
后 往</w>
可 笑</w>
可 待</w>
发 愁</w>
厚 赏</w>
厚 爱</w>
历 朝</w>
南 风</w>
南 来</w>
十几 里</w>
十 种</w>
十 州</w>
匹 夫</w>
励 精
剽 悍</w>
前 驱</w>
剁 成</w>
利 鹿</w>
刘 炫</w>
分 寸</w>
几 种</w>
其 所
公 死</w>
倾 向</w>
信 侯</w>
信 上</w>
保 义</w>
侯 为</w>
作 家</w>
佛 家</w>
何 福</w>
低 于</w>
伯 阳</w>
伪 齐</w>
传 诵</w>
会 典</w>
任 其</w>
从 善</w>
亡 命</w>
五十 多</w>
五 步</w>
五 服</w>
二 度</w>
之 难</w>
之 语</w>
义 成军</w>
乃 蛮</w>
主 持
为 荣</w>
中 用</w>
两 千多</w>
两 件事</w>
东西 向</w>
世 龙</w>
不 阿</w>
不 识</w>
不 识
不 带</w>
上 军</w>
三千 名</w>
万 方</w>
一千 一百</w>
一万 七千</w>
一 束</w>
一 早</w>
高 枕
高 庙</w>
飞 入</w>
顺 势</w>
韭 菜</w>
韩 雍</w>
静 止</w>
陆 令</w>
阶 前</w>
间 计</w>
问 是</w>
闭上 眼睛</w>
长 远
钻 营</w>
钱 谷</w>
钦 明</w>
钟 乳
郭 荣</w>
郭 君</w>
郦 琼</w>
道 州</w>
逃 难</w>
迟疑 不决</w>
连绵 不断</w>
连 及</w>
进 餐</w>
进 抵</w>
这 有</w>
返 乡</w>
过 半</w>
达 旦</w>
边 防
边 事</w>
转 眼
跺 脚</w>
赵 奢</w>
赤 诚</w>
赛 典
赛典 赤</w>
败 军</w>
谷 蠡王</w>
论 及</w>
许 王</w>
西 峰</w>
西 头</w>
衣 领</w>
衣 被</w>
衣 人</w>
蛤 蟆</w>
虞 翻</w>
虚 静</w>
菲 薄</w>
获得 成功</w>
药 品</w>
荆 襄</w>
荀 伯玉</w>
节 镇</w>
臧 霸</w>
胸 前</w>
胡 铨</w>
胃 宿</w>
肾 气</w>
肉 食</w>
缺 额</w>
终 始</w>
终 了</w>
紫 绶</w>
籍 贯</w>
算 术</w>
立 祠</w>
祸 为福</w>
祖 坟</w>
破 格
短 衣</w>
短 兵
着 头</w>
相 勾结</w>
监 理</w>
白 骨</w>
痈 疽</w>
画 出</w>
甸 人</w>
生 养</w>
甘 陵</w>
理所 当然</w>
王 音</w>
王 维</w>
王 应麟</w>
猎 物</w>
爱 之心</w>
热 水</w>
灾 殃</w>
灵 越</w>
潘 季
潘季 驯</w>
潇 洒</w>
漫 游</w>
满 桂</w>
渊 源</w>
济 北王</w>
测 度</w>
流 出去</w>
法 式</w>
没 用</w>
沈 璞</w>
污 染</w>
永 顺</w>
水 来</w>
水 为</w>
武 冠</w>
概 括</w>
梁 太后</w>
栾 书</w>
极 少</w>
板 桥</w>
杰 出
杨 约</w>
杨 沂中</w>
杨 侃</w>
李神 福</w>
李 福</w>
李 时</w>
李 实</w>
月 底</w>
曹 史</w>
显 忠</w>
昼 夜
春 耕</w>
时 所</w>
旧 人</w>
日 益
无 闻</w>
无 疆</w>
旋 风</w>
方 丈</w>
文 泰</w>
文 成帝</w>
摧 残</w>
搜 罗</w>
推 开</w>
推 到</w>
拜 伏</w>
抄 掠</w>
房 陵</w>
成 命</w>
成 书</w>
悦 色</w>
恬 淡</w>
思 恭</w>
心 气</w>
得 势</w>
彭城 人</w>
当 有</w>
强 力</w>
张 国
弘 度</w>
应 州</w>
平 仓</w>
干 象</w>
常 德</w>
常 平仓</w>
崔 安
崔 发</w>
山 海</w>
屋 质</w>
居 守</w>
小 童</w>
寇 掠</w>
密 告</w>
宽 缓</w>
定 夺</w>
宋 真宗</w>
宋 氏</w>
安 侯</w>
学 派</w>
学 堂</w>
孚 敬</w>
孙 武</w>
孙 权
存 留</w>
字 形</w>
孔 安国</w>
始 末</w>
如 常</w>
好 意</w>
天 马</w>
天 赋</w>
天 要</w>
大 起</w>
大 月氏</w>
大 哥</w>
复 原</w>
备 至</w>
增 补</w>
地 用</w>
圆 朗</w>
国 来</w>
囤 积</w>
四 岳</w>
四 境</w>
嘉 为</w>
唐 公</w>
君 火</w>
后 悔
名 实</w>
吉 庆</w>
各种 各样</w>
可 乘</w>
古 老</w>
受 困</w>
取 巧</w>
压 境</w>
卫 河</w>
卜 卦</w>
博 通</w>
南 夷</w>
卖 力</w>
十二 条</w>
勤 政</w>
勇敢 的人</w>
出 奇</w>
几 家</w>
充 塞</w>
元 鼎</w>
元 景
僧 明</w>
僧 垣</w>
做 起</w>
倔 强</w>
便 服</w>
侍 婢</w>
会 议</w>
仲 密</w>
仲 孙</w>
以 逸
以 继
他 时</w>
人 参</w>
人 出</w>
五百 年</w>
于 京师</w>
乱 子</w>
乱 军</w>
乌 桓
之 王</w>
之 尊</w>
义 仓</w>
中 宗
中 华</w>
不可胜 计</w>
上 长</w>
七十 余</w>
七 千余</w>
一 粒</w>
黠 戛斯</w>
鲁 成</w>
魏 冉</w>
马 驹</w>
马 儿</w>
饥 渴</w>
飞 禽</w>
题 字</w>
颐 浩</w>
顾彦 晖</w>
雪 耻</w>
集中 兵力</w>
隰 州</w>
陪 臣</w>
陕 虢</w>
降 到</w>
阐 发</w>
都 县</w>
郭 皇后</w>
连 声</w>
远 见</w>
这 本</w>
辩 驳</w>
载 下来</w>
转 祸为福</w>
轨 迹</w>
路 人马</w>
越 到</w>
超 脱</w>
赵 云</w>
贺 鲁</w>
败 落</w>
责任 重大</w>
负 于</w>
诸 道
说 成</w>
访 察</w>
记 载下来</w>
记 忆
詹事 府</w>
被 褥</w>
蝗 螂
蔡 谟</w>
蓟 镇</w>
萧 确</w>
萧 宏</w>
营 栅</w>
茫 然</w>
芒 角</w>
背 面</w>
而 食</w>
绝 妙</w>
索 虏</w>
粮 尽</w>
篇 章</w>
篆 书</w>
章 法</w>
窥 测</w>
突 破</w>
穆 泰</w>
种 树</w>
福 建
破 塘</w>
盲 人</w>
盐 城</w>
盐 场</w>
病 倒</w>
留 着</w>
甜 酒</w>
瓜 洲</w>
王 昙
王 到</w>
玄 元
犯 上
犯上 作乱</w>
物 件</w>
清 流</w>
海 神</w>
流言 蜚语</w>
河 东王</w>
汪 罕</w>
求 官</w>
每 家</w>
母 马</w>
残 部</w>
正 事</w>
棺 柩</w>
棋 子</w>
梦 龙</w>
桓公 问</w>
桐 树</w>
某 个</w>
林 牙</w>
林 俊</w>
杨廷 和</w>
束 帛</w>
李 彬</w>
李 君</w>
朱友 宁</w>
朱 棣</w>
未 及</w>
暴 政</w>
景 观</w>
明经 科</w>
时 应</w>
方 孝
斜 卯</w>
教 谕</w>
教 习</w>
摘 取</w>
插 入</w>
提 意见</w>
拾 取</w>
招 讨
报 上</w>
托 梦</w>
打 胜仗</w>
所在 之处</w>
所 造</w>
所 封</w>
战 时</w>
成都 王</w>
成千 上万</w>
成 淹</w>
慷慨 激昂</w>
愚 昧无知</w>
心怀 不满</w>
心 境</w>
当 涂</w>
归 依</w>
张 孟
庭 筠</w>
希 逸</w>
工 商</w>
崇 政殿</w>
崇 宁</w>
山 前</w>
尽 忠
就 立</w>
小 老婆</w>
寿 光</w>
对 质</w>
对 着</w>
寡 言</w>
察 访</w>
寇 彦卿</w>
宣 歙</w>
宗 泽
孟 州</w>
孝敬 父母</w>
孔 目</w>
子 婴</w>
始 帝</w>
妄 言</w>
好 几</w>
夹 杂</w>
夸 张</w>
天 竺
天 将</w>
天 宫</w>
天 台山</w>
大 祥</w>
大 散关</w>
多 处</w>
外 朝</w>
夏 原吉</w>
均 衡</w>
地 气</w>
土 人</w>
商 代</w>
和 殿</w>
和 子</w>
吴 兵</w>
吕文 焕</w>
吉 凶
各 路人马</w>
司马 德</w>
右 厢</w>
受 业</w>
取 其</w>
参 观</w>
县 中</w>
化 解</w>
包 拯</w>
勇 猛
动 人</w>
加 减</w>
刘 师
分 设</w>
兹 王</w>
其 病</w>
兵 家</w>
六十 二岁</w>
六 十年</w>
公 问</w>
全 郡</w>
入 于</w>
免 刑</w>
元 怿</w>
元 封</w>
傅 说</w>
偏 向</w>
借 路</w>
侵 蚀</w>
侄 女</w>
佛 祖</w>
何 敬
休 哥</w>
任 知</w>
以逸 待
五十 余</w>
事 上</w>
乱 臣</w>
乙丑 日</w>
乘 风</w>
之 害</w>
之 七</w>
主 谋</w>
临终 前</w>
东 观</w>
世 风</w>
不 流</w>
不 明智</w>
不 减</w>
不 使</w>
上 贡</w>
上 刻</w>
一点 点</w>
一 问</w>
一 无
龙 舟</w>
龙 王</w>
龙 武</w>
鹏 举</w>
高 演</w>
骸 骨</w>
马 武</w>
饶 阳</w>
风俗 习惯</w>
风 水</w>
风 势</w>
顾 宪
韩 子</w>
陷入 困境</w>
险 固</w>
降 官</w>
降 兵</w>
陈 许</w>
陈 文帝</w>
陈 希烈</w>
阻 滞</w>
阴 云</w>
阔 论</w>
闹 事</w>
长 老</w>
长 堤</w>
长 兄</w>
钟乳 石</w>
酬 答</w>
郑 众</w>
邻 人</w>
邵 州</w>
避 乱</w>
通 问</w>
逆 流而上</w>
远 来</w>
远 播</w>
远 军</w>
赤 松</w>
赋 敛</w>
贬 退</w>
贤 惠</w>
豪 侠</w>
诸 神</w>
说 客</w>
许 氏</w>
讲 席</w>
蔡 侯</w>
萧 县</w>
营 房</w>
获 准</w>
荣 幸</w>
肺 经</w>
联 结</w>
粪 土</w>
米 粮</w>
管 内</w>
竹 筒</w>
竹 木</w>
穿 衣服</w>
称 许</w>
积 极</w>
积 善</w>
秋 毫无
秋毫无 犯</w>
短 小</w>
睡 醒</w>
看 不
相 持不下</w>
皇 建</w>
白 华</w>
痛 饮</w>
病 痛</w>
甚 厚</w>
王 季</w>
玉 龙</w>
玉 杯</w>
漠 南</w>
演 唱</w>
湿 气</w>
清 凉</w>
海 潮</w>
流 官</w>
活 活</w>
洗 爵</w>
没 了</w>
水陆 并进</w>
水 涨</w>
毛 德祖</w>
殷 孝祖</w>
殡 宫</w>
武 川</w>
楚 共王</w>
柳 毅</w>
束 阳</w>
本 镇</w>
有 奇</w>
有 利
更 始帝</w>
昭 容</w>
春 风</w>
无 终</w>
旅 舍</w>
断绝 关系</w>
教 他</w>
故 居</w>
攻 势</w>
撒 里</w>
推 移</w>
探 察</w>
据 表</w>
投 身</w>
才 力</w>
手 笔</w>
所 灭</w>
所 欠</w>
戍 主</w>
意 味
惠 绍</w>
悲 愤</w>
息 夫</w>
思 孝</w>
徐 度</w>
弯 腰</w>
张 轨</w>
张 守
弃 置</w>
异 说</w>
建 庙</w>
庸 人</w>
康 复</w>
广陵 郡</w>
已 满</w>
左 骁卫</w>
州 卫</w>
崔浩 说</w>
崇 等</w>
岚 州</w>
山 系</w>
居 住
尚 宝
封 存</w>
寂 寞</w>
宰 夫</w>
宣 帝时</w>
宜 城</w>
定 计</w>
官 场</w>
宋 时</w>
安 坐</w>
宅 子</w>
季 明</w>
孙 揆</w>
孔 循</w>
子 司业</w>
子 反</w>
婚 配</w>
威 远</w>
姑 臧</w>
妒 嫉</w>
奢 侈
太 高</w>
太 室</w>
大中 祥符</w>
大 道理</w>
大 福</w>
大 任</w>
外 交</w>
夏 秋</w>
土 质</w>
回 纥
四十 卷</w>
四 郊</w>
四 通
四 分之一</w>
嘉 运</w>
呻 吟</w>
周 惠达</w>
吴 兴人</w>
君 说</w>
吕 据</w>
后 天</w>
名 次</w>
吊 死</w>
吉凶 祸福</w>
各 省</w>
吃 药</w>
古 时代</w>
发 落</w>
协 律</w>
匆 匆</w>
勾 当</w>
劳 顿</w>
动 工</w>
刘景 素</w>
刘 姓</w>
刘 处</w>
刘 一</w>
凌 晨</w>
冯 弘</w>
军 户</w>
冉 求</w>
兴 趣</w>
关 塞</w>
公 论</w>
公 山</w>
八 次</w>
克 复</w>
元 树</w>
允 当</w>
儿 媳</w>
傲 视</w>
倨 傲</w>
信 君</w>
作 坊</w>
体 表</w>
伯 高</w>
伯 益</w>
会 宗</w>
以逸待 劳</w>
介 意</w>
仁 爱之心</w>
亨 通</w>
五百 万</w>
五 彩
五 军</w>
五 六个</w>
云 梦</w>
二十 余年</w>
二 子</w>
争 讼</w>
争 端</w>
乾 陵</w>
乾 坤</w>
书 佐</w>
九 十六</w>
之 脉</w>
之 极</w>
义 宁</w>
久 居</w>
丹 药</w>
串 通</w>
东南 角</w>
不 讳</w>
上 生</w>
三百 万</w>
三十 四</w>
三十 九</w>
三 朝</w>
三 支</w>
万 乘
丁 亥
一 堆</w>
龟 兹王</w>
麟 州</w>
魁 首</w>
高丽 人</w>
高 谈
骄 矜</w>
驿 传</w>
飞 箭</w>
飞 狐</w>
风 调
风调 雨
风调雨 顺</w>
风 行</w>
韩 馥</w>
青 城</w>
集 始</w>
陈 日</w>
阳 球</w>
门 时</w>
长 流</w>
钱 宁</w>
里 路</w>
里 外</w>
通 称</w>
退 回去</w>
这 来</w>
近 似</w>
辽 水</w>
轻 松</w>
踏 上</w>
趁 此机会</w>
趁 夜</w>
起 伏</w>
走 遍</w>
费 祎</w>
贫 困
贤 相</w>
贤 圣</w>
豪 富</w>
谩 骂</w>
说 好</w>
论 定</w>
训 斥</w>
角 度</w>
见 此</w>
要 紧</w>
融 化</w>
蜘 蛛</w>
薛 公</w>
蔡 京
萧 勃</w>
舞 弊</w>
至 上</w>
自 请</w>
腰 间</w>
脚 趾</w>
胡 谐</w>
胡 母</w>
耳 聋</w>
而 上</w>
羊 祜
缅 甸人</w>
细 绢</w>
纯 厚</w>
章 程</w>
突 骑施</w>
程 序</w>
确 有</w>
硖 石</w>
砍 削</w>
矮 墙</w>
短兵 相接</w>
相 火</w>
盟 国</w>
百 药</w>
百 王</w>
登 庸</w>
疲 于
疲于 奔命</w>
畅 达</w>
王司马 越</w>
王元 禧</w>
王 珍国</w>
王 岩
玉 皇
独 特</w>
父 职</w>
爪 子</w>
照 明</w>
滴 水</w>
滥 杀</w>
溪 边</w>
淳 风</w>
深 加</w>
测 定</w>
洞 前</w>
没 完
没完 没了</w>
汉 国</w>
水 淹</w>
武 举</w>
正 言
正 经</w>
欲 念</w>
次 之</w>
梓 树</w>
柏 乡</w>
枣 阳</w>
极 远</w>
松 州</w>
杨 子</w>
杨 公则</w>
李 延
李 太后</w>
朱 赓</w>
朱 红色</w>
朱 滔
朱 家</w>
本 家</w>
未 见</w>
未 得</w>
朝 为</w>
朝 东</w>
智 能</w>
景 先</w>
普 泰</w>
明 示</w>
方 叔</w>
数 据表</w>
故 城</w>
改 设</w>
搅 乱</w>
控 诉</w>
据 点</w>
拔 陵</w>
成 公
戊 申日</w>
悼 王</w>
恩 州</w>
忘 食</w>
心 腹
心 来</w>
徽 号</w>
德 胜
微 星</w>
徐 彦
徐 圆朗</w>
很 远</w>
征 束</w>
强 求</w>
弹 勃</w>
张 行</w>
张 济</w>
张 廷
引 军</w>
开 水</w>
延 年
延年 益寿</w>
庾 冰</w>
应 以</w>
庆 祝</w>
并 称</w>
平 行</w>
干 木</w>
席 间</w>
帝 诏</w>
巩 县</w>
少 主</w>
小 妾</w>
寿 终</w>
寿 数</w>
寿 为</w>
寡不 敌众</w>
容 身</w>
宣 太后</w>
官 者</w>
安 邦</w>
安 贞</w>
安 为</w>
安 上</w>
孔 庙</w>
姜 才</w>
妖 贼</w>
女 真人</w>
天 际</w>
大 神</w>
大 白天</w>
大 吏</w>
大 势</w>
大 丰收</w>
备 战</w>
堪 称</w>
圣 母</w>
土 蛮</w>
四通 八达</w>
四十 多</w>
四十 一</w>
嘉 赏</w>
善 始
和 悦</w>
吴 汉
吕 颐</w>
后 母</w>
各 卫</w>
古 为</w>
发动 战争</w>
参 加
却 长</w>
卫 青
卫 玄</w>
单 州</w>
千 五百</w>
千 乘
医 官</w>
北 进</w>
勾 引</w>
励精 图治</w>
力 田</w>
前 途</w>
前 妻</w>
前 代
利 延</w>
刘真 长</w>
刘守 文</w>
刘 建</w>
刘 延</w>
分 条</w>
分 享</w>
出 迎</w>
出 色</w>
冷 落</w>
决 不会</w>
冰 雪</w>
兴 庆宫</w>
六 件</w>
公 王</w>
公 九卿</w>
八十 七</w>
免 祸</w>
元 狩</w>
元 恂</w>
信 阳</w>
信 件</w>
侯 益</w>
佛 殿</w>
众 望</w>
人 向</w>
交 待</w>
五十 七岁</w>
五 车</w>
五 方</w>
云 台</w>
二十 四
二 天</w>
事 关</w>
争 议</w>
争 战</w>
了 不起</w>
乱 石</w>
九 章</w>
九 泉之下</w>
九 曲</w>
之 状</w>
之 五</w>
主 旨</w>
严刑 峻法</w>
丙 寅
不 顾
不 必要</w>
不 分
不 作声</w>
三百 名</w>
三 方</w>
三 公九卿</w>
丁 氏</w>
丁 大全</w>
一百 二十里</w>
一万 八千</w>
齐 文宣帝</w>
驱 马</w>
青 石</w>
雄 信</w>
陵 庙</w>
险 境</w>
阻 遏</w>
阶 段</w>
间 断</w>
长 期
钓 誉</w>
野 战</w>
野 地</w>
酬 劳</w>
鄙 薄</w>
郭 元
郦 生</w>
郝 处
邓 芝</w>
通 于</w>
进 明</w>
过 饭</w>
达 于</w>
辛 弃疾</w>
起 敬</w>
赵 修</w>
赃 款</w>
贾 谧</w>
败 北</w>
负 有</w>
豁 达</w>
诸道 兵</w>
详 加</w>
要 事</w>
裴 秀</w>
裴 氏</w>
行 经</w>
行 府</w>
葛 玄</w>
荣 宠</w>
茹 皓</w>
自 信</w>
能 行</w>
股 肱</w>
肠 子</w>
肃 敬</w>
老 挝</w>
美 景</w>
羌 军</w>
罪 该
缺 陷</w>
缺 漏</w>
绥 德</w>
竹 书
竹书 纪年</w>
童 仆</w>
立 着</w>
立 有</w>
窝 藏</w>
秦 汉</w>
秉 持</w>
福 宫</w>
祖 约</w>
祖 为</w>
社 神</w>
礼 时</w>
矜 持</w>
着 火</w>
看 不出</w>
相 向</w>
白 山</w>
甲 科</w>
田 绪</w>
田 丰</w>
现 成</w>
王 逵</w>
王 师
王 夷甫</w>
王 坦</w>
玉 册</w>
焦 度</w>
烽 火
点 着</w>
灵 山</w>
火 中</w>
满 盈</w>
深 度</w>
派 兵
派兵 攻打</w>
洗 头</w>
河 北地区</w>
沅 水</w>
池 子</w>
母 丧</w>
殿 宇</w>
正 隆</w>
某 官</w>
果 品</w>
松 山</w>
杜 曾</w>
李固 言</w>
李 道宗</w>
李 程</w>
李 敷</w>
权 知</w>
朝 献</w>
暗 淡</w>
晶 莹</w>
景 云</w>
晋 宁</w>
易 如
既 定</w>
文 遥</w>
文 宣王</w>
敏 中</w>
放 榜</w>
握 手</w>
拘 急</w>
折 往</w>
托 生</w>
打 到</w>
成 式</w>
愧 色</w>
情 态</w>
悠 闲
怨 怒</w>
怂 恿</w>
忘 怀</w>
徐 纥</w>
徐 有贞</w>
很 严</w>
往 复</w>
彩 虹</w>
当 世
归 义</w>
强 硬</w>
强 夺</w>
张兴 世</w>
张 纯</w>
庞 统</w>
广 宗</w>
平 阳侯</w>
平 乐</w>
帝 喾</w>
工 钱</w>
岷 州</w>
尝 试</w>
封为 平</w>
定 方</w>
安 期</w>
孟 孙</w>
孙 程</w>
孙 晟</w>
字 士
子 昂</w>
妄 加</w>
天 书</w>
大 鸟</w>
夏侯 尚</w>
增 修</w>
坑 谷</w>
土 堆</w>
固 有</w>
善始 善终</w>
哽 咽</w>
吕 范</w>
吕 元膺</w>
向 前走</w>
吃 过饭</w>
叶 县</w>
变 蛟</w>
去 皮</w>
卖 出</w>
单 身</w>
半 弧</w>
十几 万</w>
北 去</w>
勒 死</w>
加 剧</w>
前 部</w>
前 头</w>
刻 着</w>
刺 激</w>
刚 开始</w>
刚 刚开始</w>
刘 建
分 守</w>
出自 于</w>
出 国</w>
出 世</w>
几十 步</w>
几 倍</w>
冥 府</w>
再 思</w>
兼 右</w>
其 心</w>
六十 二</w>
六 百里</w>
公 堂</w>
八 百里</w>
全 年</w>
克 敌制胜</w>
兀 儿</w>
停 战</w>
俯 仰</w>
侍 御</w>
作 主</w>
佛 门</w>
何 用</w>
何 氏</w>
伴 随</w>
传 车</w>
仲 由</w>
代 北</w>
仓 廪</w>
人 犯</w>
于 仲文</w>
二百 六十</w>
乱 贼</w>
习 性</w>
乌古 论</w>
之 期</w>
之 宿</w>
举 手</w>
主 峰</w>
丧 杖</w>
严 武</w>
两 重</w>
不足 为
不 绝
不 合理</w>
下 军</w>
上 千人</w>
三 班</w>
三 斗</w>
万 年
七 是</w>
丁 壮</w>
一百多 万</w>
一百 多年</w>
一 新</w>
一 大
一 周年</w>
默默 地</w>
魏徵 说</w>
魏 虏</w>
魏 王
魏 晋</w>
高 空</w>
骑 上</w>
首 要</w>
风 暴雨</w>
顷刻 之间</w>
音 声</w>
韬 略</w>
韩 暹</w>
韩 嫣</w>
面 力</w>
青 牛</w>
霍 禹</w>
隆 兴</w>
降 唐</w>
防 护</w>
阎 立
长 社</w>
铁 官</w>
钱 弘</w>
金 城
重 地</w>
都 监</w>
遗 爱</w>
遗 书</w>
道 贺</w>
道 元</w>
逸 乐</w>
速 决</w>
适 度</w>
送 神</w>
迷 唐</w>
述 律</w>
转 眼</w>
身 自
赵武 灵</w>
费 穆</w>
谎 言</w>
诘 难</w>
诊 脉</w>
计 量</w>
解 去</w>
裴 枢</w>
裴 宽</w>
裘 甫</w>
袭 爵</w>
表 述</w>
补 给</w>
行 到</w>
营 兵</w>
茅 山</w>
至 孝</w>
腰 部</w>
胡 服</w>
肝 经</w>
聪明 才智</w>
职 方</w>
老 鹰</w>
老 天
老天 爷</w>
翱 翔</w>
翩 翩</w>
翟 方进</w>
网 罗</w>
缅 国</w>
紫 宸
精 确</w>
精 怪</w>
粗 略</w>
粗 大</w>
粗 劣</w>
篇 文章</w>
程 务
秣 陵</w>
禁 苑</w>
祭 物</w>
神 祠</w>
碰 见</w>
破格 提拔</w>
石 鼓</w>
眼 光</w>
真 腊</w>
监 门</w>
益 州牧</w>
皇 储</w>
登 岭</w>
疲 敝</w>
留 驻</w>
留 传</w>
用 土</w>
甘 情愿</w>
甘 味</w>
王 贵</w>
王 珙</w>
王 有</w>
王 旬</w>
王 恺</w>
王 号</w>
王 事</w>
率 直</w>
独 处</w>
狡 黠</w>
灯 烛</w>
激 愤</w>
满 脸</w>
溪 涧</w>
深 究</w>
活 过来</w>
洗 浴</w>
治 国
沟 水</w>
沈 希
汉 川</w>
水 河</w>
民 生</w>
殷 人</w>
正 说</w>
欢 笑</w>
检 察</w>
桓 荣</w>
柴 火</w>
架 子</w>
杨 朝
杨 定</w>
束 边</w>
束 发</w>
材 官</w>
李 灵
李 密
李 先</w>
李 丰</w>
朱 衡</w>
朱 据</w>
朱 买
未 变</w>
未 予</w>
服 食</w>
有 谋</w>
有 条理</w>
曹 成</w>
曲 曲
易如 反掌</w>
明 文</w>
无穷 的</w>
新 生</w>
文 风</w>
敖 仓</w>
敌 我</w>
描 写</w>
推 诚</w>
拥 着</w>
招 供</w>
报 仇
投 向</w>
承 当</w>
所 经</w>
所 撰</w>
所 产</w>
战 而
我 儿</w>
成 大</w>
慑 服</w>
怀 慎</w>
心 甘情愿</w>
得 道
形 势
形势 危急</w>
弱 水</w>
张 骏</w>
张 道
张 让</w>
异 宝</w>
廷 试</w>
应 劭</w>
广 开</w>
年 头</w>
平 分</w>
常 惠</w>
常 事</w>
师 法</w>
巧 匠</w>
山 脚下</w>
小 娥</w>
对 王</w>
定 期</w>
完 结</w>
安 昌</w>
宁 肯</w>
孩 童</w>
孤 山</w>
孙 谦</w>
如 虎</w>
女 道士</w>
奏 言</w>
头 山</w>
太 快</w>
大大 小小</w>
大 不敬</w>
外 放</w>
夏侯 惇</w>
坠 落在</w>
场 合</w>
地 走了</w>
土 龙</w>
土 中</w>
国 上下</w>
困 惑</w>
四百 五十</w>
四十 五年</w>
合 击</w>
各 尽
口 人</w>
变 证</w>
反 之</w>
参 酌</w>
华 殿</w>
华 亭</w>
勋 卓著</w>
功 勋卓著</w>
副 武装</w>
刘 胤</w>
几 千名</w>
凄 惨</w>
冷 水</w>
军 到</w>
兴 为</w>
六十 三岁</w>
六 府</w>
公 司</w>
公 仲
八 道</w>
全 然</w>
全 数</w>
全 副武装</w>
先 为</w>
元 岩</w>
假 造</w>
何 至于</w>
伤 财</w>
传 呼</w>
以 有</w>
代 代</w>
仙 药</w>
仁 义
人心 惶惶</w>
人 子</w>
亲眼 看到</w>
亲 理</w>
五 台山</w>
事 务
书 箱</w>
乡 人</w>
九 门</w>
九 姓</w>
之 日</w>
主 观</w>
为 善</w>
丰 邑</w>
中 选</w>
两 丈</w>
不知 去向</w>
不 归</w>
上 缴</w>
三 夜</w>
三 世</w>
七 代</w>
一 命</w>
黄 武</w>
黄 土</w>
鳏 寡</w>
鲁 帖</w>
鲁 国公</w>
鲁 为</w>
魏 恭帝</w>
鬓 发</w>
高谈 阔论</w>
高 汝砺</w>
马希 范</w>
马 芳</w>
首 阳山</w>
首 尾
颜 悦色</w>
音 信</w>
革 新</w>
露 宿</w>
雍 地</w>
随 王</w>
隋 开皇</w>
除 草</w>
除 服</w>
陈 侯</w>
阻 绝</w>
阴 湿</w>
阳 三城</w>
阮 孝绪</w>
银 河</w>
银 术
重新 制定</w>
鄂 岳</w>
郭 林宗</w>
郦 道元</w>
郑 伯
邢 邵</w>
逆 顺</w>
连 接
辽 军</w>
辨 析</w>
距 星</w>
赞 唱</w>
贵 宾</w>
贤 哲</w>
负 责
贞 吉</w>
谓 之</w>
诸 城</w>
记忆 力</w>
议 者</w>
西 转</w>
裹 面</w>
被 选为</w>
袈 裟</w>
荣 辱</w>
范 睢</w>
英 州</w>
苗 人</w>
花 草</w>
芍 药</w>
自 便</w>
老 死</w>
耀 州</w>
编 排</w>
继 之</w>
类 别</w>
筑 坛</w>
突 立</w>
空 洞</w>
积 功</w>
福 为</w>
神 光</w>
社会 风气</w>
磐 石</w>
确 是</w>
石 鉴</w>
真 理</w>
相 投</w>
相 乘</w>
畅 快</w>
田 文</w>
用 兵
王 骏</w>
王 述</w>
王 绍</w>
王 族</w>
玄宗 说</w>
猛 涨</w>
特 长</w>
牙 兵</w>
父老 乡亲</w>
烽火 台</w>
热 情</w>
滥 施</w>
溧 阳</w>
源 怀</w>
清 化</w>
深 陷</w>
深 入
涂 抹</w>
派 遣军</w>
法 办</w>
沽 名
沽名 钓誉</w>
沈希 仪</w>
沈 括</w>
江 湛</w>
汝 阳</w>
水 衡</w>
气 机</w>
段 业</w>
死 囚</w>
武 延
武 冈</w>
正 议</w>
森 林</w>
梁 父</w>
林邑 国</w>
构 陷</w>
极 烈</w>
杨 继
李 杰</w>
李 彝
李 安</w>
朱 公</w>
末 路</w>
木 棒</w>
木 制</w>
有 终</w>
有 次</w>
有 光</w>
暂 缓</w>
景 祖</w>
景 州</w>
春秋 时期</w>
春秋 左氏</w>
日夜 不停</w>
日 理万机</w>
旁 支</w>
新 军</w>
新 乐</w>
散 居</w>
故 友</w>
描 绘</w>
探 索</w>
振 动</w>
拍 手</w>
押 牙</w>
折 向</w>
把 头</w>
承 乾</w>
找 出</w>
所 称</w>
所 应</w>
房 里</w>
战 祸</w>
成 年人</w>
成 丛</w>
感 怀</w>
想 而知</w>
急 急
念 佛</w>
得 通</w>
弩 手</w>
张 重华</w>
张 声势</w>
张 冲</w>
弘 大</w>
弘 为</w>
异 物</w>
建 隆</w>
广 开
平 稳</w>
平 地上</w>
左 担</w>
崔 圆</w>
峻 岭</w>
尽 兴</w>
就 座</w>
小 而</w>
小 有</w>
小 孔</w>
射 穿</w>
察 秋毫</w>
宿 在</w>
宪 为</w>
宣徽 院</w>
宓 子</w>
宋 景公</w>
安 详</w>
学 问
孙 礼</w>
子 雄</w>
婚 嫁</w>
如 飞</w>
如 雨下</w>
好 时机</w>
奔 回</w>
奉 献给</w>
奉 世</w>
天地 万物</w>
大 用</w>
大 檀</w>
多 变</w>
多 出</w>
声 色
填 平</w>
土 神</w>
因 是</w>
四 边</w>
商 税</w>
和 颜悦色</w>
周 氏</w>
告 戒</w>
吻 合</w>
吴 芮</w>
听取 意见</w>
吉 为</w>
各 设</w>
史 天泽</w>
可 想而知</w>
可 图</w>
可 不是</w>
叔 子</w>
发 了</w>
双 脚</w>
参加 考试</w>
原 处</w>
占 筮</w>
南 逃</w>
南 州</w>
南 北朝</w>
十 四万</w>
北 巡</w>
刘 遵
刘 言</w>
刘 绘</w>
刘 永</w>
刘 曼</w>
刘 庆</w>
刘 大夏</w>
分 量</w>
分 手</w>
凭 仗</w>
凌 人</w>
农 家</w>
再 也
共 同
六 科</w>
六 官</w>
公 鸡</w>
公 馆</w>
公 众</w>
公 亮</w>
免 役</w>
先 去</w>
兄弟 俩</w>
元 城</w>
停 发</w>
倡 议</w>
侯 挚</w>
作 则</w>
余 粮</w>
低 落</w>
位 尊</w>
伦 比</w>
任 原</w>
仗 势</w>
仇 杀</w>
二百 年</w>
二十多 个</w>
二十 多里</w>
二 件</w>
事实 上</w>
书 画</w>
也 速</w>
乌 江</w>
之 见</w>
之 口</w>
义 勇</w>
主 祭</w>
为 文</w>
丹 凤</w>
中 以</w>
丧 车</w>
严 州</w>
两 郡</w>
东 北
丘 明</w>
不足 道</w>
不 化</w>
下 跪</w>
三 字</w>
三 子</w>
七十 五岁</w>
七 条</w>
一 节</w>
龙 头</w>
鼎 中</w>
麻 贵</w>
鸡 叫</w>
鲁 公</w>
高高 地</w>
高 登</w>
高 句</w>
高 仲密</w>
驯 象</w>
飞 走</w>
领 到</w>
顺 义</w>
雌 雄</w>
陈 夷
阴 雨</w>
阴 司</w>
闭 口</w>
钟 爱</w>
金 宝</w>
量 力</w>
都 亭侯</w>
郭 进</w>
郭 景
郭 从
邢 杲</w>
适 之</w>
进 官</w>
身 于</w>
跳 进</w>
路可 走</w>
赵 元</w>
赎 金</w>
贮 备</w>
谐 和</w>
谏 院</w>
诸 县</w>
诈 骗</w>
许 远</w>
记 功</w>
言 谈
触 怒</w>
要 义</w>
西 市</w>
蜂 拥</w>
虞 愿</w>
董 昭</w>
董 承</w>
萧大 心</w>
获 知</w>
莫 州</w>
药 丸</w>
苟且偷 安</w>
苏 建</w>
艰 辛</w>
航 海</w>
至 治</w>
自 语</w>
能 事</w>
肃宗 下</w>
职 能</w>
耿 况</w>
而 臣</w>
群 雄</w>
结 案</w>
结 伙</w>
纳 哈</w>
纠 合</w>
累 次</w>
精 简</w>
竹 杖</w>
章 阁</w>
立 说</w>
税 额</w>
程 灵</w>
积 石</w>
秦 淮河</w>
祥 和</w>
祖 王廷</w>
石 梁</w>
瞻 望</w>
直 上</w>
目 的
盛 庸</w>
监 牢</w>
皇 妃</w>
百 谷</w>
白 羊</w>
白 气</w>
白 孝德</w>
登 极</w>
王方 庆</w>
王承 休</w>
王 畿</w>
王 成</w>
王 处
牲 体</w>
爬 行</w>
灵 敏</w>
瀚 海</w>
深 广</w>
济 济</w>
治 安</w>
沉 思</w>
汴 水</w>
汉 惠帝</w>
汉 南</w>
殷 州</w>
段 成式</w>
武 进</w>
正 北</w>
歉 意</w>
架 起</w>
林 寺</w>
杨 宽</w>
束 手
杜 范</w>
李仁 矩</w>
李 邕</w>
李 日</w>
朱 胜非</w>
有 生</w>
有 条
有 兵</w>
有 余
月 色</w>
晦 暗</w>
明 王</w>
明 帝
明 哲</w>
无 讳</w>
方孝 孺</w>
方 信</w>
文 案</w>
文 教</w>
救 灾</w>
改 正
搀 扶</w>
掖 庭</w>
损 益</w>
振作 起来</w>
挥 手</w>
招 诱</w>
扔 进</w>
手 板</w>
所 败</w>
戴 法兴</w>
战 旗</w>
成 州</w>
戍 卫</w>
慕 利延</w>
慈 悲</w>
意味 着</w>
意 妄为</w>
惠 施</w>
惊 喜</w>
悲 泣</w>
悲 伤
恩 爱</w>
急急 忙忙</w>
怎 会</w>
必 能</w>
往 外</w>
张 翼</w>
张 纲</w>
张 砺</w>
张 王</w>
张 昌</w>
弘 微</w>
引以为 戒</w>
开 城</w>
康 公</w>
康 伯</w>
康 义诚</w>
平 平</w>
平 凡</w>
常 想</w>
帐 下</w>
己 巳日</w>
差 使</w>
左 岸</w>
巍 峨</w>
崎 岖</w>
屋 脊</w>
居 留</w>
尽 责</w>
就 寝</w>
尧 雄</w>
寺 观</w>
对 比</w>
密 诏</w>
完成 使命</w>
宋 威</w>
安西 王</w>
季 才</w>
孟 春</w>
孟 密</w>
孝 伯</w>
子 服</w>
子 国</w>
好 多</w>
夹 钟</w>
太 宗
天 麟</w>
天 鹅</w>
天 河</w>
天 枢</w>
大 连</w>
大 肠</w>
大 破
大 庆</w>
大 小
大 吉</w>
多 艺</w>
多 深</w>
增 置</w>
增 大</w>
城 隍</w>
圣 意</w>
四十 九岁</w>
四 件</w>
嗤 笑</w>
哄 骗</w>
周 君</w>
吹 笙</w>
听 不见</w>
含 意</w>
吕 壹</w>
同 母
取 信
卢 钧</w>
南 国</w>
单 父</w>
北 往</w>
北 国</w>
勤 苦</w>
勤 恳</w>
前 蜀主</w>
前 例</w>
制 人</w>
刚 一</w>
刘 汉
刘 根</w>
刘 思
划 出</w>
刑 名</w>
冰 冻</w>
冯 唐</w>
军 出</w>
其 四</w>
兴 师</w>
公孙 龙</w>
元 节</w>
做 生意</w>
偏 离</w>
借 兵</w>
传 下来</w>
任 翰林</w>
任 司</w>
仲 春</w>
以 使</w>
他 国</w>
人 自
人 和
交 配</w>
五 谷
云 山</w>
争 功</w>
乱 箭</w>
书 奏</w>
之 议</w>
之 称</w>
之 劳</w>
之 兄</w>
严 世蕃</w>
两 倍</w>
丝 绳</w>
丝 线</w>
不 驯</w>
不 放</w>
不 失
上 介</w>
万 章</w>
万 寿</w>
丁 巳日</w>
一 笑</w>
黄 陵</w>
鳏 夫</w>
高 级
高 睿</w>
飞 快</w>
风 病</w>
风 浪</w>
预 定</w>
须 要</w>
青 草</w>
难 忍</w>
险 隘</w>
陈夷 行</w>
陈 球</w>
阵 营</w>
阳 殿</w>
阎 显</w>
闲 住</w>
长江 上游</w>
错 落</w>
银术 可</w>
铁 甲</w>
钞 法</w>
量 刑</w>
野 菜</w>
鄯 州</w>
郁 闷</w>
邵 雍</w>
通 好</w>
迟 到</w>
连 山</w>
运 米</w>
赵匡 凝</w>
赵 雄</w>
贾 耽</w>
贪污 受贿</w>
败 将</w>
谷 神</w>
谦 恭
该 是</w>
解除 戒严</w>
见 见</w>
要 立</w>
行 止</w>
薛 胄</w>
薛 嵩</w>
蓄 水</w>
蒋 贵</w>
获 者</w>
莫 折
范希 朝</w>
良 家</w>
至 道</w>
自 傲</w>
自 任</w>
胥 鼎</w>
胡 亥</w>
聊 生</w>
罕 见</w>
章 溢</w>
窘 困</w>
穆 崇</w>
秋 风</w>
私 怨</w>
示 弱</w>
确 切</w>
石 灰</w>
眷 恋</w>
真 州</w>
相 间</w>
目的 地</w>
申 令</w>
生 命
甚 多</w>
理 政</w>
班 勇</w>
环 抱</w>
王李 旦</w>
王 远</w>
王 死</w>
王 弥</w>
王 仁</w>
牙 切齿</w>
版 图</w>
热 邪</w>
炭 火</w>
火 热</w>
澧 州</w>
潜 水</w>
游 道</w>
深 受
淑 媛</w>
海 瑞</w>
洪 水
汤 方</w>
汉 阳
水 兵</w>
气 来</w>
比 部</w>
此 法</w>
正 对</w>
檐 下</w>
樊 猛</w>
桓 谦</w>
桃 李</w>
柳 升</w>
杵 臼</w>
杨 尹</w>
束 到</w>
杜 乔</w>
李元 忠</w>
李 忠</w>
李 园</w>
杂 税</w>
杂 技</w>
朱友 裕</w>
朱买 臣</w>
朱 浮</w>
本 路</w>
本 末</w>
有 颗</w>
有 言</w>
暂 住</w>
旧 恩</w>
日 暮</w>
无 一人</w>
文 彩</w>
数 人</w>
敢 言</w>
教 唆</w>
收 尸</w>
擦 拭</w>
推 说</w>
指 日
拥 挤</w>
拖 延
拖延 时间</w>
抄 小路</w>
扶 苏</w>
手 不
所 派</w>
所 望</w>
所 上</w>
战 无
我 寡</w>
慎 言</w>
意 气
意 料
惠 州</w>
情 性</w>
恍 恍
怕 冷</w>
志 士</w>
御 医</w>
徐 世
很 漂亮</w>
归 真</w>
强 制</w>
张 布</w>
延 到</w>
庶 出</w>
店 主</w>
广开 言路</w>
平卢 军</w>
平 正</w>
平 君</w>
席 卷</w>
帐 子</w>
师 从</w>
州 来</w>
崔 家</w>
属 关系</w>
屋 梁</w>
居 仁</w>
尖 锐</w>
密 旨</w>
寄 住</w>
宪 诚</w>
实 则</w>
定 王</w>
官 俸</w>
官 仓</w>
安 礼</w>
安 帝
守 寡</w>
存 心</w>
字 景
子 方</w>
嫁 人</w>
威 猛</w>
姚 平</w>
好 色</w>
奚 齐</w>
契 约</w>
夺 利</w>
夷 水</w>
失 调</w>
太 深</w>
大 片</w>
大 害</w>
复 查</w>
声 律</w>
圣 宫</w>
因 功
四十 余</w>
四 辅</w>
四 大</w>
嘉 宾</w>
善 射</w>
响 起</w>
咬 牙切齿</w>
周 文</w>
吴 广</w>
含 元殿</w>
司徒 府</w>
可 畏</w>
古 朴</w>
叛 党</w>
叔 度</w>
又 命</w>
参 佐</w>
原 料</w>
卢 毓</w>
单 子</w>
单 于
北 极星</w>
勘 察</w>
功 于</w>
劝 戒</w>
刘 赞</w>
刘 去</w>
划 一</w>
刑 戮</w>
刀 割</w>
凉 风</w>
决 意</w>
军 主
写 明</w>
其 言</w>
其 利</w>
六 郡</w>
先 导</w>
元 裕</w>
元 真</w>
元 琛</w>
元 深</w>
元 兴</w>
傅 永
做 个</w>
倜 傥</w>
侯 思
何 无忌</w>
低 处</w>
低 伏</w>
伸 长</w>
会 计</w>
众 我寡</w>
任 大</w>
任 命
以身 作则</w>
仇 鸾</w>
人 时</w>
五 名</w>
亏 缺</w>
于 长安</w>
于 国</w>
二十多 岁</w>
二 星</w>
二 处</w>
二 军</w>
事 是</w>
事 功</w>
乡 下</w>
乔 新</w>
乔 宇</w>
乌桓 人</w>
之 邦</w>
主 有</w>
为 贞
为 录</w>
中 策</w>
个 子</w>
两 腿</w>
不 慎</w>
不 忘
不 乐意</w>
不 一</w>
上 佐食</w>
万 邦</w>
丁 酉日</w>
一百 卷</w>
一 揖</w>
一 卦</w>
一 切
一 介</w>
齐 郡</w>
齐 文</w>
黄 纸</w>
麻 雀</w>
鸭 子</w>
鸦 仁</w>
鲁 人</w>
鱼 类</w>
鱼 人</w>
魏 齐</w>
高 无上</w>
饱 满</w>
食 粮</w>
陈 军</w>
队 人马</w>
镶 边</w>
镇 定</w>
银 矿</w>
金 丹</w>
采 药</w>
酒 来</w>
酒 店</w>
酒 兴</w>
郭 登</w>
邻 居家</w>
遥 授</w>
通 宵</w>
逆 向</w>
连 在一起</w>
过 节</w>
迁 官</w>
赵 文华</w>
赐 名</w>
资 源</w>
贺 瑰</w>
贵 为
贵为 天子</w>
貂 皮</w>
谈 吐</w>
诸子 百家</w>
说 教</w>
诙 谐</w>
评 说</w>
记 忆</w>
讨 饭</w>
讨 使</w>
认 定</w>
西 凉</w>
西 人</w>
褚 渊
藉 此</w>
著 书
著书 立说</w>
获 免</w>
草 野</w>
草 地</w>
芍 陂</w>
至 高无上</w>
自 由
臂 膀</w>
胆 识</w>
而 代
老 先生</w>
翊 卫</w>
罪 案</w>
缝 制</w>
绝 伦</w>
累 累</w>
紫宸 殿</w>
素 色</w>
立 足</w>
窦 怀
税 赋</w>
稍 作</w>
离 骚</w>
短 缺</w>
知 无
看 不清</w>
省 城</w>
盛 况</w>
百 胜</w>
百 斤</w>
白 绢</w>
畿 辅</w>
田 延年</w>
理 顺</w>
王 莹</w>
王 翱</w>
王 休</w>
狼 山</w>
狱 卒</w>
火 攻</w>
渺 小</w>
渡 船</w>
清 宁</w>
涪 县</w>
浓 雾</w>
测 试</w>
洁 身自
泛 舟</w>
法 正</w>
汉 琼</w>
汉 桓帝</w>
汉 末</w>
汉 口</w>
永 建</w>
气 氛</w>
民 谣</w>
民 事</w>
毕 义</w>
殉 难</w>
武 勇</w>
欺 压</w>
梁士 彦</w>
标 榜</w>
果 子</w>
来 讲</w>
杜 洪</w>
杜 弼</w>
李 顺
李 适之</w>
李 善长</w>
杀 牛</w>
杀 出</w>
朱 希
本 色</w>
末 期</w>
未 决</w>
木 栅</w>
木 柱</w>
最 多</w>
曹 吉祥</w>
景 公说</w>
昭 成</w>
星 体</w>
易 定</w>
明 昌</w>
昆 虫</w>
无一 失</w>
新 垣
斯 椿
数 天</w>
教 官</w>
揭 开</w>
掀 起</w>
挺 之</w>
挫 伤</w>
抢 走</w>
投 机</w>
承担 责任</w>
扛 着</w>
托 身</w>
我 辈</w>
想 一想</w>
悲 恸</w>
总 帅</w>
志 诚</w>
必 死
心 口</w>
德 县</w>
得 出</w>
得 其
很 穷</w>
很 为</w>
往 上</w>
归 彦
强 干</w>
弹 弓</w>
张 载</w>
张 裔</w>
张 猛</w>
张 浩</w>
张 仁
异 牟寻</w>
廉 正</w>
康 叔</w>
应 许</w>
崔 造</w>
崔 瑗</w>
崔 光远</w>
崔 元
居 庸</w>
小 步</w>
小 于</w>
察 知</w>
富 家</w>
容 器</w>
容 县</w>
宫 音</w>
客 氏</w>
宝 鸡</w>
宗 悫</w>
安 氏</w>
学 子</w>
孤 苦</w>
媒 人</w>
姨 母</w>
姜 皎</w>
好几 百</w>
女 宿</w>
天下 第一</w>
天 已</w>
大 尹</w>
大 寿</w>
夜 光</w>
复 出</w>
堡 寨</w>
垂 挂</w>
圣 皇</w>
土 德</w>
围 长</w>
回 回</w>
回 合</w>
唐 明皇</w>
吕 文德</w>
合 祭</w>
司马 望</w>
司 正</w>
司 士</w>
只 带</w>
取 回</w>
叔 夜</w>
发 送</w>
发 声</w>
厚 利</w>
卫 臻</w>
南 燕</w>
升 高</w>
十二 度</w>
动 地</w>
到 职</w>
刘 辅</w>
刘 英</w>
刘 洽</w>
刘 库仁</w>
刘 季</w>
刘 仲
刑 赏</w>
减 半</w>
凉 爽</w>
冯 晖</w>
农 作物</w>
军 械</w>
再 见</w>
兼 用</w>
兵 科</w>
兵 曹</w>
兵 威</w>
兴 定</w>
关 注</w>
六十 五岁</w>
公 输</w>
光 滑</w>
先 死</w>
傅 玄</w>
倚 靠</w>
俞 穴</w>
保 宗</w>
侯 览</w>
依 循</w>
余 靖</w>
何 止</w>
任 恺</w>
以 王</w>
仙 师</w>
仁 基</w>
人 见</w>
人 形</w>
亲 属关系</w>
交 互</w>
五 校</w>
于 事</w>
二百 八十</w>
二 万余</w>
乌孙 国</w>
乌 云</w>
之 险</w>
之 死</w>
举 子</w>
举 城</w>
为 力</w>
中 游</w>
中 将</w>
严 挺之</w>
专 政</w>
不 答</w>
不 回</w>
三 衙</w>
七 五</w>
一条 龙</w>
一 角</w>
一 文</w>
一 变</w>
一 党</w>
齐 声</w>
默 默</w>
高 而</w>
高 浚</w>
骄傲 自大</w>
馈 送</w>
项 伯</w>
韩 长</w>
雄 鸡</w>
隔 开</w>
隐 微</w>
陈 地</w>
闻 朝廷</w>
长 枪</w>
长 存</w>
采 伐</w>
酒 税</w>
郭 默</w>
郭 谊</w>
邪 佞</w>
遗 址</w>
退 缩</w>
追 复</w>
这 幅</w>
迎 脉</w>
过 早</w>
辽 兵</w>
边 区</w>
辛 术</w>
软 禁</w>
赖 以</w>
赐 物</w>
贾 氏</w>
谷 米</w>
调 原</w>
该 州</w>
诗 作</w>
许 靖</w>
许 皇后</w>
许 县</w>
装 入</w>
行 动
蚊 子</w>
虎 子</w>
董 宪</w>
萧颖 士</w>
萧 翰</w>
萧 景</w>
营 卫</w>
莫 大</w>
荔 枝</w>
自 始至终</w>
自 为</w>
自 东</w>
臧 宫</w>
脱 欢</w>
肥 美</w>
肃 然
肃然 起敬</w>
耗 损</w>
而 别</w>
置 酒</w>
罪 恶
络 钱</w>
结 论</w>
纸 币</w>
等 同于</w>
第 十</w>
笃 厚</w>
立 身
窦 轨</w>
空 阔</w>
称 量</w>
称 贺</w>
称 扬</w>
私 交</w>
秀 容</w>
离 合</w>
祝 融</w>
社 仑</w>
石 堤</w>
石 君</w>
石 像</w>
眼 珠</w>
相 连接</w>
百 口</w>
白公 胜</w>
疏 章</w>
申 公</w>
瓦 片</w>
璇 玑</w>
王 梁</w>
王 俭
王 之</w>
猎 获</w>
牵 马</w>
牵 涉到</w>
牵 招</w>
牢 关</w>
燕 南</w>
热 闹</w>
烦 躁</w>
灵 枢</w>
火 广</w>
源 流</w>
湿 润</w>
温 柔</w>
深 藏</w>
淤 积</w>
海 人</w>
津 桥</w>
河 县</w>
沮 授</w>
沈 思孝</w>
求 神</w>
气 汤</w>
民 不
氏 志</w>
殿 庭</w>
武器 装备</w>
正 法</w>
正 室</w>
歃 血</w>
横 溢</w>
楹 柱</w>
梓 宫</w>
杨 朱</w>
来 源于</w>
李思 安</w>
李 彦</w>
李 壁</w>
朱 能</w>
本 经</w>
本 想</w>
有 鬼</w>
有 敢</w>
景 阳</w>
显 王</w>
昏 聩</w>
时 勉</w>
无 遗</w>
无 愧
无 光</w>
施 工</w>
断 狱</w>
斋 饭</w>
文 殊</w>
敌 众我寡</w>
政 治
放 箭</w>
改 穿</w>
改 悔</w>
操 持</w>
操 办</w>
推 出</w>
换 成</w>
挤 满</w>
承 气汤</w>
所 闻</w>
我 刚</w>
成 祖
成 疾</w>
慨 然</w>
慕容 氏</w>
惊 恐不安</w>
恭 贺</w>
总 河</w>
快 意</w>
德 望</w>
彭 时</w>
形 骸</w>
张 经</w>
张 方平</w>
张 文</w>
张 归
康怀 英</w>
带 病</w>
山 越</w>
山 区</w>
屈 膝</w>
小 雅</w>
小 过</w>
对 岸</w>
家 后</w>
宣 召</w>
宠 姬</w>
季 平</w>
字 迹</w>
天 章阁</w>
天 动地</w>
大 队人马</w>
大 势
夏 县</w>
复 归</w>
备 齐</w>
墓 道</w>
堑 壕</w>
圭 表</w>
在 庭</w>
国 祚</w>
国 玺</w>
国 体</w>
商 臣</w>
唐 代宗</w>
哪 会</w>
咸 淳</w>
周 尚文</w>
周 公说</w>
周 举</w>
呈 秀</w>
吴 瞒</w>
吏 科</w>
吊 自杀</w>
吉 思</w>
变 幻</w>
受 制
受 任</w>
取 火</w>
发 愤</w>
厌 弃</w>
十 家</w>
十 八个</w>
十 三万</w>
北 人</w>
化 军</w>
劝 诱</w>
剖 析</w>
前 燕王</w>
刮 风</w>
刘 藩</w>
刘 暾</w>
刘 放</w>
出 海</w>
出 水</w>
冲 冲</w>
内 附</w>
兵 临</w>
兴 祖</w>
公 让</w>
公 用</w>
八十 九</w>
八 十多岁</w>
免 掉</w>
光 复</w>
先 零</w>
先 世</w>
充 裕</w>
借 此机会</w>
便 成</w>
侯景 之</w>
侯 伯</w>
依 山</w>
伯 禽</w>
伯 乐</w>
会 上</w>
亲 附</w>
交 界</w>
五十 四岁</w>
五十 九岁</w>
五 项</w>
二百 一十</w>
乱 说</w>
买 充</w>
之 始</w>
义 阳王</w>
久 病</w>
临 走时</w>
两 半</w>
不 离</w>
上 虞</w>
上 百人</w>
上 洛</w>
上 吊自杀</w>
三 殿</w>
万 无一失</w>
一百 岁</w>
一 言</w>
一 端</w>
龙 去
龙去 脉</w>
鹤 庆</w>
鲁 奇</w>
高 聪</w>
高 级</w>
高 澄
马 子</w>
飞 骑</w>
雒 阳</w>
难 保</w>
陈 安</w>
陈 九畴</w>
附 势</w>
阳 江</w>
阳 令</w>
阎 知</w>
错 杂</w>
酬 报</w>
郑 德</w>
邾 国</w>
逝 去</w>
送 终</w>
迭 儿</w>
辛 味</w>
车 箱</w>
身材 高大</w>
超 宗</w>
赵 绰</w>
赵 用贤</w>
赵 武</w>
赤 脚</w>
贺 循</w>
财 政
贞 节</w>
谣 传</w>
诸 蛮</w>
词 句</w>
认 真
见 效</w>
西 台</w>
蛮 子</w>
虚 设</w>
蒙 山</w>
蒙 古
董 文炳</w>
葡 萄</w>
萧子 响</w>
获 悉</w>
草 莽</w>
范 阳王</w>
苏 琼</w>
般 地</w>
自 救</w>
自 作
肩 膀</w>
而易 见</w>
而 长</w>
而 致</w>
结 构</w>
织 物</w>
细 看</w>
紫 云</w>
策 谋</w>
符合 实际</w>
立 时</w>
窦 宪
突 入</w>
秩 为</w>
神 机
祖 宽</w>
破 水</w>
砍 头</w>
石 宣</w>
知无 不言</w>
真是 太</w>
相 报</w>
相 依</w>
皇 五帝</w>
白 头</w>
病 好</w>
病 在
疑 兵</w>
环 形</w>
王毛 仲</w>
王岩 叟</w>
王 老</w>
王 朴</w>
玉 佩</w>
玄 说</w>
玄 理</w>
特 派</w>
父 丧</w>
燃 起</w>
照 常</w>
焕 发</w>
灵 气</w>
灌 城</w>
满 城</w>
淮 地区</w>
消 化</w>
涂 上</w>
海 味</w>
浑 王</w>
流 失</w>
活 到</w>
洪水 泛滥</w>
江 淮地区</w>
水 神</w>
毒 蛇</w>
每 件事</w>
歪 曲</w>
正月 初七</w>
梦 炎</w>
桂 枝
桂枝 汤</w>
树 丛</w>
查 清</w>
极 致</w>
来 龙去脉</w>
来 者</w>
李可 灼</w>
李 煜</w>
权 重</w>
朱 英</w>
朱 延寿</w>
朱 仲远</w>
本 体</w>
朝 北</w>
有 星</w>
有 志</w>
有 山</w>
有 势</w>
晒 干</w>
晋 明帝</w>
显 而易见</w>
明 察秋毫</w>
明 太祖</w>
早 饭</w>
旧 都</w>
旗 下</w>
施 主</w>
斩 敌</w>
文 德
文 仲</w>
敌 对</w>
据 险</w>
振 威</w>
抗 敌</w>
承 诺</w>
打 扰</w>
打 入</w>
才 多艺</w>
所 出</w>
战 壕</w>
感 召</w>
想 不出</w>
悲伤 地</w>
思 为</w>
忧 心
心 烦</w>
心 惊</w>
德 明</w>
德 安</w>
微 服</w>
御 马</w>
御 临</w>
徐文 盛</w>
形 于色</w>
张欣 泰</w>
张 率</w>
张 汝
张 某</w>
张 信</w>
异 象</w>
延 庆</w>
庭 坚</w>
庞 大</w>
库 里</w>
并 吞</w>
平 山</w>
平 仲</w>
常 礼</w>
帝 室</w>
帝 大明</w>
希 图</w>
屡 立</w>
屋 宇</w>
小 蛇</w>
寻 觅</w>
寇 盗</w>
实 用</w>
宗 爱</w>
安 营</w>
孙权 派</w>
孔 夫子</w>
嫡 母</w>
姚 坤</w>
好 言</w>
奉 公
奇 珍
天 台</w>
大 案</w>
大 带</w>
多 逊</w>
多 才多艺</w>
复 审</w>
墙 垣</w>
堂 兄弟</w>
城 山</w>
圣 先师</w>
国 语</w>
国 为</w>
唐 书</w>
和 善</w>
吵 闹</w>
吴 国
吕 蒙正</w>
吕 生</w>
后 汉书</w>
司 官</w>
发 迹</w>
原 由</w>
原 理</w>
卢 携</w>
南 陵</w>
南 河</w>
南 子</w>
半 山腰</w>
千秋 万代</w>
千 两</w>
十八 里</w>
北 转</w>
勿 吉</w>
勤 俭</w>
刘 逖</w>
刘 聪
刘 立</w>
列 于</w>
刑 场</w>
冯 文通</w>
兼 爱</w>
关 城</w>
共 公</w>
兰 花</w>
六十 四岁</w>
六 十一岁</w>
六 万人</w>
公孙 鞅</w>
入 席</w>
元 贞</w>
元 文</w>
傅 氏</w>
偏 师</w>
修 身
信 武</w>
侯 霸</w>
例 证</w>
但 他
但他 却</w>
伶 人</w>
众 议</w>
众 兵</w>
仲 举</w>
仰 头</w>
付 诸
从 头
仇 兼琼</w>
人 神</w>
亲眼 看见</w>
五十 六</w>
五十 五</w>
五 威</w>
乡 县</w>
乐 事</w>
之 门</w>
之 节</w>
之 会</w>
义 方</w>
久 攻不下</w>
为 护军</w>
为 东</w>
丸 药</w>
中 庭</w>
严 惩</w>
两 句</w>
两 人
丝 织</w>
不相 上下</w>
不 二</w>
三 皇五帝</w>
万 象</w>
七 十多岁</w>
一万 四千</w>
一万 六千</w>
一 甲</w>
一 棵树</w>
一 圈</w>
一 一
黩 武</w>
黄 龙
黄 淮</w>
鸾 凤</w>
鳞 甲</w>
魂 灵</w>
骨 节</w>
骆 元光</w>
飘 然</w>
风 雪</w>
顷刻 间</w>
随 身</w>
阙 失</w>
闲 谈</w>
门 达</w>
镀 金</w>
铜 鼓</w>
铁 杖</w>
金 马</w>
金 线</w>
鄄 城</w>
郁郁 不乐</w>
遵 命</w>
道 合</w>
造 作</w>
速 战
速战 速决</w>
通政 司</w>
通 达
通 海</w>
迎 祥</w>
轻 贱</w>
轮 换</w>
躁 动</w>
赵 家</w>
赴 援</w>
走 廊</w>
赤 红</w>
赏罚 分明</w>
购 置</w>
贬 抑</w>
谢 氏</w>
谋 算</w>
谁 家</w>
诸 卫</w>
请 立</w>
角 之势</w>
西南 角</w>
襄 邑</w>
装 进</w>
袭 取</w>
行 踪</w>
行 幸</w>
行 一里</w>
融 合</w>
蚕 桑</w>
虎 口</w>
蔡 景
莒 子</w>
苍 龙</w>
船 头</w>
臧 荼</w>
胃 中</w>
而代 之</w>
群 牧</w>
缑 氏</w>
统 和</w>
细 流</w>
纳 谏</w>
红 光</w>
纠 缠</w>
粗 略地</w>
类 拔萃</w>
簪 子</w>
等 次</w>
第二 条</w>
立 冬</w>
窦 皇后</w>
稍 后</w>
祭 典</w>
神 农
砍 伤</w>
直 长</w>
直 到
直到 现在</w>
皮 带</w>
百 金</w>
百 亩</w>
畏 寒</w>
用 光</w>
班 宏</w>
王 瑶</w>
王 烈</w>
王 太子</w>
猴 子</w>
犯 错误</w>
犯 者</w>
犯 罪
牛 生</w>
燕 赵</w>
潦 倒</w>
漏 洞</w>
满 天</w>
溃 烂</w>
湟 中</w>
温 纯</w>
清 醒</w>
清 早</w>
混 沌</w>
深 明</w>
海 岸</w>
浑 河</w>
池 阳</w>
毫 州</w>
每 句</w>
此 类</w>
正 路</w>
正 宾</w>
歙 州</w>
歌 诗</w>
柳 世隆</w>
极 高</w>
李 金全</w>
李 选侍</w>
李 矩</w>
李 淳风</w>
李 浑</w>
李 显忠</w>
李 恒</w>
李 兑</w>
杀 伐</w>
朔 望</w>
更 生</w>
暴 行</w>
暴 尸</w>
暴 力</w>
春 夏
春夏 秋冬</w>
明 白白</w>
明 明白白</w>
明 府</w>
无 路可走</w>
无 损</w>
无 余</w>
方 设法</w>
数十 名</w>
敬 忠</w>
政 方针</w>
政 变</w>
攻 袭</w>
指 掌</w>
挂 念</w>
抵 挡不住</w>
扫 帚</w>
才 华
所 有人</w>
战无 不胜</w>
成 景</w>
戎 军</w>
意 料</w>
想 方设法</w>
惠 文</w>
悔 悟</w>
总 要</w>
思 州</w>
怀 素</w>
快 马</w>
微 不足道</w>
待 人
征 敛</w>
张 昭
引 领</w>
开 到</w>
延 徽</w>
康 县</w>
应 举</w>
帝 师</w>
左 慈</w>
崔延 伯</w>
崔 呈秀</w>
峰 头</w>
屡 败</w>
屋 舍</w>
小 鱼</w>
小 钱</w>
小 虫</w>
尊 显</w>
寒 水</w>
富 商</w>
容 量</w>
容 管</w>
宣 讲</w>
宝 志</w>
定 案</w>
学 过</w>
姚 绍</w>
妖 术</w>
她 家</w>
奇珍 异宝</w>
奇 谋</w>
天宝 末</w>
天 界</w>
大 湖</w>
大 政方针</w>
大 户</w>
大 型</w>
多 所</w>
夏 商周</w>
复 苏</w>
堂 下</w>
坦 率</w>
坚 辞</w>
坚 壁</w>
均 等</w>
地 站</w>
国 观</w>
固 安</w>
因 早</w>
回 想</w>
啬 夫</w>
咄 陆</w>
周 南</w>
吼 叫</w>
同 罗</w>
同 席</w>
司马 彪</w>
只 派</w>
古 来</w>
古 北口</w>
变化 无常</w>
受 罪</w>
受 了
受了 伤</w>
取 而代之</w>
卫 国公</w>
博 得</w>
半 腰</w>
十 度</w>
十 七万</w>
匡 救</w>
包 胥</w>
劳 民
助 战</w>
助 兴</w>
动 兵</w>
加 大</w>
制 司</w>
初 到</w>
刘 隐</w>
刘 洪</w>
刘 昱</w>
刘 伯
刘 为</w>
划 船</w>
刑 政</w>
出 类拔萃</w>
几百 年</w>
准 予</w>
决 议</w>
冲 撞</w>
冲 向</w>
内 黄</w>
兵 把守</w>
兰 汗</w>
公 认</w>
公 所</w>
克 敌</w>
光 宗
先 入</w>
先 兆</w>
元 象</w>
元 翼</w>
元 宏</w>
元 天穆</w>
元 善</w>
借 钱</w>
修 城</w>
俨 为</w>
何 敞</w>
传 入</w>
任右 仆</w>
任 殿</w>
以 身</w>
以 期</w>
仙 岩</w>
从 宾</w>
今 人</w>
交 到</w>
五 凤</w>
二千 名</w>
乞 伏
九 庙</w>
乐 音</w>
义 渠</w>
久 旱</w>
为国 捐躯</w>
严 尤</w>
两 列</w>
东 峰</w>
专 任</w>
不在 意</w>
不 经</w>
不 端</w>
不 如意</w>
不 公</w>
上 用</w>
三千 五百</w>
万年 县</w>
七 度</w>
一 叫</w>
龙 尾</w>
黜 退</w>
鸾 鸟</w>
高 飞</w>
驿 馆</w>
马希 广</w>
马 蹄</w>
马 拉</w>
香 案</w>
飞 过</w>
飞 禽
飞禽 走兽</w>
顾宪 成</w>
顺 畅</w>
顺 水</w>
韩 说</w>
青 阳</w>
雍 为</w>
雇 用</w>
雄 厚</w>
陆 丽</w>
附 祭</w>
阵 法</w>
阳 间</w>
阳 休</w>
防 线</w>
闲 适</w>
长生 不死</w>
错 失</w>
针 灸</w>
郑 从</w>
逐 王</w>
追 认</w>
还 家</w>
边 疆
辨 识</w>
辛 云
车 队</w>
车 船</w>
躲 开</w>
起 点</w>
赵 忠</w>
贺 氏</w>
贪 图
象 州</w>
谷 价</w>
谨 身</w>
诗 道</w>
诗 词</w>
记 恨</w>
角 落</w>
被 称作</w>
袁 枢</w>
袁 崇焕</w>
虏 掠</w>
蒲 阪</w>
落 得</w>
茯 苓</w>
范 成大</w>
范 宣子</w>
苗 头</w>
苏 则</w>
苍 白</w>
舍 身</w>
自 言
自 来</w>
腹 地</w>
胶 州</w>
胡 氏</w>
胆 气</w>
肿 胀</w>
肩 上</w>
聂 政</w>
而 死</w>
老 携
翰 为</w>
群 官</w>
美 谈</w>
维 华</w>
精 灵</w>
粗 野</w>
算 筹</w>
立 誓</w>
穿 鞋</w>
空 空</w>
穷 途
穆 绍</w>
程 文</w>
秦 丰</w>
祭 肉</w>
看 门</w>
相 除</w>
相 为</w>
百 司</w>
痛 切</w>
病 情
疾 疫</w>
画 上</w>
申 冤</w>
甘 茂
王崇 古</w>
王 诞</w>
王 用</w>
王 叔</w>
王 傅</w>
猫 头
猫头 鹰</w>
猝 然</w>
猜 想</w>
独 居</w>
犀 角</w>
特 命</w>
燕 国人</w>
潜 藏</w>
漏 刻</w>
游 手
清 远</w>
清 溪</w>
清 泉</w>
淫 邪</w>
消 解</w>
海 寇</w>
浇 水</w>
流 逝</w>
派 往</w>
派 右</w>
洞 霄宫</w>
法 尚</w>
法 于</w>
沙 丘</w>
沉 沦</w>
沉 到</w>
沈 氏</w>
汪 澈</w>
汉 隐帝</w>
水 位</w>
民不 聊生</w>
氏 子</w>
段 韶</w>
武帝 命</w>
此 任</w>
楼 缓</w>
柴 禾</w>
束 晋</w>
杜 袭</w>
杜 子
李 载
李 多
李 士
李 全
李 充</w>
李 允
木 桩</w>
有 始
最 远</w>
曹 彰</w>
更 为
景 宣</w>
旧 址</w>
日 晕</w>
无能 为力</w>
无所 不至</w>
无 锡</w>
无 效</w>
无 所谓</w>
斗 殴</w>
敲 响</w>
散 步</w>
教 人</w>
故 去</w>
故 交</w>
改 铸</w>
摔 死</w>
抗 御</w>
扮 成</w>
手 巾</w>
所 筑</w>
房 梁</w>
戚 夫人</w>
战 守</w>
愚 人</w>
惚 惚</w>
恍恍 惚惚</w>
怯 弱</w>
思 敏捷</w>
思 廉</w>
怒 气
怀 朔
怀 庆</w>
志 同
必死 无疑</w>
德 顺</w>
徐 溥</w>
徐 之才</w>
往 下流</w>
当 会</w>
强 盛
张玄 素</w>
张 宗
弄 错</w>
废 寝
庙 庭</w>
应 命</w>
庆 节</w>
年 富</w>
干 涉</w>
干 支</w>
席 书</w>
帝 到</w>
左 师</w>
屡 战
属 性</w>
居 高
居 多</w>
封 其子</w>
寿春 城</w>
对 垒</w>
宽宏 大量</w>
家 长</w>
家 僮</w>
宫 墙</w>
宣 仁
宛 县</w>
宋 主</w>
安 泰</w>
安 化</w>
季 文子</w>
孝 景</w>
孙 传庭</w>
子孙 孙</w>
子 龙</w>
子 子孙孙</w>
姚 弼</w>
好几 千</w>
奇 制胜</w>
夺 目</w>
太 难</w>
天竺 国</w>
天 佑</w>
大 辟</w>
大 幸</w>
大 力士</w>
士 林</w>
壁 画</w>
因 母</w>
回 过</w>
四 下</w>
唐 时</w>
吕 大防</w>
后 继
同 县</w>
合 喜</w>
各 门</w>
各 为</w>
叹 惜</w>
叶 盛</w>
右 监</w>
台 司</w>
古 事</w>
口 出
变 易</w>
叔孙 建</w>
反 悔</w>
双 双</w>
压 住</w>
卫 律</w>
南 凉</w>
升 入</w>
千 石</w>
北 司</w>
功 利</w>
力 微</w>
删 去</w>
刘承 钧</w>
刘 庆
刘 卫辰</w>
刀 笔</w>
出 奇制胜</w>
凌 云</w>
冢 宰</w>
册 书</w>
内 政</w>
内 使</w>
兴 复</w>
共 得</w>
共 一里</w>
六十 八岁</w>
六 颗</w>
僧 徒</w>
做 文章</w>
倾 泻</w>
借 道</w>
保 甲</w>
侯 白</w>
侮 慢</w>
侏 儒</w>
体 态</w>
低 级</w>
伯 仁</w>
休 烈</w>
以 致于</w>
以 城</w>
以 上者</w>
仙 鹤</w>
付 出</w>
他 立</w>
仔细 观察</w>
从 西阶</w>
人 望</w>
人 众</w>
二 水</w>
事 君</w>
乱 语</w>
乱 政</w>
买 进</w>
乙 浑</w>
之 例</w>
为 伍</w>
临 下</w>
两 匹马</w>
东 来</w>
不 负</w>
不 均</w>
三 项</w>
三 苗</w>
三 江</w>
万 家</w>
丁亥 日</w>
丁 姬</w>
一 时
一 去</w>
一 出</w>
一 侧</w>
齐 发</w>
黑 云</w>
高枕 无忧</w>
高 纬</w>
高 安</w>
驱 车</w>
首 山</w>
音 韵</w>
韩 文</w>
面 相</w>
靠 在</w>
雪 山</w>
降 伏</w>
阿 塔</w>
阳 脉</w>
阳 寿</w>
门 扇</w>
长 信</w>
铺 上</w>
铭 刻</w>
金 气</w>
重 贵</w>
酒 曲</w>
都 承旨</w>
邓 羌</w>
避 让</w>
遭 母</w>
连 带</w>
这 棵</w>
这 下</w>
迎 回</w>
身 负</w>
越来越 少</w>
赵 范</w>
赵 胜</w>
贡 马</w>
谶 书</w>
诸 道行</w>
诸 山</w>
详 细
诉 您</w>
解 决
觊 觎</w>
视 力</w>
见 状</w>
装 有</w>
袜 子</w>
行 长</w>
虚 张声势</w>
薛 国观</w>
蒺 藜</w>
萧 琮</w>
萧 琛</w>
营 气</w>
荣 兆</w>
良 善</w>
船 中</w>
致 仕</w>
自 持</w>
腰 痛</w>
脱 逃</w>
能 容</w>
能 作</w>
肮 脏</w>
肠 经</w>
肃 慎</w>
耳 山</w>
考 课</w>
老携 幼</w>
老 巢</w>
群 蛮</w>
美 味
继 祖</w>
紧 密</w>
篆 文</w>
章 表</w>
空 城</w>
穷途 末路</w>
称 心
积 怨</w>
秋 官</w>
离 得</w>
神 采</w>
礼 宾</w>
石 闵</w>
短 时间</w>
督 抚</w>
真 诚地</w>
相 生</w>
皇 兴</w>
男女 女</w>
男 男女女</w>
田 埂</w>
甥 女</w>
甄 丰</w>
珍 海味</w>
珊 瑚</w>
王 存</w>
玄宗 去</w>
猪 狗</w>
特 权</w>
牧 场</w>
爻 辞</w>
潜 逃</w>
游手 好
温 顺</w>
温 水</w>
深 挖</w>
深 山
浮 云</w>
泯 灭</w>
波 及</w>
河 床</w>
沙 场</w>
武 英殿</w>
武 灵王</w>
武 当</w>
此 物</w>
樊 英</w>
林 聪</w>
杨 元
杨 义臣</w>
杜 淹</w>
李多 祚</w>
李 进</w>
李 孟
杂 念</w>
朱 序</w>
朝 庭</w>
替 人</w>
曲 阜</w>
晋 派</w>
昨天 晚上</w>
易 患</w>
日 历</w>
日 前</w>
无所 畏惧</w>
施 及</w>
断 气</w>
文 德殿</w>
改 赐</w>
改 作</w>
支 峰</w>
推 戴</w>
按 法</w>
拒 绝
抽 泣</w>
押 解</w>
抑 郁</w>
承 载</w>
扶 老携幼</w>
扬 武</w>
所 辖
戎 装</w>
想 象</w>
恢复 原</w>
总 裁</w>
思 想
怒 骂</w>
怀 玉</w>
志 铭</w>
心 迹</w>
德 裕</w>
徐 海</w>
徐 二州</w>
很久 后</w>
徇 私情</w>
归 功于</w>
张 金
废寝 忘食</w>
庙 神</w>
庄 周</w>
广 信</w>
年 末</w>
干 杯</w>
常 对</w>
帝 在</w>
师 旦</w>
左 承</w>
左 丘明</w>
川 王</w>
川 泽</w>
崇 礼</w>
岭 表</w>
山 珍海味</w>
屯 聚</w>
尖 山</w>
寻 甸</w>
家 门口</w>
宫 禁
宁 蛮</w>
学 得</w>
孝 穆</w>
孝 卿</w>
孙 慎行</w>
女 官</w>
奏 起</w>
奉公 守法</w>
奉 守</w>
失 业</w>
天 尊</w>
天 安</w>
大 悟</w>
大 发
夜 深</w>
士 诚</w>
埋 入</w>
坟 茔</w>
坚 说</w>
坚 城</w>
困 穷</w>
四千 五百</w>
四 道</w>
四 字</w>
唾 沫</w>
唐 室</w>
唐 天子</w>
周 弘</w>
周 市</w>
告 诉您</w>
听 觉</w>
后 续</w>
后 撤</w>
合 起来</w>
司马 腾</w>
台 下</w>
口 授</w>
变 法</w>
发 行</w>
发 制人</w>
原 官</w>
历 山</w>
卫 鞅</w>
卢 质</w>
华 阴县</w>
华 元</w>
千 百</w>
十 户</w>
北 魏
劳民 伤财</w>
前 司</w>
刺 字</w>
刺 伤</w>
删 除</w>
刚 健</w>
刘 隗</w>
分 列</w>
出 处</w>
凶 顽</w>
凶 祸</w>
冯 衍</w>
冒 雨</w>
养 护</w>
关 头</w>
六 七个</w>
公子 纠</w>
入 骨</w>
兑 现</w>
元 祯</w>
傅 嘏</w>
修身 养性</w>
修 定</w>
信 守</w>
便 率</w>
侠 客</w>
侍 臣们</w>
佞 臣</w>
作 赋</w>
何 尝</w>
体 谅</w>
伯 宗</w>
伦 常</w>
伤 及</w>
传 下</w>
会稽 人</w>
任 尚书郎</w>
任 前</w>
以 臣</w>
以 向</w>
以 利</w>
从 荣</w>
人 生
人 才
人 任</w>
京 军</w>
亢 盛</w>
五千 两</w>
五十 卷</w>
五 道</w>
五 运
九 座</w>
九 嫔</w>
九 十九</w>
之 文</w>
之 举</w>
中 毒</w>
严 庄</w>
两 税</w>
两 江</w>
两 府</w>
东南 地区</w>
丙寅 日</w>
世 妇</w>
与 非</w>
不 灵</w>
不 治</w>
不 亲</w>
下 船</w>
下 城</w>
下 围棋</w>
三百 多里</w>
七十 三岁</w>
一 片
一 卒</w>
一 亩</w>
黄 福</w>
高昌 王</w>
高 龄</w>
高 绍义</w>
高 僧</w>
马 瞞</w>
食 器</w>
飞 腾</w>
飘 浮</w>
风 流
顾 命</w>
露 面</w>
露 天</w>
雍 县</w>
隆 冬</w>
除 此
除 旧
陈 循</w>
陆 象</w>
附 合</w>
阴 肝经</w>
防 地</w>
闭 城</w>
锅 里</w>
锄 头</w>
野 县</w>
递 减</w>
逐 一</w>
逆 乱</w>
逃 亡者</w>
追 上去</w>
这 匹马</w>
迎 着</w>
达 官</w>
边疆 地区</w>
辨 是非</w>
辞 句</w>
足 厥
足厥 阴肝经</w>
趋 炎
赵 晖</w>
赵 文
资 金</w>
贫 弱</w>
象 限</w>
谶 纬</w>
谢 意</w>
谈 笑
诸 种</w>
说 书</w>
诡 辩</w>
诛 罚</w>
识 见</w>
评 判</w>
许 慎</w>
讨 击</w>
觉 时</w>
藏 匿
薛 讷</w>
薛 地</w>
薛 向</w>
蔽 日</w>
董 允</w>
菩 提</w>
荡 产</w>
花 瓣</w>
舒 元</w>
自 爱</w>
脱 俗</w>
能 耐</w>
能 用</w>
肃 杀</w>
老 生</w>
老 父</w>
翼 翼</w>
翟 銮</w>
羊 皮</w>
羊 欣</w>
罗 平</w>
经 筋</w>
科 目</w>
种 放</w>
神 力</w>
祝 辞</w>
祖 莹</w>
社 庙</w>
破 烂</w>
石 窍</w>
石 庆</w>
睡 觉时</w>
眼 里</w>
真 气</w>
相 迎</w>
相 率</w>
直 方</w>
益 阳</w>
白 文</w>
白 土</w>
疯 子</w>
界 线</w>
申 包胥</w>
用 大
甘 卓</w>
瓶 子</w>
玲 珑</w>
现 出来</w>
王 重
王 吉</w>
王 刚</w>
王 刘</w>
王 伦
狂 悖</w>
牧 野</w>
牛 头</w>
爱 心</w>
热 爱</w>
烧 饭</w>
烟 雾</w>
点 缀</w>
灵 丘</w>
满 的</w>
满 满的</w>
派 官</w>
洒 脱</w>
泻 下</w>
沙 湾</w>
沐 晟</w>
沈 阳</w>
江 津</w>
永 业</w>
毒 虫</w>
毒 气</w>
每 石</w>
段 干木</w>
武 舞</w>
武 职</w>
正 朔</w>
横 着</w>
[...]
